#version: 0.2
e r
a r
i n
m ar
k er
mar ker
in t
c t
o n
u n
i on
p o
ct ion
int er
f un
po inter
fun ction
pointer marker
function marker
s t
i d
r e
v o
vo id
Ġ int
void functionmarker
st r
a t
c h
l e
s e
int functionmarker
str u
stru ct
Ġ g
ch ar
e n
d e
a l
struct pointermarker
Ġint marker
Ġ c
o r
e t
u r
i t
l o
Ġint functionmarker
Ġ re
Ġ structpointermarker
s i
a n
ur n
t urn
Ġ voidfunctionmarker
Ġ n
Ġ f
Ġ 0
Ġ char
m e
Ġre turn
u l
t r
p r
e l
a d
Ġ s
c o
e d
l i
Ġ d
c k
e x
u t
c on
b le
Ġ b
m a
f i
m p
l a
Ġ p
Ġ t
g et
t pointermarker
s s
c e
u e
i f
ul l
in g
function pointermarker
se t
r a
o b
er r
p e
Ġchar pointermarker
v al
o p
e ct
Ġ m
i s
si z
d at
Ġ 1
en t
Ġc on
li st
int marker
Ġn ull
b u
o de
g n
Ġ u
at e
a se
ob j
o u
o t
char pointermarker
re a
a me
g e
o l
intfunctionmarker intfunctionmarker
f f
ex t
Ġ a
dat a
siz e
t y
Ġ void
a ble
re e
t k
el se
s h
Ġcon st
voidfunctionmarker voidfunctionmarker
si gn
le n
i l
Ġ struct
obj ect
u m
Ġ else
err or
t h
i v
Ġ e
f o
p a
3 2
ou ble
o w
lo at
Ġ h
int functionpointermarker
d i
s c
str ing
sign ed
Ġ l
en d
lo ck
e w
Ġ un
Ġ r
fi le
Ġ v
it e
Ġ st
a p
u p
void functionpointermarker
s er
p ar
an d
val ue
in fo
Ġ w
ra y
Ġ pointer
f a
Ġg tk
i c
ty pe
ar ray
Ġ x
rea k
ad d
t e
Ġ de
Ġ i
Ġc ase
Ġint function
k e
b o
v i
e c
o m
Ġd ouble
in d
0 0
v ar
o ut
a ck
n ame
a m
t i
er pointermarker
o f
t a
lo c
Ġvoid function
pr int
in e
i st
Ġb reak
pr o
con st
t marker
Ġ if
g s
a s
v er
Ġun signed
Ġ tr
w id
ma p
ul t
s p
al l
o d
al se
n ode
er e
Ġu int
f loat
st ate
o k
at ion
Ġg st
re ad
r t
Ġ q
u s
m s
st at
ch e
Ġ in
ke y
t ext
var i
re s
i g
i x
c a
tr y
c p
pr iv
re turn
or d
i le
Ġint pointermarker
me m
t er
i p
char functionmarker
ma x
f ree
la y
co l
lo g
f or
c m
v e
p ut
Ġf alse
h e
pointer voidfunctionmarker
m at
list pointermarker
un t
re g
y pe
i r
m ode
print f
wid get
Ġchar marker
on g
p re
vari able
n d
b it
co de
it er
s u
bu ff
Ġ str
n t
ite m
q u
en try
Ġ j
p l
Ġg charpointermarker
co m
de x
a ge
object pointermarker
ar g
h t
m l
rea m
ar t
Ġf loat
p tr
Ġ 2
ot o
d b
f la
q ue
at h
t o
s y
u int
float functionmarker
re f
s o
m ent
al loc
Ġ o
g r
po s
Ġtr ue
w r
Ġ se
n ext
b ack
c l
bu f
siz et
a sh
s k
ch an
po rt
c ur
t ree
s a
m o
6 4
intfunctionmarker marker
n um
v ent
st ream
Ġ pointermarker
Ġ k
er t
size of
i m
y te
c la
vi ce
t able
co unt
at or
s pa
p h
a g
in it
i o
1 6
co mp
de v
de f
con n
ind ow
Ġdouble marker
at tr
char marker
at a
bu g
Ġg et
buff er
h and
t ion
f s
Ġ is
fun c
b ut
in dex
c re
Ġb o
a c
Ġ op
b lock
Ġstruct variable
Ġvoid pointermarker
g th
n ew
Ġ end
m et
e s
e g
ti me
c all
Ġg d
Ġre g
d r
n o
fi g
spa ce
Ġ ex
b ase
a ct
u re
par am
c r
l ine
len gth
Ġp y
il d
Ġc o
f r
w indow
che ck
cla ss
Ġf ile
un signed
intfunctionpointermarker intfunctionmarker
Ġconst marker
void function
vi ew
d o
er en
s n
fa ult
add r
w it
Ġintfunctionmarker if
d is
pr op
p ath
h ash
ff set
Ġst at
Ġ en
or y
Ġ sizet
Ġvoidfunctionmarker g
Ġg oto
he ad
ct x
c li
me ss
m en
n ull
s r
con t
m in
st art
voidfunctionmarker marker
p y
o re
fla gs
l u
ck et
d ouble
int function
b l
al i
el d
c mp
ec ere
ce ss
in k
s pointermarker
on e
info pointermarker
iv e
Ġt h
it y
Ġintfunctionmarkerif intfunctionmarker
s intfunctionmarker
b yte
an s
con text
o g
Ġdouble pointermarker
Ġgtk widget
voidfunctionpointermarker voidfunctionmarker
b er
Ġl ong
wr ite
ect or
con fig
u se
po int
ig ht
re c
f ra
val id
bo x
Ġ sizeof
ma ge
t on
in st
ou p
Ġ ma
id e
n ot
ss ert
bu s
m t
data pointermarker
n c
Ġbo ol
mess age
priv ate
le an
de vice
p lay
ms g
Ġb u
com m
f d
i me
file pointermarker
p t
e le
re nt
que st
un d
Ġpointer voidfunctionmarker
ur ce
el l
di r
Ġ error
stat us
Ġn ew
c b
ow n
wit ch
de bug
Ġ set
ap p
ss ion
Ġintfunctionmarker return
u le
Ġs h
an t
ol d
or t
int pointermarker
su b
ar d
se le
Ġend if
sc r
Ġ mp
s ion
fi l
lo ad
mp le
node pointermarker
Ġvoidfunctionmarker if
n el
Ġintfunctionmarkerreturn intfunctionmarker
Ġintfunctionmarker int
Ġg s
c lo
p er
a il
m b
Ġt mp
m od
Ġcharmarker array
re ct
ame space
Ġ mem
Ġg f
c i
cm d
t p
Ġst d
fi eld
Ġre s
eren amespace
e m
col or
re t
ok en
fa il
Ġreg ist
Ġ z
la st
et pointermarker
lo w
mode l
u b
ex tpointermarker
ar e
e ction
Ġvoidfunctionmarkerif voidfunctionmarker
g ra
o st
n s
p i
m d
re ss
ma sk
g tk
hand le
r ow
t x
pointer charfunctionmarker
li b
Ġre t
l er
g en
Ġ list
erenamespace ecere
call back
Ġgtk tree
an ce
Ġc ur
l y
const marker
Ġ po
ar ch
a b
state pointermarker
lo b
Ġ err
Ġp ar
c ase
c s
a v
it ion
c an
Ġt ype
but ton
Ġf or
m an
e st
p ix
Ġ 3
e vent
pointermarker r
ca st
s l
Ġs witch
v el
p p
Ġ 4
v ector
st d
u ser
s pe
w ord
res ult
Ġx ml
an g
Ġ value
Ġunsigned pointermarker
s b
intfunctionmarker intfunction
ut ex
prop er
o ffset
dat e
Ġfloat functionmarker
ra w
iter ator
t in
mo ve
e p
Ġd b
chan nel
pa ge
out put
wid th
Ġm on
cont extpointermarker
for m
Ġ ch
fi r
Ġg n
o lean
s intmarker
Ġg object
Ġ string
1 0
Ġf ree
for mat
tr ol
fr om
Ġconst pointermarker
en tpointermarker
le te
n al
in put
gr oup
Ġt ree
w or
on t
conn ection
Ġc l
ar n
le vel
f t
ar gs
Ġs n
g in
Ġn ode
al og
e v
Ġ pr
Ġg char
Ġ pro
la b
q l
Ġde fault
r o
a ut
Ġ max
Ġpointer charpointermarker
st ore
ar get
fra me
ma in
Ġintfunctionmarkerint intfunctionmarker
at ch
Ġg listpointermarker
h od
u st
er y
i mage
charmarker array
Ġres ult
cur rent
r c
Ġf ail
attr i
b reak
par se
op tion
s d
Ġ at
error pointermarker
Ġth is
ca che
f in
th read
Ġf printf
cli ent
g u
con trol
item pointermarker
Ġd ata
so urce
j ect
Ġs p
c c
Ġf la
reg ist
Ġstat ic
Ġs y
if y
Ġgtkwidget pointermarker
Ġd i
Ġ id
m it
a ction
f e
un lock
loc al
private pointermarker
ed it
con ta
o y
bit sintfunctionmarker
s g
Ġn um
u sh
fi x
proper ty
fir st
un k
f ind
Ġ len
bo olean
tr ans
Ġe v
que ue
voidfunctionmarker voidfunction
inter nal
re quest
an ge
op en
l d
Ġ size
attri but
se nd
c ap
fla g
cre ate
lo t
floatfunctionmarker floatfunctionmarker
Ġcon tin
ct r
Ġpointer charfunctionmarker
head er
w a
Ġcontin ue
1 1
c cess
ch ild
d f
00 0
Ġv tk
str oy
sign al
x ml
m i
f re
se ssion
l ink
Ġ log
Ġs o
st ack
Ġ y
d up
sele ct
Ġg str
Ġregist erpointermarker
lab el
b a
li c
e mp
Ġg uint
g it
e e
s m
scr ip
r b
si g
Ġ 8
1 2
a le
c ell
Ġg it
le ar
co py
fa ce
Ġ val
void pointermarker
c pointermarker
if fail
ta g
con d
num ber
l ong
se c
Ġchar functionmarker
de fault
struct intfunctionmarker
a ssert
Ġ printf
t ing
Ġn et
re en
cp y
Ġc a
a ce
Ġl ine
hand ler
entry pointermarker
ali z
Ġg int
er s
r ix
mar k
u mp
clo se
inst ance
t s
comm and
Ġa j
de stroy
par ent
Ġif def
y p
len ame
l f
Ġ1 0
p c
pos ition
Ġd o
n et
Ġw r
id x
wor k
w arn
Ġ ar
value pointermarker
ser ver
a in
Ġunsigned marker
add ress
Ġre ad
man ag
s voidfunctionmarker
Ġc ol
Ġfile pointermarker
di alog
Ġg return
if f
Ġb yte
Ġfloat marker
po ol
g ed
qu ery
m utex
a u
ar y
fil ter
co d
pointermarker priv
Ġstruct marker
Ġe in
en v
bo ol
f n
ec erenamespaceecere
Ġgd k
op er
Ġh e
ele ment
y le
Ġ object
c f
b r
h ost
in f
se q
at ed
g charpointermarker
re al
eg in
intmarker intmarker
Ġw x
men tpointermarker
de sc
app end
te st
conn ect
bu ild
le x
pointervoidfunctionmarker pointervoidfunctionmarker
sc an
l s
pointermarker get
at ure
Ġ key
p s
ver t
g f
ty p
ver sion
met hod
m er
Ġintfunctionmarker structintfunctionmarker
void voidfunctionmarker
th is
Ġg free
Ġ arg
chan ge
b e
mp l
Ġ lo
x y
d n
tr i
mat ch
mb ol
f alse
Ġvoidfunctionmarker voidfunctionmarkervoidfunctionmarker
ex p
b y
con f
5 0
he ight
w h
Ġvoidfunctionmarker return
et ype
Ġfla g
ord er
ir q
f l
Ġde bug
conta in
men u
m on
i al
void intfunctionmarker
Ġstructpointermarker structpointermarker
Ġpy objectpointermarker
Ġde v
ta b
un ref
lob al
00 00
a ve
struct variable
string pointermarker
Ġintfunctionmarker intfunctionmarker
mod ule
pa cket
t op
Ġstat us
Ġd r
Ġg t
ser t
set ting
um ent
Ġ out
s or
Ġvoidfunctionmarkerreturn voidfunctionmarker
s v
regist er
p ad
c d
Ġ al
dis play
st er
j ob
c el
Ġc all
re d
n g
Ġg errorpointermarker
Ġn ame
mat rix
rea ch
a y
8 0
Ġintfunctionmarker break
c al
Ġstr cmp
Ġintfunctionmarkerbreak intfunctionmarker
Ġg boolean
um n
Ġd n
co re
en um
up date
Ġb it
re q
Ġde f
val u
table pointermarker
use d
Ġf i
fi lename
l in
b ar
bit s
Ġc om
se arch
h w
m pointermarker
stream pointermarker
Ġp ix
pl u
Ġp k
x x
de d
par ser
ut ter
c lear
Ġbool marker
Ġj s
Ġg l
as y
pl y
Ġstr len
Ġg r
nd er
Ġst art
pointermarker intmarker
un it
d l
st yle
Ġsizet marker
u x
Ġ add
h er
i con
Ġvoidfunctionmarker voidvoidfunctionmarker
at om
m y
Ġ print
re n
ch ed
tr ue
e k
ali gn
Ġ le
de l
Ġintfunctionmarker voidintfunctionmarker
po p
el ist
g g
w e
gra ph
Ġm ode
attribut e
gu i
Ġp re
byte s
Ġb lock
pa ck
si c
case intfunctionmarker
d y
Ġc p
lay er
Ġintfunctionmarker caseintfunctionmarker
Ġmon o
or m
Ġs nd
Ġf ind
o ff
Ġm y
iv er
Ġd is
o s
le t
Ġ 5
m m
Ġc pl
le ment
sele ction
Ġ check
b in
l l
array pointermarker
wr it
st em
Ġbu f
lay out
Ġ ed
o c
v t
Ġs cm
Ġq u
Ġbu ff
ctr l
de p
Ġin dex
o o
Ġt ime
st op
so cket
n own
p m
x t
en c
x f
t oken
v ec
ex pr
v m
op t
x ff
ul ti
w in
Ġh t
gen er
Ġcon n
Ġc li
g er
buff erpointermarker
Ġv ar
st pointermarker
ok up
mem ory
Ġ el
ct l
widget pointermarker
en able
2 0
i fi
g b
scrip t
std err
se d
Ġa p
Ġa ssert
co un
l at
Ġcl utter
i ck
w y
Ġst ate
u id
p la
Ġp h
g t
Ġ si
d s
le ft
pro cess
i z
in sert
Ġs c
double marker
or c
const pointermarker
ta il
Ġ ad
bo ok
Ġco unt
ation pointermarker
Ġt oken
se n
Ġgs listpointermarker
le ase
Ġregist er
pointermarker pointermarker
b t
et er
Ġh ash
di rect
ce s
Ġo ffset
r un
Ġis l
window pointermarker
warn ing
aut h
Ġg en
do c
plu gin
Ġe c
in valid
voidfunctionmarkervoidfunctionmarker voidfunctionmarker
i b
Ġ an
d d
Ġ iter
g l
up le
a st
Ġwr ite
a ss
sr c
stat ic
se g
Ġ 6
Ġu ser
chan ged
v as
Ġd bus
s up
Ġf l
v ide
c at
or tmarker
Ġin it
Ġco mp
col umn
r y
ot e
Ġg list
om et
par t
Ġfloat pointermarker
p k
Ġa v
f ont
act ive
ptr marker
b egin
stream marker
at ter
Ġs er
t arget
double pointermarker
or pointermarker
Ġ0 0
re move
qu al
f b
u al
sy s
Ġm in
err no
sp on
Ġu p
c nt
Ġsp in
Ġn ext
ic al
de cl
f x
mp ty
c ate
Ġ ext
is h
n am
pro xy
Ġ obj
g o
ile d
f p
ad ata
Ġintfunctionmarker unsigned
ang le
m alloc
pro c
i ct
Ġi o
pa ss
di o
Ġt est
o me
n at
struct voidfunctionmarker
ra ser
r x
Ġr tx
rec ord
sh ow
manag er
Ġs ub
on ent
char intfunctionmarker
wa it
Ġ ut
p ush
wit h
Ġbuff er
cont ent
u d
ot al
Ġen um
ma g
i se
Ġg la
Ġdef ine
in ode
re nder
n e
ct or
asy nc
and le
Ġn m
t mp
ig h
de lete
Ġcur rent
Ġg pointer
Ġc re
Ġstd string
2 5
si mple
Ġde lete
sa ve
i aliz
a f
ed ata
h dr
ser vice
2 4
ch r
d own
de c
ti mer
ph y
a mp
sc reen
Ġex it
en ame
Ġg u
Ġgtktree model
s w
o urce
Ġb raser
dat at
type pointermarker
pre v
r ange
Ġw h
Ġq string
sy mbol
en ce
ent er
value s
ur l
Ġs k
il l
c str
inter face
Ġp l
int voidfunctionmarker
p g
la ss
Ġm od
Ġr t
p d
Ġg hash
o ot
Ġ map
h as
eren ce
en sion
lo okup
Ġs la
Ġa cp
Ġg e
null voidfunctionmarker
Ġ func
p tion
Ġintfunctionmarker charintfunctionmarker
le d
data voidfunctionmarker
Ġintfunctionmarker ret
Ġw id
su ccess
s ql
Ġ1 6
Ġi p
se ction
Ġintfunction t
en ode
Ġm o
met a
cur sor
rec pointermarker
val iffail
gra m
sc ale
v is
Ġintfunctionmarker q
re set
n er
Ġ last
ro ot
ex ec
g d
clo su
Ġt ext
p end
spon se
w er
Ġtree marker
sy nc
contain er
ar ed
Ġintfunctionmarker ecerenamespaceecere
a i
ad er
Ġfprintf stderr
th e
Ġa ut
Ġs v
re l
const intfunctionmarker
Ġc r
ad ap
an e
Ġn e
ch unk
Ġintfunctionmarker else
Ġintfunctionmarkerelse intfunctionmarker
Ġvoidfunctionmarker p
param s
ch ine
di ct
se lf
Ġa c
le ction
la ble
inter pre
to ol
s on
se tpointermarker
eg er
s lot
Ġ me
le ct
f w
co pe
time out
Ġcon fig
Ġgla de
Ġ it
view pointermarker
Ġintfunctionmarker g
po r
i re
l it
sy stem
Ġc ame
pr oto
f c
Ġs d
Ġr b
Ġop er
fo reach
po ly
m c
class pointermarker
Ġ alloc
Ġvoidfunctionmarker n
Ġ length
Ġvoidfunctionmarker nullvoidfunctionmarker
reg ion
g i
Ġein val
Ġvoidfunctionmarker orc
Ġmem set
fa iled
1 5
lo op
Ġintfunctionmarker r
tr ace
Ġ lib
Ġgreturn iffail
pix el
Ġgreturn valiffail
lu sh
s ort
o und
Ġi r
Ġpointer structpointermarker
Ġg objectpointermarker
Ġif intmarker
Ġa st
Ġg am
d raw
not ify
cr y
db g
Ġm sg
ul ong
Ġl d
atter n
i gn
4 0
if t
ta sk
pa ir
li mit
Ġc ode
Ġerr no
Ġ or
s intfunctionmarkerintfunctionmarker
Ġu se
lean up
ac ker
old er
back end
Ġa b
po l
Ġd at
Ġg value
ch ain
s structpointermarker
Ġgn m
Ġ array
comp onent
Ġvoidfunctionmarker voidfunctionmarker
un i
sa ction
Ġm et
ut e
ss l
info tpointermarker
bit map
st o
Ġre al
Ġc md
ser v
i e
act iv
p id
ce ption
Ġv er
cp u
bo und
g c
Ġv ector
Ġintfunctionmarker n
Ġk rb
Ġf ir
Ġintfunctionmarkerunsigned intfunctionmarker
Ġv i
e y
ct pointermarker
mo v
se l
pr i
Ġt emp
b ad
Ġp age
py objectpointermarker
Ġc lo
ol l
Ġsh ortmarker
Ġa pr
Ġpointer g
cf g
can cel
sy m
t v
Ġ et
Ġvoidfunctionmarker arg
s voidfunctionmarkervoidfunctionmarker
id ent
an k
se cond
Ġintfunctionmarker p
loc ation
Ġvoidfunctionmarker structvoidfunctionmarker
f ull
a x
er ec
Ġev as
block pointermarker
c n
Ġin put
Ġca ir
h o
Ġf d
an saction
Ġc an
g lobal
tri es
pe ct
pro g
Ġpar am
Ġgstr dup
Ġintfunctionmarker i
Ġg assert
si ble
Ġg valuepointermarker
Ġg i
Ġvoidfunctionmarker else
s z
Ġl u
Ġt im
Ġgobject unref
dep th
Ġvoidfunctionmarkerelse voidfunctionmarker
Ġin valid
Ġnode pointermarker
interpre t
Ġmem cpy
se m
Ġt arget
Ġe vent
l ator
1 3
l k
Ġg th
Ġintfunctionmarker constintfunctionmarker
ite ms
Ġw ord
Ġre quest
m ulti
err structpointermarker
sa mple
Ġs w
co ord
tr ack
vari ant
te mp
g p
d ma
s um
Ġs u
tr a
ul d
z er
p voidfunctionpointermarker
se nt
pointermarker n
sc m
i ss
voidfunctionmarkervoidfunctionmarker voidfunctionmarkervoidfunctionmarker
ra me
u pointermarker
n one
ur c
m id
com instance
Ġu sb
Ġpar se
wh ile
res ource
can vas
i ce
Ġintfunctionmarker ecere
m ux
Ġm utex
1 00
dr iver
s in
as k
on ly
Ġ prop
Ġ 7
null intfunctionmarker
ar m
Ġt p
50 9
Ġf s
me di
Ġvoidfunctionmarker data
fil l
Ġintfunctiont intfunctionpointermarkerintfunctionmarker
a pe
Ġ item
bo ard
st ep
Ġp ath
Ġvoidfunctionmarker intvoidfunctionmarker
set up
Ġintfunctionmarker d
li g
Ġop en
Ġg wy
do main
Ġtr ans
Ġ port
Ġp er
qu ence
s f
ed ge
Ġg o
Ġde vice
pix buf
is l
so ck
v tk
Ġ old
stru ction
pointermarkerr nat
pointermarkerr max
oper and
ul tpointermarker
pointermarkerr min
a w
it h
Ġfi eld
spe c
j ust
Ġ ra
an y
sh e
de st
cl u
Ġw or
Ġd ir
connection pointermarker
emp ty
ur m
Ġgst pad
Ġop tion
Ġen o
v b
fe ature
ere g
Ġintmarker intmarker
pla ce
f low
Ġg lo
Ġwh ile
voidfunctionpointermarker voidfunction
op y
ma c
param eter
Ġg error
Ġr c
g ine
interpret cast
Ġintfunctionmarkerret intfunctionmarker
Ġ output
v id
ev entpointermarker
Ġintfunctionmarker nullintfunctionmarker
o id
p n
fail ure
f er
Ġp g
message pointermarker
a k
Ġcre ate
it or
Ġstructpointermarker n
b ind
sy n
Ġp ack
re lease
Ġc b
stat etpointermarker
an el
b g
map pointermarker
Ġcom m
s ing
Ġat om
di m
bl k
d a
Ġb a
ut f
regist erpointermarker
string marker
Ġs l
po st
se ns
en cod
Ġa pp
al ist
Ġc k
at t
it le
orm al
u c
Ġfir st
lu gin
p pointermarker
Ġintfunctionmarker c
s get
comp are
st ype
ur face
ma il
Ġpointer gcharpointermarker
pro ject
play er
Ġt o
Ġh andle
charfunctionmarker charfunctionmarker
ex it
ad i
Ġcharpointermarker intmarker
Ġb ase
cli entpointermarker
f mt
Ġre f
de lay
Ġa ct
a int
0 2
Ġ entry
option s
map p
pro gram
sn mp
Ġs a
er ic
r ing
Ġ2 5
ind ent
ma ke
Ġse nd
Ġdi ct
ba sic
read y
unsigned pointermarker
pr ob
str len
Ġintfunction p
fra met
gr id
scrip tion
Ġg file
Ġst ream
t t
Ġvoidfunctionmarker d
Ġun it
ur i
1 000
s witch
Ġr ow
edit or
f m
Ġ ob
Ġt able
voidfunction voidfunction
Ġ addr
Ġde cl
Ġpy object
st mt
en tries
d pointermarker
i es
j o
pre ssion
Ġvoidfunctionmarkerg pointervoidfunctionmarker
Ġx lator
gui control
cla s
Ġm at
ere f
c ard
po wer
ut il
error intfunctionmarker
at al
res ultpointermarker
in c
Ġp tr
Ġclo se
fin ish
x pointermarker
el y
Ġg ee
lig ht
re sh
o ver
class inst
vo l
le g
cominstance intfunctionmarker
r ight
ra p
mp i
n i
sh ift
Ġw indow
int eger
s la
Ġnum ber
inter val
Ġg v
et ime
ou se
Ġdb g
Ġ1 2
Ġser ver
Ġstatic pointermarker
Ġ info
la s
pointermarkerrmax pointermarkerrnat
he ap
Ġcol or
data intfunctionmarker
sp in
pointermarkerrmin pointermarkerrmaxpointermarkerrnat
Ġi m
free structpointermarker
ra g
b b
Ġc opy
u i
Ġintfunctionmarkerecerenamespaceecere cominstanceintfunctionmarker
Ġp ut
Ġt ag
is c
sh ort
Ġintfunction internal
t intfunctionmarker
vo lu
ker nel
re sponse
select ed
Ġy y
ob o
Ġ sig
intfunctionpointermarker intfunction
lic y
sh ared
env pointermarker
Ġp c
1 8
com b
size intfunctionmarker
h el
st or
l x
ur ation
mar t
r up
Ġh ost
an c
Ġbraser o
t m
Ġfor mat
sc al
fo und
sp lit
i i
k nown
device pointermarker
li k
const ant
child ren
Ġd w
str pointermarker
Ġ 9
po se
len intfunctionmarker
Ġm atch
se ek
en o
Ġi mage
gtk widgetpointermarker
Ġgd ouble
Ġv m
cry pt
pointer charpointermarker
ht tp
up dat
ext ension
prog ress
ere ad
Ġg pointermarker
pa y
op s
Ġu charpointermarker
list tpointermarker
re interpretcast
file s
h ist
unk nown
f g
Ġret val
ke vent
Ġ listpointermarker
mag ic
Ġstructpointermarker next
s ol
bu cket
Ġm alloc
Ġse c
s cope
Ġcomm and
Ġc lass
c lock
a j
conta ct
Ġvoidfunctionmarker case
r d
Ġghash table
Ġwid th
f lush
Ġcame l
Ġcli ent
Ġintfunctioninternal classinst
closu re
st amp
sp er
p w
3 0
Ġfprintf filepointermarker
Ġdr m
pe c
meta object
i mpl
manag erpointermarker
a sc
ion pointermarker
Ġs rc
in ed
v l
o le
type marker
v p
build er
a get
ma ster
Ġs ql
Ġs m
Ġgs list
Ġ of
x p
Ġg nc
al ph
Ġ objectpointermarker
volu me
Ġf c
Ġvoidfunctionmarkercase voidfunctionmarker
Ġm s
Ġs up
Ġd y
bo dy
in sn
lik ely
Ġb e
Ġsh ort
port ed
setting s
c ert
to gg
own er
Ġ function
pointermarker next
direct ory
end if
ifi er
it erpointermarker
ra m
l ate
di fi
us b
se quence
te mpl
ce pt
Ġmem ory
Ġintfunctionmarker ec
Ġx m
proto col
mar sh
de script
act or
comm on
t l
Ġre c
d u
Ġg k
Ġfor intmarker
Ġso ck
Ġgst cap
Ġsizet pointermarker
Ġvoidfunctionmarker c
Ġs printf
Ġma chine
d one
are a
Ġg x
an tpointermarker
un used
path pointermarker
seg ment
Ġ lock
ele mentpointermarker
m ote
et ch
ctx pointermarker
ff ff
vt bl
dr v
able pointermarker
Ġvoidfunctionmarkerg tk
Ġex p
unsigned marker
Ġs oup
x n
Ġn ot
Ġf o
Ġpk ix
spe ci
d iff
dis k
ode pointermarker
Ġt er
Ġstructpointermarker flags
or ity
Ġg fs
ra ph
sizet marker
struct ure
Ġs sl
Ġc m
Ġpointerg errorpointermarker
Ġ point
clu de
Ġ load
low er
Ġqu ery
pr ot
v a
mem ber
ter m
Ġgtk text
code c
b s
Ġc d
Ġht tp
fa ct
0 1
Ġintfunctionmarker err
h s
ver se
pre fix
w x
stat s
Ġop t
Ġ attr
or ig
zer o
si s
Ġstructpointermarker intmarker
di git
marsh al
an ch
Ġspin unlock
Ġintmarker array
ta ch
Ġg c
de mux
con vert
ex ception
di st
Ġstrlen charpointermarker
scr oll
Ġb t
real tmarker
j ut
col lection
Ġspin lock
arg ument
co ver
spe cpointermarker
Ġf ix
error code
box pointermarker
it ive
ty pointermarker
ad just
al k
Ġg p
Ġ local
ref erence
et o
po licy
Ġdis play
Ġglo bus
en gine
togg le
pa ce
coun tpointermarker
de scription
Ġma sk
Ġstructpointermarker d
Ġ 32
p df
Ġse lect
ta ke
b ject
de tail
Ġs pl
t uple
a statepointermarker
Ġin f
Ġex pr
w l
structpointermarker dev
tree pointermarker
w d
ex ist
constmarker constmarker
node tpointermarker
j s
mo unt
Ġgn ut
g st
ss h
Ġw arn
cp l
er ti
Ġstatic cast
omet ry
def ine
r ate
Ġbyte pointermarker
Ġintfunctionmarker f
Ġcall framet
Ġf il
Ġrtx marker
model pointermarker
Ġ marker
Ġde fin
de code
Ġl ink
Ġf r
ic s
pend ing
1 4
Ġel m
attribut es
Ġtr acker
Ġsy mbol
char voidfunctionmarker
Ġeno mem
Ġbu ild
Ġp ng
intfunctionmarkermarker intfunctionmarker
arch ive
button pointermarker
mar y
guicontrol s
init ializ
c ation
vert ex
dis able
Ġg string
ct ype
reinterpretcast intfunctionmarker
Ġgdk pixbuf
re p
en ew
Ġgi mple
Ġintfunctionmarker list
Ġ args
n r
80 2
str dup
re ply
enable d
Ġgd kevent
Ġn o
Ġs r
ly ph
adap ter
double functionmarker
Ġstr n
gener ic
intfunctionmarkerintfunctionmarker intfunctionmarkerintfunctionmarker
ele mpointermarker
aut il
float pointermarker
str aint
Ġf m
ck ey
Ġxlator tpointermarker
Ġvoidfunction pvoidfunctionpointermarker
Ġ ot
Ġb g
Ġdefine marker
gn o
Ġh d
Ġlong marker
Ġpro c
l r
8 6
s ink
ut ion
h i
g ame
ac cess
Ġm c
templ ate
m il
Ġvoidfunctionmarker i
Ġch ild
Ġdefin ed
Ġd x
que u
met adata
Ġtr ace
coun ter
data intfunctionpointermarker
field pointermarker
trans form
Ġst ack
oper ation
row ser
Ġcon ta
float marker
Ġstructpointermarker b
not e
h d
as sign
a pointermarker
c error
Ġ ok
t om
bo se
fo c
cr o
2 3
comm it
Ġd l
Ġw a
callback voidfunctionmarker
str act
in form
pro file
p cm
p f
lob ject
de vent
sa v
Ġ message
w ap
break voidfunctionmarker
Ġs cr
Ġgtktree view
il ity
in vo
Ġg signal
Ġstrcmp charpointermarker
Ġg stringpointermarker
aliz e
re ction
n def
ge st
Ġb r
res ol
vide o
proper ti
s q
Ġcair o
Ġg lobal
Ġvoidfunctionmarkerg c
w m
Ġvoidfunctionmarker breakvoidfunctionmarker
iterator pointermarker
Ġm x
Ġ li
Ġintfunctionmarker b
Ġv ec
Ġc x
c le
Ġr un
Ġg param
ac count
Ġis c
Ġg type
i ent
l t
am er
intfunctionmarkerintfunctionmarker reinterpretcastintfunctionmarker
ti le
g oto
sk ip
cod er
Ġb n
ele m
sh a
ob u
9 9
def ined
ch ip
mo difi
re gs
m r
Ġjs on
p atch
cre at
type s
Ġconn ection
ke ep
byte pointermarker
tr ansaction
ch oo
Ġp ci
Ġm b
2 2
cp tr
et h
Ġp a
6 0
tr act
fix ed
Ġ loc
z one
image pointermarker
Ġch unk
n on
so urc
k ind
Ġ2 0
bool marker
d c
Ġ la
Ġ on
d ump
Ġintfunctionmarker x
re store
Ġf x
vi sible
point s
Ġse q
pi pe
Ġ pos
Ġgr oup
Ġv a
gf x
r i
Ġacp i
Ġ change
pointercharfunctionmarker pointercharfunctionmarker
comp lete
session pointermarker
comb obo
Ġcon text
Ġ1 00
g id
p in
t erpointermarker
Ġn autil
Ġnet snmp
Ġintfunctionmarker t
cmp charpointermarker
ret l
Ġf a
gr ound
Ġun known
Ġd ump
Ġg ame
Ġstr cpy
charmarker charmarker
voidfunctionmarkermarker voidfunctionmarker
Ġf e
Ġoper and
au dio
ic le
nam ic
Ġgtktreemodel pointermarker
and om
Ġintfunctionmarker h
int r
Ġg w
erti fi
h y
gtk tree
inter rup
Ġ ctx
Ġup date
d p
m ime
Ġg intmarker
scal ar
Ġa ction
cell pointermarker
Ġgf p
data structpointermarker
Ġ ulong
us age
1 7
Ġ ct
Ġin sn
Ġp lay
Ġg ptr
Ġstructpointermarker name
i pe
gu id
ch o
Ġd d
Ġin st
Ġvoidfunctionmarker e
structpointermarker lock
r or
erec las
data base
qu ire
Ġvoidfunctionmarker const
cl k
aut o
Ġ valid
ereclas sec
p attern
Ġ signal
Ġi b
Ġb ut
ff ect
Ġco uld
Ġmod ule
Ġstd vector
Ġfloatfunctionmarker floatfunctionmarker
Ġintfunctionmarker rc
value marker
Ġvoidfunctionmarker t
Ġo ff
Ġa sn
pa b
Ġintfunctionmarkeri intfunctionmarker
dev ic
key pointermarker
sign ature
Ġmp fr
cont in
Ġintfunctionmarkerint intfunctionmarkermarker
Ġaut h
se x
Ġo ct
fa c
ap i
h igh
d m
Ġsla pi
con v
Ġse arch
metaobject intfunctionmarkerintfunctionmarker
pointer ecerenamespaceecere
n ing
enc y
Ġf re
al t
Ġd ma
ca ch
n p
data voidfunctionpointermarker
Ġintfunctionmarkerif intfunctionmarkerintfunctionmarker
Ġma ke
s nd
Ġw e
lu ster
Ġsn printf
ou s
Ġchar upointermarker
Ġld ap
ho ok
g le
Ġintfunctionmarker while
uni code
Ġ channel
lic ation
p th
po ll
Ġb ack
gn ame
Ġg variant
dr op
802 11
Ġth read
we b
Ġun i
doc ument
em it
get pointermarker
ge ometry
Ġ level
d t
hand l
me x
pl an
b ot
Ġgd bus
Ġr v
Ġbo olean
Ġid x
write structpointermarker
Ġq ue
c or
Ġb ad
Ġg filepointermarker
pa c
a bl
point pointermarker
Ġ address
Ġo gr
fre q
et r
Ġa u
Ġop al
Ġhe ader
Ġca che
4 8
properti es
Ġ attribute
obj pointermarker
t itle
next intfunctionmarker
ip her
re v
Ġa s
Ġgf log
p en
Ġm en
in struction
Ġj ob
pro vid
Ġd st
func voidfunctionpointermarker
fi len
Ġm id
Ġn v
Ġg b
i str
comp ress
pre c
rec v
Ġpar ent
fra g
cli p
Ġvoidfunctionmarker charvoidfunctionmarker
Ġf rame
ad at
Ġstructpointermarker r
t otal
Ġe mit
encod ing
Ġu char
data set
pix map
inf ot
pay load
o ct
Ġfo reach
Ġu s
Ġ ath
m ot
pri ority
Ġba sic
d st
Ġintfunctionmarker errorintfunctionmarker
Ġhe ight
Ġdo c
t ok
Ġintfunctionmarker l
Ġ vo
Ġstructpointermarker p
Ġg g
tmarker array
Ġend l
b and
de on
Ġsizeof struct
id s
ali as
pointermarker set
Ġintfunctionmarker a
w ard
l ation
cancel lable
Ġt cl
Ġvoidfunctionmarker r
b ig
val pointermarker
b erpointermarker
ker n
at pointermarker
Ġt yp
Ġ er
m w
choo ser
iter al
b order
block s
Ġe lement
li m
ev as
fo re
Ġc c
Ġ ic
ed intfunctionmarker
li ce
Ġs pe
Ġpy x
vi r
4 3
0 8
descript or
ad ow
r ule
en er
Ġstructpointermarker data
Ġn fs
Ġt otal
fact ory
ign um
sa fe
fa ctor
Ġcallframet pointermarker
ai lable
Ġs can
b d
de sk
ig ger
Ġx t
me sh
ss er
b i
Ġp thread
Ġvalue pointermarker
8 8
len d
Ġhe ap
Ġt op
b n
ra c
f older
Ġm ca
Ġvoidfunctionmarker ret
u res
Ġp art
Ġp t
Ġt x
Ġp id
Ġd m
Ġp layer
mapp ing
param et
Ġwor k
Ġpointer voidpointermarker
Ġintfunctioninternalclassinst intfunctionpointermarker
g ory
name voidfunctionmarker
priv at
Ġo s
b j
2 1
h int
m ix
take pointermarker
spe ed
cre d
g wy
vtbl intfunctionmarker
n pointermarker
m ouse
com ment
ut h
cr yp
Ġ il
id le
li p
se s
Ġse ssion
si st
sup ported
store pointermarker
type intfunctionmarker
t voidfunctionmarker
5 5
ereclassec erenamespaceecere
Ġaj p
ti m
in al
pr inter
o om
as n
Ġstring pointermarker
decl ar
Ġc leanup
ang u
Ġintfunctionmarker result
Ġvoidfunctionmarkerorc var
Ġr ange
b h
c ar
dialog pointermarker
ust om
Ġso urce
Ġif ndef
flags intfunctionmarker
action pointermarker
Ġs ave
Ġec erenamespaceecere
Ġdoublemarker array
pos it
Ġbo x
Ġintfunctionmarker lib
Ġdi rect
Ġen able
Ġtoken pointermarker
ertifi cate
r ite
le ep
matrix pointermarker
urm db
Ġex ec
stor age
to string
Ġpro cess
ta x
wor ld
12 8
config pointermarker
ma chine
align ment
pre f
Ġdev errstructpointermarker
l p
Ġuser data
m ul
mutex unlock
c y
parser pointermarker
vari antpointermarker
d en
q p
e ar
bu sy
Ġpo p
ht ml
sing le
Ġph y
Ġif structpointermarker
w rap
pointermarkerpointermarker pointermarkerpointermarker
Ġw in
Ġintfunctionmarkerg oto
error voidfunctionmarker
Ġp e
sc a
s size
w alk
Ġf t
le mentpointermarker
val intfunctionmarker
rt x
she et
val a
var pointermarker
hist ory
cond ition
Ġintfunctionmarkergoto intfunctionmarker
Ġfla gs
Ġl in
Ġpre v
al low
un ion
Ġintfunctionmarkerwhile intfunctionmarker
Ġgam gi
st rea
go od
arg v
ched ule
set error
res wap
s che
Ġvar i
re port
pointermarker x
Ġb b
Ġmp i
Ġun ity
push back
Ġgst bufferpointermarker
Ġg og
row s
s id
li mage
prob e
vi rt
Ġgstpad pointermarker
a e
ad r
Ġintfunctionmarker sizeof
number of
n intfunctionmarker
al g
Ġg oo
Ġcan not
k rb
w atch
con straint
p ip
Ġstructpointermarker type
d iv
h a
pe er
comp ar
s mart
marker get
Ġso cket
act er
closu reswap
rect angle
g a
Ġt he
dec ref
Ġa fr
ctx tpointermarker
Ġwr it
Ġintfunctionmarkererr intfunctionmarker
Ġfree charpointermarker
cli ck
fa mil
Ġtr y
Ġconn ect
Ġn r
line s
Ġ inter
name s
get data
Ġo c
u ccess
Ġg callback
id pointermarker
name intfunctionmarker
pre sent
Ġintfunctionmarker m
foc us
Ġ signed
si x
ee e
Ġintfunctionmarker db
famil y
le tion
Ġsizeof charmarkerarray
Ġver sion
group pointermarker
Ġn ss
pe g
Ġex pect
Ġgst buffer
Ġde st
25 6
fe at
al o
p intfunctionmarker
read structpointermarker
n od
mess ag
a intfunctionmarkerintfunctionmarker
Ġintfunctionmarker e
Ġsh ow
end ing
tpointermarker intmarker
7 7
intfunctionmarkerintfunctionmarker i
Ġmode l
Ġec ere
cl ust
bind ing
id marker
select or
handle pointermarker
w n
Ġc lear
Ġvoidfunctionmarkerorc program
Ġbg av
s lo
m u
structpointermarker structpointermarker
get string
9 0
n ormal
list elempointermarker
p v
Ġevas object
Ġmutex unlock
Ġgd a
g on
Ġlo op
el ine
Ġconta in
Ġg raph
Ġl int
w o
Ġed ge
id voidfunctionmarker
base pointermarker
f atal
at ype
Ġvoidfunctionmarker l
c x
y pointermarker
Ġre move
am et
Ġsu ccess
Ġz end
pop up
Ġv is
Ġnautil us
get value
Ġc put
get name
vector pointermarker
param values
c leanup
cre t
Ġb tr
Ġtim et
cap s
jo in
state ment
net work
st and
Ġintfunctionmarkerint intfunctionmarkerintfunctionmarker
Ġp ang
Ġa md
an im
ase tpointermarker
Ġg simple
Ġghash tablepointermarker
gn ome
Ġd bu
contin ue
Ġstructpointermarker v
combobo x
Ġd c
g lyph
Ġr p
p ed
Ġd raw
dir ty
Ġc ell
re mote
en e
const iterator
Ġstructpointermarker m
fo ut
Ġstructpointermarker t
ent ity
au di
Ġxml node
s struct
con struct
Ġgst base
text ure
b rowser
co e
st m
method id
Ġr x
de let
Ġvi ew
is ion
Ġgst element
en ded
angu age
ar en
di rection
Ġgst debug
Ġsizeof structpointermarker
Ġpar ser
m gr
n ow
source pointermarker
Ġpack et
v pointermarker
s ide
f etch
st ar
Ġx mp
inform ation
Ġh id
local tpointermarker
ex pect
pointermarker i
Ġgstcap spointermarker
ed voidfunctionmarker
Ġstructpointermarker c
um entpointermarker
b c
Ġm ulti
next voidfunctionmarker
Ġh as
channel s
6 8
ode v
re size
Ġ position
do streammarker
spa c
a intfunctionpointermarkerintfunctionmarker
type voidfunctionmarker
Ġfil ter
and ler
or iz
Ġstructpointermarker s
pe ek
Ġan jut
Ġein alist
frame pointermarker
Ġc ms
Ġg variantpointermarker
Ġintfunctionmarker for
list intfunctionmarker
Ġsk ip
Ġn on
Ġu i
Ġt ask
contain erpointermarker
ated ata
Ġstructpointermarker tx
an ag
ver ify
en code
ctx t
Ġg eg
alph a
Ġ property
Ġd t
wa y
si o
d ay
Ġsy m
ax is
Ġstructpointermarker h
Ġ label
this intfunctionmarker
Ġintfunctionmarkerrc intfunctionmarker
0 4
Ġma il
Ġxm ms
d bus
f it
Ġstructpointermarker i
std out
Ġg ap
del ta
Ġintmarker pointermarker
m ult
op code
Ġd cm
Ġq t
Ġstd err
ot h
mutex lock
Ġrt l
al y
Ġs lot
run time
Ġi ss
Ġ1 000
value intfunctionmarker
ver bose
em on
h ex
Ġi x
Ġco re
pointermarker p
Ġp df
bin ary
Ġr oot
Ġvoidfunctionmarkerconst voidfunctionmarker
Ġd vb
Ġm d
o i
le m
field s
Ġ om
end l
co ok
Ġd iff
fr ont
Ġir q
mon itor
v v
fa st
Ġ mark
co st
Ġif charpointermarker
Ġs he
Ġc or
Ġco mple
u me
cerror error
Ġcol umn
m k
cur r
back ground
Ġse g
wr iter
t en
func voidfunctionmarker
Ġvoidfunctionmarkergc closureswap
Ġgsimple async
Ġs ane
pro pec
Ġb fd
Ġg data
sh adow
Ġgtk list
mp t
Ġf n
t ect
Ġor ig
Ġmat rix
Ġun able
sw ap
u v
Ġstr error
size voidfunctionmarker
Ġstr chr
qu i
info marker
we ight
try pointermarker
ac c
Ġprint k
i ma
Ġvoidfunctionmarker s
char s
Ġ raw
Ġspinunlock irq
im er
Ġg retl
lo ut
key s
Ġarg ument
desc pointermarker
Ġenum marker
mer ge
Ġgst structure
pointermarkerrminpointermarkerrmaxpointermarkerrnat pointermarkerrminpointermarkerrmaxpointermarkerrnat
Ġein a
Ġfi lename
log error
et ext
qu ir
st e
pa int
read er
cre en
Ġma in
is valid
re mov
Ġb lk
Ġed ict
hash table
Ġs q
Ġbut ton
re place
s par
Ġstructpointermarker rx
3 3
il tin
ed at
omet hod
Ġaj str
Ġp lugin
ot ype
ise mpty
Ġt re
Ġne mo
v methodid
ter min
Ġsy n
page s
propec erenamespaceecere
Ġde l
Ġgtktree pathpointermarker
f pointermarker
f fix
Ġgfp kernel
Ġintfunctionmarkerr intfunctionmarker
v r
ch k
buf size
g pointermarker
Ġm r
buf pointermarker
v s
m n
Ġth row
Ġgsignal connect
Ġg intpointermarker
Ġsy s
Ġp n
init structpointermarker
Ġsnd so
b io
Ġbit map
9 15
u ff
obj tpointermarker
Ġvoidfunctionmarker sizeof
st h
float functionpointermarker
str ict
Ġe b
t ure
to cpu
v c
sc si
id ata
Ġx fs
z z
Ġintfunctionmarkerq metaobjectintfunctionmarkerintfunctionmarker
lu astatepointermarker
um my
Ġg cancellable
Ġh ave
handl erpointermarker
Ġvoidfunctionmarker f
if ace
comp letion
o mp
w ind
gui window
node s
Ġe core
1 9
qu ot
Ġhe ad
col um
a h
Ġm ust
Ġstructpointermarker dev
Ġnode tpointermarker
or tpointermarker
Ġn s
Ġn il
at tach
Ġf in
re ce
Ġf ont
s int
lat ile
Ġvoidfunctionmarker self
o v
intfunctionmarkerintfunction aintfunctionpointermarkerintfunctionmarker
key intfunctionmarker
pre par
Ġblock pointermarker
Ġc ant
p ub
Ġintfunctionmarker k
trans fer
Ġwid get
et ree
datat pointermarker
j son
Ġm m
alloc ation
desk top
t or
li map
Ġwa it
Ġgboolean marker
Ġ ical
at er
Ġre q
im um
long marker
Ġp d
Ġne ed
ser ial
au x
char t
me d
pr om
Ġ2 4
Ġe sl
Ġque ue
n l
n voidfunctionmarker
Ġmutex lock
ut down
Ġvoidfunctionmarkerret voidfunctionmarker
Ġ0 5
er nal
Ġmo ve
Ġst ore
var s
Ġc mp
Ġb in
c ut
Ġc e
met h
s urface
Ġcall back
g object
pointermarker name
Ġnet dev
Ġc fg
Ġintfunctionmarker get
resh old
6 5
t cp
Ġc la
Ġintfunctionmarker is
at ive
Ġp m
Ġg cr
db pointermarker
n eg
ol k
por tpointermarker
ide v
Ġintfunctionmarkerresult intfunctionmarker
char tpointermarker
Ġstructpointermarker l
flags voidfunctionmarker
ident ifier
key word
finish ed
8 3
Ġg no
sb egin
Ġf p
st able
Ġgv fs
z e
Ġk freestructpointermarker
wor ker
ac cept
r p
list get
Ġra deon
packet pointermarker
Ġp anel
hel p
g ap
u ma
time stamp
ush back
h id
dat um
or g
Ġcon t
r v
line pointermarker
expr pointermarker
Ġgtktree selection
Ġcon f
Ġst op
Ġc y
of t
rel ation
c id
Ġ ul
Ġi eee
loc ale
ro und
a cl
er ator
head erpointermarker
se par
Ġw m
de s
br id
load er
j or
Ġintfunctionmarker sizet
Ġgtk window
Ġm lx
Ġstr dup
col l
iv ed
Ġstring marker
x id
priv atedata
dis connect
Ġop j
Ġgdkpixbuf pointermarker
di c
ne ed
Ġg edit
Ġre ct
si ve
Ġedict tpointermarker
ti met
char set
Ġs ca
sc ape
in o
channel pointermarker
sens itive
buf intfunctionmarker
l pointermarker
Ġxml charpointermarker
ot her
Ġgeg l
Ġd ns
ref count
set text
Ġv ert
Ġc al
Ġf z
Ġgstrdup printf
provid er
Ġa w
Ġh w
Ġ1 5
el m
render er
sd p
Ġv ide
Ġc ert
di men
res sed
Ġs s
i od
t re
y y
e q
n b
Ġmon omethod
Ġcp u
Ġs f
Ġex pression
g x
Ġgtk toggle
Ġm i
Ġgtktree iter
Ġip mi
Ġg warning
Ġapp end
Ġv t
Ġxml nodepointermarker
Ġgno me
se ct
8 7
fi fo
Ġif h
Ġp p
ab ort
Ġsql ite
Ġcon trol
Ġre nder
gn ore
Ġaut o
do ck
Ġmet hod
dimen sion
build erpointermarker
interrup t
Ġm pr
app lication
Ġgstr tp
Ġintfunctionmarkerec ereclassecerenamespaceecere
l an
m g
3 4
ur b
typ et
Ġin struction
Ġdouble functionmarker
Ġlong pointermarker
po bject
tri e
Ġsw ig
r ic
Ġfl m
s set
Ġcon d
Ġspinlock irq
Ġp ass
su sp
cache pointermarker
sup er
w ar
ode tpointermarker
entry tpointermarker
static cast
p at
Ġvoidfunctionmarker callbackvoidfunctionmarker
queue pointermarker
Ġe mpty
so le
z alloc
Ġint eger
Ġintfunctionp intfunctionpointermarker
Ġs um
menu item
0000 00
Ġvoidfunctionmarker tp
Ġc s
ed i
pointermarker type
Ġintfunctionmarker git
al lo
od o
Ġgnut ls
Ġtime out
Ġintfunctionmarkerfor intfunctionmarker
struct intfunctionmarkermarker
end or
r ot
Ġg fi
Ġd f
Ġp i
mess aget
out e
log log
atom ic
Ġgu charpointermarker
Ġintfunction dataintfunctionpointermarker
Ġl p
Ġmen u
tr acker
Ġo ver
tr un
Ġg ss
pre ss
k ill
Ġre set
Ġa ce
v entpointermarker
posit ory
enum ber
bo ot
Ġse ek
la ck
cate gory
Ġs ort
Ġf put
Ġ25 5
Ġ archive
Ġm t
ab s
ar ker
pix pointermarker
c amer
Ġg io
vmethodid ecerenamespaceecere
ni envpointermarker
z ip
Ġt ok
9 4
pool tpointermarker
Ġconst ant
ap ply
pass word
Ġcairo tpointermarker
ar k
get type
Ġgk m
col s
b p
Ġ lex
Ġd im
sens or
Ġvoidfunctionmarker ev
t sp
Ġglistpointermarker data
c intfunctionmarker
reg istr
Ġn l
of rame
edata pointermarker
Ġvoidfunctionmarker err
clust er
Ġn c
r s
voidfunctionvoidfunction voidfunctionpointermarker
Ġg async
it pointermarker
Ġstructpointermarker f
g y
Ġg mt
gd k
object voidfunctionmarker
lu id
ca ched
ab stract
Ġintfunctionmarker isl
Ġgam g
g re
Ġsc si
ma cro
Ġstructpointermarker state
query pointermarker
co ut
able d
Ġbool pointermarker
Ġs creen
exp and
medi a
er ial
g h
s list
g lo
note book
pointervoidfunctionmarker marker
ere quest
Ġe io
Ġq list
name space
Ġa ccess
Ġt ab
ializ e
all back
Ġcur r
msg tpointermarker
tr an
p et
mp eg
Ġvoidfunctionmarker endif
Ġs dl
l n
ing intfunctionmarker
data intfunctionmarkerintfunctionmarker
Ġintfunctionmarker v
struct intfunctionpointermarker
Ġbyte s
ld ap
Ġact iv
g am
ir c
en ull
sk b
b lob
w s
p lot
Ġc f
Ġh b
p thread
Ġintfunctionmarker switch
Ġfloat function
out er
su re
ew id
Ġpl an
Ġstr case
Ġalloc ate
lobject pointermarker
Ġst mt
Ġvoidfunctionmarkerendif voidfunctionmarker
st age
floatfunctionmarker marker
Ġparam eter
Ġso ap
context tpointermarker
str ide
Ġintfunctionmarker base
fre et
foreach entry
gp io
tr igger
cal c
Ġgtk source
voidfunction voidfunctionpointermarker
d x
cod ing
bot tom
Ġtr ack
property pointermarker
list voidfunctionmarker
Ġrec ord
d rag
paramet ers
stat et
Ġb us
pointer voidfunctionmarkervoidfunctionmarker
q t
Ġun likely
Ġj ack
enode pointermarker
r ary
ere move
Ġab ort
pointermarker t
Ġtree code
str cmp
p ci
alloc ate
Ġle ave
Ġg luster
Ġq l
leg al
m x
Ġvoidfunctionmarker b
n ic
Ġun ionpointermarker
cre ment
ul ate
activ ate
cook ie
d ns
Ġp ush
Ġo mp
goto error
intfunctionmarkerintfunctionmarker ecere
comp lex
Ġch ain
ed n
p ng
Ġbasic block
Ġintfunctionmarker default
get object
Ġsock addr
Ġfree structpointermarker
dis patch
n il
co lo
f on
print k
fin alize
p anel
r m
Ġt m
ne ss
Ġvoidfunctionmarker args
sl urmdb
c ipher
Ġf close
gn um
Ġh gotoerror
tk ey
Ġi i
Ġ25 6
or mat
Ġgvalue set
g ard
p le
Ġdbus message
Ġbo und
up per
colum ns
o ci
Ġintfunctionmarker sintfunctionmarker
Ġa cl
by name
code intfunctionmarker
comm an
pointermarker data
ext ent
it r
Ġi fi
en di
Ġgtktree iterpointermarker
3 5
c ent
p voidfunctionpointermarkervoidfunctionmarker
Ġv stop
Ġvoidfunction funcvoidfunctionpointermarker
4 4
lo pt
define marker
reg structpointermarker
alloc ated
g listpointermarker
Ġvoidfunctionmarkerself voidfunctionmarkervoidfunctionmarker
intfunction intfunctionpointermarker
af ter
Ġstructpointermarker num
Ġdoublepointermarker intmarker
v f
error s
sem bl
Ġx exp
dep end
speci fi
ms ub
free intfunctionmarkerintfunctionmarker
lock ed
Ġpr oto
ator pointermarker
Ġintfunctionmarkerswitch intfunctionmarker
comp ile
mp ar
Ġstructpointermarker u
ode c
sp ushback
priv structpointermarker
2 00
Ġi con
c enter
valu etype
Ġgtk entry
Ġen v
Ġvoidfunctionmarker unsigned
Ġgoo canvas
Ġg conf
sc li
le af
7 0
cla use
Ġd h
3 6
un do
o intfunctionmarker
adi us
priv voidfunctionmarkervoidfunctionmarker
g ba
Ġut f
Ġx dr
Ġlo okup
n erpointermarker
g ot
valid ate
Ġintfunctionmarker s
in str
Ġg cry
Ġvoidfunction datavoidfunctionpointermarker
Ġspinunlockirq restore
h al
Ġxml sec
Ġf w
ble n
Ġr ight
el p
reen odepointermarker
Ġintfunctionmarker ctx
sp ell
pool pointermarker
ere s
Ġcontain er
item tpointermarker
act orpointermarker
xml nodepointermarker
ker ror
copy voidfunctionmarker
Ġvoidfunctionmarker free
Ġatom ic
id intfunctionmarker
Ġc pp
u charpointermarker
t bl
Ġ internal
Ġc ap
it s
set value
ser ve
block size
record pointermarker
sh ape
b on
re sp
s at
exec ut
col lect
s core
im port
sv g
in ation
get next
per m
ifi cation
Ġsup port
mar gin
Ġa f
od y
mi ssion
ing le
Ġstructpointermarker max
Ġvoidfunctionmarker input
realtmarker realtmarker
pk t
im al
voidfunctionmarkervoidfunctionmarkervoidfunctionmarkervoidfunctionmarker voidfunctionmarkervoidfunctionmarker
Ġgst object
Ġl t
Ġvoidfunctionmarkergcclosureswap data
Ġo id
bitsintfunctionmarker unsigned
expect ed
Ġt uple
Ġg key
wh ite
Ġpix el
Ġmp z
rect pointermarker
se tr
a a
Ġb fa
Ġmp eg
pla in
Ġgen er
di cate
x m
Ġintfunctionmarkerdefault intfunctionmarker
reg ex
Ġter m
n orm
Ġ sign
c ertificate
Ġu errorcode
ow rite
intpointermarker intpointermarker
datat ype
orig in
set intfunctionmarker
ex pression
inter ppointermarker
3 1
trans port
Ġval ist
elist pointermarker
in clude
Ġgparam specpointermarker
Ġst yle
sh ortmarker
reen ode
Ġvoidfunctionmarker for
in ser
anag er
Ġn d
def init
a mple
Ġvoidfunctionmarker while
char acter
ad v
Ġid ent
Ġn t
doc umentpointermarker
vi ous
column pointermarker
con ver
Ġproc name
a cp
xf er
Ġsl urm
vir on
7 6
Ġmy sql
la in
Ġvoidfunction g
Ġtr ansaction
Ġo streammarker
l iteral
Ġuni code
Ġintpointermarker intmarker
9 6
paramvalues voidfunctionmarkermarker
graph ic
param spointermarker
by t
r pc
Ġin sert
ac y
Ġg m
Ġd fb
intmarker array
asc ii
Ġvoidfunction voidfunctionvoidfunction
log in
demux pointermarker
Ġvari able
Ġdev dbg
x c
xff ff
Ġma g
d om
Ġma i
Ġu intmarker
all y
Ġe gg
Ġdict tpointermarker
com bo
b v
Ġvoidfunctionmarker svoidfunctionmarker
Ġvoidfunctionmarkersizeof voidfunctionmarkervoidfunctionmarker
sr cpointermarker
Ġset ting
ent ic
Ġnm setting
Ġp ref
v ect
init ial
5 6
Ġt iff
ta gs
sp i
Ġb x
ra ce
ereg ist
ed r
Ġvoidfunctionmarkerinput chr
l g
spar ql
wa ke
un pack
is play
Ġh ist
Ġp f
sh ot
Ġgd al
tocpu structpointermarker
re alloc
dat etime
Ġvalue marker
buffer size
use c
Ġre sponse
Ġvoidfunction cmd
user data
Ġ 64
Ġc out
for ce
f y
int voidfunctionmarkermarker
Ġgstring append
Ġintfunctionmarker dataintfunctionmarker
pro gra
cryp to
end point
cb voidfunctionmarker
br anch
Ġcput ole
Ġv p
et able
Ġvoidfunctionmarker pointervoidfunctionmarker
gtk widget
Ġevas objectpointermarker
d er
Ġintfunctionmarker uint
Ġre quire
Ġintfunctionmarker j
rac ker
Ġprintk kern
iter ate
en ot
Ġgst elementpointermarker
Ġvoidfunctionmarkerg f
Ġboolean marker
m is
meth odec
et a
idx intfunctionmarker
Ġ url
Ġco ord
char functionpointermarker
Ġs b
Ġu id
Ġintfunctionmarkerecere pointerecerenamespaceecere
w q
ca pab
Ġsca le
x pr
Ġc am
Ġclutter actor
Ġact ive
so und
in ate
Ġvoidfunctionmarker db
Ġvoidfunction cb
on ce
Ġj o
sp tr
separ ator
Ġpix pointermarker
Ġgg ob
Ġc lock
count intfunctionmarker
fil terpointermarker
check out
pointermarker g
Ġi gnore
stat u
adjust ment
Ġsnd pcm
Ġs cope
c ustom
Ġintfunctionmarker out
Ġf ill
Ġgf x
comman devent
Ġgtkwidget set
Ġgptr arraypointermarker
re po
pa let
Ġg ck
m f
Ġe of
a len
e qual
Ġgfree gcharpointermarker
privat etpointermarker
bl ue
Ġcl git
n om
Ġgst vide
Ġvoidfunction ex
ge om
Ġb ignum
Ġl dn
or ith
get int
Ġs sh
Ġintfunctionmarkersizet intfunctionmarker
in v
res intfunctionmarker
av ailable
ex tr
render erpointermarker
list intmarker
Ġintfunctionmarkerc intfunctionmarker
modifi ed
mi ss
Ġt ile
k l
Ġgptr array
lend ar
s as
2 6
an aly
Ġc ut
tv sec
ad io
Ġg ig
obu f
Ġvoidfunctionmarkeri voidfunctionmarker
c g
ex tra
Ġpro ject
closure voidfunctionmarker
Ġd a
Ġe config
Ġstr cat
Ġ all
Ġs ge
Ġre port
Ġf b
re pository
a ch
arg voidfunctionpointermarker
Ġscm obj
Ġbn x
byte array
sub st
Ġf print
Ġs pace
ver ti
Ġpang o
ss y
Ġpointervoidfunctionmarker if
ff t
speci al
di ag
Ġgtktreemodel get
Ġsy stem
sp an
Ġc ard
Ġunsigned arker
get size
context marker
Ġun lock
Ġgr l
sh utdown
r gb
9 7
che s
true voidfunctionmarker
n n
Ġnet device
sh are
Ġintfunction intfunction
Ġcon vert
e f
std string
Ġgtk cell
Ġd iv
Ġh pdf
Ġintfunctionmarker str
h l
quir k
Ġ0 2
3 8
Ġintfunctionmarker cmp
Ġvoidfunctionmarker x
Ġhgotoerror h
serv erpointermarker
sh ell
co uld
list head
k m
r q
invo ke
Ġf li
Ġ one
ms y
Ġp attern
charpointermarker intmarker
Ġg mp
file tpointermarker
de ad
j it
ar r
co p
size pointermarker
info structpointermarker
Ġt t
element s
de scr
de struct
Ġstdstring marker
ti p
si m
rt p
fin et
sav ed
aren a
erenamespace ed
Ġfa ile
Ġe cal
Ġin clude
Ġshe et
o urc
2 8
float function
declar ation
Ġvoidfunction voidfunction
Ġwor ld
cur ity
pro du
conn pointermarker
stand ard
c rt
n ss
Ġv s
Ġ align
a ded
s x
Ġg new
h ide
Ġstructpointermarker id
impl pointermarker
buffer tpointermarker
Ġat k
ob e
ex ml
Ġre ce
dir pointermarker
Ġup dat
job pointermarker
Ġstd endl
sm all
ient ation
loat functionmarker
ar ge
oper ator
Ġval u
i ch
Ġst ep
Ġpy err
un map
inst pointermarker
v d
ffff ff
pro ces
Ġintfunctionmarkersizeof intfunctionmarkerintfunctionmarker
dat asetpointermarker
Ġ low
Ġb l
um b
se vent
up s
offset intfunctionmarker
vis ion
se mpty
Ġt e
Ġht ml
Ġcur sor
Ġmet a
Ġgtktree path
a ser
Ġgstdebug object
vo ice
un likely
charfunctionmarker marker
Ġq of
dist ance
Ġst dostreammarker
intfunctionmarkerintfunctionmarker d
methodec erenamespaceecere
Ġg si
Ġnum berpointermarker
Ġget code
a pr
p an
get text
Ġis ns
un ix
ent ial
o ol
Ġgtk label
ag ent
il er
d it
t ed
Ġvoidfunctionmarker truevoidfunctionmarker
ord erpointermarker
se ctor
control ler
Ġintfunctionmarker y
limage pointermarker
h ave
Ġspinlockirq save
li ct
object s
Ġtim er
oto voidfunctionmarker
ph ase
ign ore
Ġvoidfunctionmarkerg otovoidfunctionmarker
it ies
Ġgnut l
set structpointermarker
0 3
si bl
Ġisl takepointermarker
le ss
re ll
pr im
read erpointermarker
Ġa ss
data get
Ġgu intmarker
Ġc ar
graph ics
Ġt ot
layout pointermarker
Ġf ull
ctr ans
mark up
ul ator
b f
de coder
di gest
Ġfaile dn
Ġ10 24
Ġsa mple
box intfunctionmarkerintfunctionmarker
Ġcont ent
ct ive
connect ed
Ġdy namic
ma jor
Ġb ind
Ġpr i
t ol
Ġgcancellable pointermarker
un register
er o
ouble marker
Ġvoidfunctionmarker m
Ġvoidfunctionmarkerif voidfunctionmarkervoidfunctionmarker
detail s
atom pointermarker
Ġtre etype
inf op
p marker
tool bar
Ġpo ly
Ġvoidfunctionmarker datavoidfunctionmarker
Ġvoidfunctionmarkerwhile voidfunctionmarker
Ġintfunctionmarker flagsintfunctionmarker
Ġb f
er ow
10 24
ra ck
d ot
Ġgobject ref
Ġn b
2 64
io v
Ġsizeof structvariable
Ġfor int
string s
Ġvoidfunctionmarkerp voidfunctionmarkervoidfunctionmarker
Ġdeverrstructpointermarker dev
port s
Ġstructpointermarker size
ex tract
for ward
ref resh
o ck
file intfunctionmarker
sa mp
re cur
con sole
bu iltin
add rt
Ġl m
extension intfunctionmarker
Ġd om
Ġm v
ext ernal
func intfunctionmarker
Ġar ker
Ġbtr fs
g w
state intfunctionmarker
Ġel f
Ġ edit
style pointermarker
object marker
ptr t
Ġintfunctionmarkerp intfunctionmarker
at io
Ġ indent
n v
id er
Ġvoidfunctionmarkerfor voidfunctionmarker
h p
xml node
Ġcpl error
Ġscr ip
Ġmutexunlock structpointermarker
stack pointermarker
Ġintfunctionmarker u
Ġpointercharpointermarker intmarker
g ing
con fi
ident ity
Ġex tr
backend pointermarker
Ġo o
in s
Ġvoidfunctionmarker sig
Ġc alloc
sp ath
Ġgtktoggle button
Ġ iv
Ġdirect ory
r l
z oom
Ġt d
a de
h ard
Ġgstr tsp
Ġor te
en tr
Ġgen eric
Ġsm all
prec ision
ip v
Ġstructpointermarker len
gra b
false voidfunctionmarker
Ġvoidfunctionmarker k
Ġlist foreachentry
Ġunit pointermarker
countpointermarker r
an jut
Ġpro xy
comp ute
bg av
arg intfunctionmarker
Ġex ist
dat ad
check ed
iz e
list t
attr s
Ġb ig
list marker
setting spointermarker
thread s
plugin pointermarker
co me
ti ck
Ġg tr
Ġph p
d get
initializ ed
countpointermarkerr countpointermarkerr
Ġs z
Ġre dis
log ger
num eric
l v
hel per
Ġintfunctioninternalclassinst intfunctionpointermarkerintfunctionmarker
cur l
Ġmid gard
pointermarker m
set string
sc re
Ġstrerror errno
lic it
su ffix
Ġg up
info intfunctionmarkerintfunctionmarker
Ġstr str
the me
Ġint el
malloc sizeof
Ġf tt
stream tpointermarker
be fore
lat form
Ġdi alog
handle marker
m ad
int el
Ġf ra
args pointermarker
exist s
Ġde pth
b w
Ġb egin
Ġsprintf charmarkerarray
Ġclutter actorpointermarker
Ġre source
Ġwx string
Ġp s
c ed
min or
j ump
c st
Ġintfunctioninternalclassinstintfunctionpointermarkerintfunctionmarker vtblintfunctionmarker
pa s
Ġvtk id
str ip
pack age
content s
g m
menu pointermarker
sign ale
uni que
Ġintfunctionmarkerqmetaobjectintfunctionmarkerintfunctionmarker call
index pointermarker
an get
sla ve
Ġ order
lic ate
if fi
Ġgr id
str i
palet te
Ġintfunctionmarker to
s pr
Ġpre fix
r r
inst anc
ac ces
re serv
Ġgs f
Ġb io
Ġse ction
se p
inf on
Ġtree pointermarker
re dis
Ġreg ion
Ġvert ex
inst all
evas objectpointermarker
drv datastructpointermarker
encod er
n h
free charpointermarker
part ition
eren ces
Ġgd l
la ce
and id
Ġvoidfunctionmarker out
Ġspl ine
f tpointermarker
cnt l
Ġo mpi
virt ual
Ġgtkwidget show
false intfunctionmarker
Ġclgit pass
f old
scr ol
Ġf luid
Ġintfunction structintfunctionpointermarker
cs v
i mp
Ġma y
b m
sh ip
Ġm w
func void
Ġdbus g
syn tax
Ġr l
intmarkerintmarker intmarker
Ġf atal
p dev
decref pyobjectpointermarker
2 7
Ġ limit
Ġa g
func intfunctionpointermarker
Ġr ule
p se
config uration
instance pointermarker
run ning
e in
Ġd ist
stm tpointermarker
sql ite
d w
Ġstrn cmp
of s
sa f
Ġx f
Ġvoidfunctionmarker u
Ġ location
Ġs av
c v
g ad
Ġm k
char upointermarker
n a
at i
Ġt en
lib rary
Ġi pm
basic blockpointermarker
a intfunctionpointermarker
param value
z on
en ext
par ms
true intfunctionmarker
command pointermarker
state structpointermarker
mat erial
gener al
se cret
Ġet able
len voidfunctionmarker
fd intfunctionmarker
cur ve
Ġb i
list ener
is er
scan nerpointermarker
endi an
Ġs sizet
se ss
p intfunctionpointermarker
Ġpo st
Ġvoidfunctionmarkerunsigned voidfunctionmarker
it orpointermarker
Ġglade widget
in ner
conn ector
c q
ere vent
Ġn one
Ġoc fs
ub e
ag g
initializ e
Ġdoc ument
Ġac count
Ġ art
j peg
Ġint m
Ġintfunctionmarker long
pi ct
Ġx sh
Ġsi mple
qui red
ar ity
ch ec
file chooser
Ġisc si
frag ment
mp z
display pointermarker
Ġgen e
Ġb ody
x intfunctionmarker
Ġstd out
Ġpro g
ass er
mem cpy
marshal funcvoid
ass oci
te m
state voidfunctionmarker
x d
Ġ6 0
Ġs ol
get c
Ġal ready
Ġr d
Ġa i
th row
name intfunctionpointermarker
Ġgdkevent buttonpointermarker
at r
call ing
Ġter min
tra verse
re ssion
un ch
end intfunctionmarker
socket pointermarker
Ġh y
is null
arg intfunctionpointermarker
ant lr
Ġlu a
Ġf use
pl ane
gp u
Ġsv n
t le
comp ut
pre pend
Ġpointervoidfunctionmarkerif pointervoidfunctionmarker
attri b
Ġdy n
Ġf ound
el ink
Ġw l
o cket
gr p
feat ures
qu are
i a
Ġen code
Ġsh ared
can not
Ġclgitpass git
Ġen odev
Ġgerrorpointermarker message
Ġd ht
info intfunctionmarker
Ġu ae
value peek
slo tpointermarker
Ġh andler
Ġintfunction f
priv pointermarker
Ġvoidfunctionmarker paramvaluesvoidfunctionmarkermarker
state marker
mix er
def voidfunctionmarker
qu ark
bound s
u set
cur ren
po w
Ġgluster d
q string
Ġde c
Ġvoidfunctionmarkervoidfunctionmarkervoidfunctionmarker voidfunctionmarker
t un
ta bl
j p
ci al
Ġpa ir
Ġde stroy
handler voidfunctionmarker
Ġarg v
name pointermarker
Ġsy nc
Ġm iss
Ġnull tree
Ġf older
Ġspl it
cl one
pos intfunctionmarker
en s
pre view
s ched
Ġre lation
we ak
Ġreturn pointermarker
Ġs pec
Ġse cond
Ġp q
bound ary
t ou
so gs
Ġvoidfunctionmarkervoidfunctionmarkervoidfunctionmarker print
Ġf olk
sc p
add ing
intfunctionmarkerintfunctionmarker p
file intfunctionmarkerintfunctionmarker
gener ate
Ġoct str
Ġstructpointermarker status
Ġintfunctionmarkerunsigned intfunctionmarkermarker
Ġglo bu
Ġde code
Ġfor i
d uration
um ber
ro le
Ġsh ortpointermarker
set voidfunctionmarker
Ġgst eventpointermarker
floatfunctionmarkerfloatfunctionmarker floatfunctionmarkerfloatfunctionmarker
entry intfunctionmarker
tab pointermarker
vis ual
l on
Ġ chan
paramvalue svoidfunctionmarker
t c
st a
dy namic
pointer structpointermarker
Ġgstcap s
cursor pointermarker
cover y
list en
Ġdis able
d h
parse pointermarker
un able
module pointermarker
Ġgststructure pointermarker
k b
sink pointermarker
Ġsup er
Ġl l
Ġse lection
Ġz z
definit ion
Ġgtk container
token pointermarker
Ġse ns
Ġxml char
ti al
Ġex ception
buffer ed
ch at
Ġi wl
Ġvo latile
scan f
ba set
p b
c voidfunctionmarker
fun ct
de tect
vari abl
typ ed
doublepointermarker doublepointermarker
Ġvoidfunction callback
ction pointermarker
re mo
Ġpr ot
Ġ che
er ase
Ġt g
Ġstructpointermarker x
list add
inter n
as sembl
etr ans
Ġvoidfunctionmarkerargs copyvoidfunctionmarker
config ure
t ty
ce ed
comp let
colo ur
la gs
valu et
Ġm objtpointermarker
Ġa pol
present ation
str error
for k
Ġp ad
st est
Ġh igh
adap tor
page pointermarker
Ġstructpointermarker charpointermarker
cod erpointermarker
Ġp at
ide vice
bl ank
Ġgu char
Ġstructpointermarker hw
Ġchar function
if s
cre quest
Ġht t
sh m
mat h
file marker
index intfunctionmarker
Ġvoidfunctionmarker svoidfunctionmarkervoidfunctionmarker
count voidfunctionmarker
Ġ ere
Ġh ome
eref erence
ar se
Ġ interface
Ġ3 0
Ġre ply
Ġvoidfunctionmarkerg object
c lean
Ġdev ic
a que
u uid
py object
por ary
s intfunctionpointermarker
Ġintfunction aintfunctionpointermarker
ing pointermarker
pp end
ca ir
Ġin ode
plu g
Ġ1 1
Ġst p
op ts
Ġfix ed
v voidfunctionmarker
Ġse l
sto ck
Ġlog error
pac ity
c list
get n
is m
Ġvoidfunctionmarkerorcprogram add
group s
Ġvoidfunctionmarker falsevoidfunctionmarker
x intfunctionmarkerintfunctionmarker
Ġintfunctionmarkerto intfunctionmarker
compress ptrmarker
get current
arg voidfunctionmarker
o ur
al pointermarker
fa ul
in et
Ġgst clock
def pointermarker
color pointermarker
ct ime
io ctl
po ut
commandevent marker
Ġr ate
pa inter
Ġsh a
ction ary
Ġt c
ul ar
Ġh dr
Ġnot ify
Ġf v
Ġal low
Ġintfunctionmarker falseintfunctionmarker
isc si
Ġg lu
wrap per
r u
er n
ss rc
Ġcur l
Ġplay erpointermarker
an not
con cat
failed intfunctionmarker
prepar e
sizet pointermarker
Ġre lease
p ic
Ġuae u
per son
Ġstructpointermarker base
len t
cr c
Ġgobject set
pl us
Ġoper ator
r n
Ġat oi
Ġt ty
Ġ arch
ad ded
ans wer
st ub
check sum
mw are
ma y
v endor
Ġnet if
ma k
c alloc
header tpointermarker
er m
Ġdel ta
le ave
ul k
Ġa x
Ġh ton
sub str
ptr voidfunctionpointermarker
an ti
par m
net dev
node intfunctionmarker
as l
cr it
Ġdbus messagepointermarker
color s
book mark
Ġ12 8
st b
pl at
tri but
Ġpo ol
Ġgst event
on entpointermarker
se curity
event s
add res
of ormat
7 8
Ġvi rt
Ġintfunctionmarker trueintfunctionmarker
sca che
propecerenamespaceecere guiwindow
rea son
sn printf
menu itempointermarker
par set
og g
Ġintfunctionmarkern intfunctionmarker
p gs
qu ency
com po
part icle
Ġgdouble pointermarker
Ġh ex
av ail
basic block
Ġmalloc sizeof
spe ctr
p ing
gn ut
pe at
spin lock
Ġintfunctionmarkerecere vmethodidecerenamespaceecere
ref s
ca lendar
Ġd up
Ġs g
name voidfunctionpointermarker
Ġv ect
Ġwe b
aj p
get s
over lay
Ġl listelempointermarker
coe ff
h it
parent class
Ġvoidfunctionmarkerg uint
h ome
25 5
q la
h read
Ġp ag
Ġvoidfunctionmarker fw
glo bus
so ap
u char
ri er
Ġintfunctionmarker thisintfunctionmarker
ry pt
Ġ4 0
Ġvoidfunctionmarkerp voidfunctionmarker
Ġj im
module tpointermarker
Ġvoidfunctionmarkerorcvar d
b dd
ou gh
Ġ enter
stat ust
isl takepointermarker
eregist er
ra in
Ġge etree
sn ap
p voidfunctionmarker
voidfunctionpointermarkervoidfunctionmarker voidvoidfunctionmarker
Ġcharmarkerarray intmarker
proxy pointermarker
Ġ layout
sc ur
per iod
sg lobal
h old
Ġdw ar
Ġev d
Ġvoidfunctionmarkererr voidfunctionmarker
Ġre l
Ġgtk combobox
Ġintfunctionmarkerlib cerrorerror
lo aded
ag ain
fin al
edit orpointermarker
main ing
0000 0000
fun signed
free intfunctionmarkerintfunction
Ġr n
handle tpointermarker
back up
Ġut il
pa use
Ġl listpointermarker
Ġp latform
Ġx mm
cre ature
pair pointermarker
stru e
frame s
buf len
Ġfr om
fi o
f tp
Ġrece ive
f lo
Ġstructpointermarker last
mod ify
Ġ ctrl
Ġvoidfunctionmarker flagsvoidfunctionmarker
Ġm is
word s
service pointermarker
Ġvoidfunctionmarkerinputchr voidfunctionmarker
it ed
dest ination
Ġgdl dock
status voidfunctionmarker
f op
Ġglistpointermarker next
erpointermarker priv
Ġvoidfunctionmarkern voidfunctionmarker
he al
Ġver bose
Ġgst tag
Ġco un
oken pointermarker
Ġus age
dat an
info voidfunctionmarker
a ff
b ank
alg orith
urface pointermarker
adi ent
Ġr s
attribute pointermarker
th reshold
ctx voidfunctionpointermarker
ex change
Ġw ith
Ġnm device
to int
g reen
4 2
mple ment
se qu
Ġme di
Ġvoidfunctionmarker register
Ġde sc
from string
delet ed
w i
al le
im g
anim ation
Ġun used
re co
Ġe p
Ġsn mp
Ġal ph
gr ow
produ ct
intfunctionmarkerintfunctionmarker b
Ġfor ce
Ġthis get
viron ment
Ġintfunctionmarkerintfunctionmarker int
Ġgsimpleasync result
g be
void pointervoidfunctionmarker
Ġmp d
w b
Ġf sogs
en crypt
book pointermarker
pointermarker y
symbol pointermarker
8 00
Ġm er
c ationpointermarker
of structpointermarker
Ġi anjut
Ġd p
r nd
0000 000
si b
mapp ed
Ġpro file
andid ate
e b
9 5
pre quest
Ġgsimpleasync resultpointermarker
str ans
it iv
Ġau dio
t ot
sist ent
res ume
head intfunctionmarker
Ġse quence
Ġt cp
registr y
ct ree
ar row
Ġstrn cpy
f h
Ġpointervoidfunctionmarker return
Ġfin ish
e h
Ġtr ac
Ġintfunctionmarker structintfunctionmarkermarker
ex port
mon o
bo ut
ist at
p q
intfunctionmarkerintfunctionmarker n
Ġz ero
Ġintfunctionmarker mode
scli ent
iz er
Ġmem cmp
qu it
conf pointermarker
Ġsw ap
err msg
n k
c dr
in di
Ġgtklist store
list intfunctionpointermarker
p x
pointer intfunctionmarker
Ġr h
sc ap
dat al
ee ded
cn ic
or ientation
comm od
Ġintfunctionmarkerqmetaobjectintfunctionmarkerintfunctionmarkercall intfunctionmarkermarker
met adat
Ġseg ment
su int
oframe work
Ġintfunctiont intfunctionpointermarker
Ġun ion
Ġt a
Ġvoidfunction self
Ġxml se
id t
Ġvoidfunctionmarker va
fla sh
strlen charpointermarker
is on
host name
Ġgam gid
j e
en de
writ ereg
w ra
Ġc atch
urn al
l anguage
Ġgparam spec
amet hod
fi re
am ode
Ġvoidfunctionmarkergc closurevoidfunctionmarker
re nd
qu ad
f intfunctionmarker
Ġf lush
sla pi
aliz ed
ee k
con version
Ġpy s
sibl ing
p ur
Ġj peg
ptr voidfunctionmarker
Ġcr m
Ġf lobjectpointermarker
su me
in crement
click ed
pro mpt
doublemarker doublemarker
pri mary
s count
set t
Ġtracker sparql
Ġg size
lo tpointermarker
lock intfunctionmarker
Ġcame lf
ar c
w are
de bu
sa ssert
Ġex o
Ġgwy data
se ed
k t
cat alog
Ġstructpointermarker is
Ġerr msg
ut able
Ġgobject class
Ġat t
Ġvoidfunctionex voidfunctionpointermarkervoidfunctionmarker
6 6
Ġa ir
Ġpointervoidfunctionmarkerreturn pointervoidfunctionmarker
Ġl list
Ġu disk
ta ssert
ve lo
Ġn ote
Ġset up
go ing
con s
Ġfail ure
Ġf open
poly gon
Ġfclose filepointermarker
us r
b al
Ġm xf
sed it
Ġto ol
m v
set s
sz intfunctionmarker
d if
Ġintfunctionmarkerctx intfunctionmarkerintfunctionmarker
l listpointermarker
Ġvoidfunctiong marshalfuncvoid
res ourc
l listelempointermarker
ti mi
request pointermarker
data intmarker
7 1
g di
i q
Ġse lf
nat ive
e ffect
Ġ private
Ġexp and
Ġintfunctionmarker lenintfunctionmarker
p li
Ġm g
gs listpointermarker
dev intfunctionmarker
7 5
Ġintfunctionmarker buf
Ġvoidfunctionmarkerregister voidfunctionmarker
ged ata
comp onentpointermarker
un defined
Ġsndso c
Ġmutexlock structpointermarker
om at
Ġs pr
sc en
word marker
space pointermarker
Ġvoidfunctionmarkerorcvar t
wid e
Ġg nodepointermarker
y n
po t
un time
v erpointermarker
Ġc rypt
Ġfla c
Ġg array
Ġvoidfunctionmarker slurmdb
Ġs mart
gn uc
printf structpointermarker
Ġmono classpointermarker
clip board
co ree
Ġb on
Ġcom mon
Ġdr iver
get class
h z
lo ok
Ġad ap
pointermarker s
ble m
th on
ac countpointermarker
x a
un ic
acc um
k cs
box ed
dev intfunctionmarkerintfunctionmarker
Ġintfunctionmarker w
Ġ itempointermarker
pointermarker is
value voidfunctionmarker
pointermarkerpointermarkerpointermarkerpointermarker pointermarkerpointermarkerpointermarkerpointermarker
obu ff
Ġreturn null
ar b
dialog datapointermarker
0 5
state mentpointermarker
Ġ ur
Ġdat um
lex er
Ġt s
Ġalloc ation
Ġd own
st ime
function voidfunctionmarker
re qual
Ġg print
get drvdatastructpointermarker
g v
Ġb dd
err ore
9 2
f v
m ol
ht t
a it
Ġe qual
Ġchar u
di e
sort ed
Ġintfunctionmarker resintfunctionmarker
v err
name d
fre elist
intfunctionmarkerintfunctionmarker aintfunctionmarkerintfunctionmarker
Ġa cc
x e
x mp
at ing
st mode
sum mary
6 00
mon th
Ġprop id
Ġintfunctionmarker double
Ġarray size
table tpointermarker
Ġgx device
unit pointermarker
writ ten
Ġscrip t
Ġsi s
mid i
Ġmo v
ode vice
pk ix
assert intfunctionmarkerintfunctionmarker
Ġgup np
ation s
Ġiss pace
pi e
Ġsnprintf charmarkerarray
Ġre st
met amethod
Ġgasync resultpointermarker
j nienvpointermarker
put structpointermarker
Ġintfunctionmarker endif
eg ist
io c
Ġintfunctionmarkerendif intfunctionmarker
val tpointermarker
Ġintpointermarker intpointermarker
dat ar
out of
Ġa sc
Ġp in
sh ash
me lement
Ġma k
Ġgf arm
4 5
to ur
Ġfloatfunctionmarker float
Ġa e
level pointermarker
handler s
Ġr tp
Ġd ate
Ġgtk cm
exec ute
Ġb c
re x
Ġgtk box
ip pet
Ġw n
Ġx free
Ġintfunctionmarker max
Ġfs oframework
conf tpointermarker
conf lict
re verse
Ġdr op
keep pointermarker
ptr pointermarker
variable pointermarker
over flow
init i
dr iv
Ġg if
dev structpointermarker
Ġoper ation
fon tpointermarker
Ġintfunctionmarker hash
Ġgtktreeselection pointermarker
Ġm f
Ġop code
Ġstructpointermarker tm
Ġintfunctionmarkerq string
serv ic
13 94
mot ion
Ġpointercharfunctionmarker define
Ġpointercharfunctionmarkerdefine pointercharfunctionmarker
lay erpointermarker
ob ase
Ġp error
or s
err code
ite mp
sizet ype
new voidfunctionmarker
pi ck
indent marker
cap ture
commod ity
w lock
Ġp th
length intfunctionmarker
en one
la p
context voidfunctionmarker
Ġc at
li s
un link
Ġg debug
pre vious
Ġrequest recpointermarker
ad j
voidfunctionmarkervoidfunctionmarker voidfunctionmarkermarker
ed list
Ġproto col
bits structpointermarker
it ype
Ġpr err
c am
cho ice
start intfunctionmarker
cy cle
Ġstructpointermarker in
sup port
susp end
Ġpo w
rb is
rell m
Ġgtkwidget get
Ġc g
Ġintfunctionmarker fl
play list
Ġstructpointermarker port
dis pose
descript orpointermarker
Ġsa fe
line ar
miss ing
gnuc unused
Ġeinalist pointermarker
ms gs
e gr
Ġg mime
Ġd ig
pop tion
tv usec
un set
end er
edit able
vol ta
fout put
qu ote
doublemarker array
Ġim g
g ain
is o
signale mit
Ġc nt
li sh
marker intmarker
Ġser vice
as on
r andom
Ġd s
Ġq la
Ġen et
Ġgerror free
Ġco gl
Ġt w
ud p
Ġp ipe
Ġstrchr charpointermarker
Ġm u
b lack
ue st
val s
Ġcre ature
lo se
Ġintfunctionmarker mp
listpointermarker next
Ġvide o
attr pointermarker
Ġpo wer
Ġintfunctionmarker in
il legal
offset intfunctionmarkerintfunctionmarker
key voidfunctionmarker
Ġvoidfunctionmarkerselfvoidfunctionmarkervoidfunctionmarker privvoidfunctionmarkervoidfunctionmarker
Ġgst flow
Ġmemset structpointermarker
w ire
Ġintfunctionmarker ch
Ġintfunction d
Ġintfunctionmarker do
ge m
view er
Ġsla pip
Ġp ending
next intfunctionpointermarker
resol ve
Ġif g
Ġf sm
Ġm l
contain s
Ġh s
sche me
Ġk zalloc
ic mp
path intfunctionmarker
leg acy
Ġstructpointermarker re
Ġm ult
p u
intfunctionmarkerintfunctionmarker nintfunctionmarker
Ġn od
Ġstructpointermarker phy
Ġt ail
Ġb d
ff ree
Ġinst ance
ath er
Ġgd ome
no error
header s
s voidfunctionpointermarker
sub ject
Ġintfunction cmp
Ġget mode
sche ma
struct voidfunctionmarkermarker
Ġstructpointermarker value
Ġbo ard
Ġglade widgetpointermarker
si mage
tr ac
sc c
width intfunctionmarker
intfunctionmarkerintfunctionmarker thisintfunctionmarker
Ġv pn
structpointermarker d
len um
Ġe book
Ġis errstructpointermarker
Ġm n
fun cptr
Ġintfunctionmarker array
Ġs scanf
method invo
i end
z valpointermarker
log debug
Ġarg c
Ġex tract
Ġvoidfunctionmarkergtk widget
chec ker
Ġp as
sl t
request tpointermarker
i mat
u g
Ġglist free
Ġvoidfunctionmarkervoidfunctionmarkervoidfunctionmarkerprint line
alloc ator
Ġsk b
Ġre mote
Ġa im
Ġintfunctionmarkerlong intfunctionmarker
st ory
Ġparam s
disable d
gener ator
Ġintfunctionmarker new
Ġstd list
Ġprintf n
Ġn to
ol low
u do
Ġghashtable lookup
f printf
inter p
Ġn eg
log ical
r om
model index
Ġgvalue get
data size
scan ner
4 1
l m
entry structpointermarker
j ack
typ ename
Ġgtk dialog
sser ver
i object
Ġvoidfunctionmarker list
xml charpointermarker
co s
im etype
xff ffffff
Ġintfunctionmarker staticcast
Ġh i
Ġk ind
ar ti
Ġvoidfunction cc
tree marker
sc b
unit s
Ġp ay
invoke metamethod
ob it
ot tom
al go
ist ic
se en
node voidfunctionmarker
Ġret value
asy n
n an
default voidfunctionmarker
f id
Ġinit ialize
Ġvoidfunctionmarker funcvoidfunctionmarker
de leg
py ex
fe ed
pict ure
out f
word pointermarker
Ġx mt
pre fs
Ġsh ift
Ġpage size
im m
seg mentpointermarker
Ġtrans form
Ġn uma
seq pointermarker
guicontrols button
up er
i rect
gn ew
Ġintfunctionmarkerbase intfunctionmarker
cre ated
ut o
sc ene
align ed
fd s
o tpointermarker
pointercharfunctionmarker marker
odo main
Ġt clo
Ġfor m
anch or
ex pi
bu d
connection tpointermarker
spe ct
en eric
comp ressed
Ġwx t
fd voidfunctionmarker
s ge
Ġb est
Ġdis k
Ġv x
array intmarker
de le
Ġgd as
se xp
met ric
y m
error invalid
user name
in ame
b pointermarker
sp line
Ġse cret
close d
Ġpointermarker intfunctionmarker
Ġfe at
Ġmai limap
w t
u dio
ra id
da emon
address pointermarker
icon view
sen try
device structpointermarker
eg tk
ref pointermarker
di alo
ro ad
intfunctionpointermarkerintfunctionmarker structintfunctionmarker
Ġdn sr
Ġtime stamp
Ġstruct variabl
con tr
el t
bit mask
it ch
iter next
al bu
Ġintfunctionmarker py
Ġclose intmarker
f name
le v
Ġfe ature
Ġp ub
Ġvoidfunctionmarker w
reg map
x path
com ing
ac cel
lat in
Ġsla p
Ġ 50
ar am
Ġbu gon
b eg
c err
Ġ ind
Ġsc msub
tx t
val ist
Ġgu i
Ġstructpointermarker op
ext ended
qu ali
s printf
ic ast
front end
Ġbu cket
si cal
table intmarker
io pointermarker
conn tpointermarker
Ġintfunctionmarkerstaticcast intfunctionmarkerintfunctionmarker
icon pointermarker
c ms
rt l
u intmarker
reg exp
ul er
3 7
Ġvoidfunctionmarker long
Ġvoidfunctionmarkervoidfunctionmarkervoidfunctionmarkerprintline voidfunctionmarkervoidfunctionmarkervoidfunctionmarkervoidfunctionmarkervoidfunctionmarkervoidfunctionmarker
func voidfunctionpointermarkervoidfunctionmarker
ctx voidfunctionmarker
free voidfunctionmarkervoidfunctionmarker
h is
Ġ0 8
intfunctionmarkerintfunctionmarker l
Ġwn ck
intfunctionmarkerintfunctionmarkeri intfunctionmarker
Ġd printk
Ġe val
Ġca st
Ġgtktext buffer
cm et
mit k
Ġgp io
Ġgslistpointermarker data
auth entic
Ġn p
anc ed
co bject
strea ms
Ġtr i
bin pointermarker
Ġvoidfunctionmarker a
pt s
fre quency
pol ar
cb k
n ick
j iffi
file info
Ġfloatfunctionmarker if
ss uccess
option spointermarker
Ġw b
r args
se xt
Ġex if
e val
r ank
Ġtest bit
v g
en gin
al ert
ng ine
Ġwarn on
Ġg main
Ġva end
or b
dat are
re nc
Ġs pi
oper ationpointermarker
Ġa sync
node marker
Ġaj false
ec ur
buffer s
queu ed
Ġintfunctionmarker tmp
Ġr ot
smart datapointermarker
x attr
of ont
Ġcontainer ofstructpointermarker
m ip
Ġscmsub rargs
Ġcon straint
Ġma c
Ġvoidfunctionmarker my
Ġl uint
Ġstructpointermarker irq
ad min
sr r
result voidfunctionmarker
Ġvoidfunctionmarkergf arm
q r
Ġchar acter
page size
Ġc u
ra ster
m ic
vl an
gn c
sr ml
status intfunctionmarker
sen se
Ġerr code
Ġver ify
xx n
ad opt
prop s
sub mit
Ġpointervoidfunctionmarker voidpointervoidfunctionmarker
spin button
Ġintfunction c
init edvoidfunctionmarker
Ġ priv
Ġvoidfunctionmarker h
component s
spectr um
ptr intfunctionmarker
dic ator
en se
Ġvoidfunctionmarker intvoidfunctionmarkermarker
set current
bit streampointermarker
Ġw chartpointermarker
Ġintfunctionmarkerh intfunctionmarker
instruction pointermarker
Ġstrcase cmp
Ġvoidfunctionmarker o
buf tpointermarker
Ġconta ct
i voidfunctionmarker
ca ssert
Ġcomp are
u it
id tpointermarker
Ġcr yp
mov ed
u u
ec ant
remov ed
get property
ser ializ
Ġext ension
Ġlu astatepointermarker
clas stpointermarker
writ erpointermarker
li ve
red raw
Ġmag ic
li ckey
Ġa sm
ph p
Ġpo ll
id at
Ġident ifier
t w
st ext
Ġspinunlockirqrestore structpointermarker
intfunctionmarkerintfunctionmarker nextintfunctionmarker
marshal datavoidfunctionmarker
t od
tr ow
lock voidfunctionmarker
Ġg le
Ġg di
inc ref
modifi er
in line
get parent
ho ur
Ġa finet
wa ve
l structpointermarker
h older
Ġc n
Ġi bus
valu etpointermarker
ap on
Ġph oto
o ke
arg c
m q
Ġh p
oriz ont
Ġgn mex
project pointermarker
prot ect
it u
eno mem
h c
Ġt v
box e
Ġbr cm
or k
li o
lo p
Ġgtk action
Ġ1 4
st ab
box intfunctionmarker
wake up
name structpointermarker
Ġf mt
Ġgth file
str case
Ġstructpointermarker w
Ġextr adata
Ġ orc
pr un
Ġv b
pk cs
list cellpointermarker
ht on
Ġintfunctionmarkeri intfunctionmarkermarker
asser th
get structpointermarker
n fs
Ġr pointermarker
ink pointermarker
reference pointermarker
Ġprog ress
t cl
scroll bar
list iter
Ġpointer doublepointermarker
static pointermarker
am d
y s
Ġn n
Ġl ang
5 12
Ġstructpointermarker mode
s addr
Ġvoidfunctionmarkergcclosureswapdata voidfunctionmarkermarker
Ġg ts
mp tr
gr adient
Ġlist del
Ġbin ary
state s
Ġt tl
ab el
Ġt db
sc lear
spin unlock
Ġgd adat
Ġso und
ty n
handle d
Ġvoidfunctionmarker marshaldatavoidfunctionmarker
ca pacity
re try
Ġex plain
Ġar en
continue intfunctionmarker
in val
is k
Ġw i
8 2
Ġva start
Ġdbu stype
pre d
Ġintfunctionmarker valueintfunctionmarker
Ġintfunctionmarkerret valintfunctionmarker
Ġpro gram
param pointermarker
debug voidfunctionmarker
om it
collection pointermarker
n pos
cm ode
Ġvoidfunction p
Ġstrn cmpcharpointermarker
hal f
Ġde lay
Ġres ol
eres ult
c data
Ġv si
Ġdo main
Ġeno ent
hash tablepointermarker
function intfunctionmarker
im et
Ġgw en
str n
not found
error string
func pointermarker
Ġbuf len
interface pointermarker
coord inate
Ġdata base
Ġvtk information
Ġcli ck
g lob
Ġvoidfunctionmarker rc
volta ge
Ġf f
Ġf ft
Ġvoidfunctionmarkerp initedvoidfunctionmarker
log y
Ġck r
Ġintfunctionmarker typeintfunctionmarker
Ġd ummy
ut ton
Ġp an
fr omp
line marker
Ġajp str
reg round
Ġecerenamespaceecere cominstance
vo latile
list append
capab ility
Ġif intfunctionmarker
Ġintfunction ctx
Ġme sh
Ġcan cel
k obj
pro d
Ġintfunctionmarker codeintfunctionmarker
len try
Ġsize o
Ġcharmarker intmarker
Ġgig gle
Ġt or
Ġav ailable
Ġre place
file get
o ss
wait ing
id structpointermarker
Ġstructpointermarker a
qual ity
Ġvoidfunctionmarker errorvoidfunctionmarker
in pointermarker
f sp
pre dicate
index voidfunctionmarker
y ear
ate gory
Ġcame limap
Ġg el
Ġre alloc
dr ive
web app
addr intfunctionmarker
gn ot
dex ml
Ġdump file
Ġnetdev privstructpointermarker
t extpointermarker
Ġt l
dy n
s marker
fl ate
b x
Ġb ar
static metaobjectintfunctionmarkerintfunctionmarker
Ġintfunctionmarkerq assertintfunctionmarkerintfunctionmarker
staticmetaobjectintfunctionmarkerintfunctionmarker cast
Ġintfunctionmarkerqassertintfunctionmarkerintfunctionmarker staticmetaobjectintfunctionmarkerintfunctionmarkercast
Ġd ay
Ġbuf size
Ġintfunctionmarkerout intfunctionmarker
Ġl pf
read only
auth oriz
gnome gnome
allow ed
g ray
en et
checkout gnomegnome
Ġextradata checkoutgnomegnome
Ġextradatacheckoutgnomegnome boxe
charpointermarker charpointermarker
Ġwrit el
st marker
iz ed
v sb
mar tyn
Ġi io
racker sr
Ġhome martyn
Ġlist add
adopt ed
g fs
ob urn
nc ase
er tpointermarker
as m
cs it
le e
paramet erpointermarker
la g
b tree
init struct
ver s
und er
Ġ ata
Ġe fault
sh ader
Ġsl urmdb
Ġintfunctionmarker bool
Ġxlator t
f li
Ġgst audi
color map
Ġsu sp
pointermarker w
to pointer
sen abled
mp d
Ġcl k
coord s
gn ode
Ġgn et
i pointermarker
plat form
Ġf flush
Ġn em
e of
sen ce
my sql
Ġg clear
Ġintfunctionmarkerx intfunctionmarker
inter pol
nt o
Ġstructpointermarker addr
nom ial
samp ler
id ual
par tpointermarker
Ġw as
rt c
jiffi es
xx x
l ang
int intfunctionmarker
Ġva arg
t d
Ġb y
Ġstate ment
Ġtp base
Ġspe ed
Ġintfunctionmarker continueintfunctionmarker
Ġpc idev
op pointermarker
cp ut
func s
m ca
util s
Ġstd cout
sib ility
Ġvoidfunctionmarker signal
Ġp v
intfunctionmarkerintfunctionmarker r
Ġtemp late
pgs ql
Ġa ud
att ack
Ġvoidfunctionmarker get
destroy notify
Ġtype pointermarker
guicontrol sedit
Ġintfunctionmarker float
Ġr and
om ode
ph oto
Ġs ingle
op aque
Ġmem ber
de tach
Ġgs b
Ġgtkwidgetset sensitive
b atch
Ġcharmarker if
region pointermarker
termin al
Ġnv km
log err
or ph
ur fac
Ġt em
igh b
orizont al
oct et
Ġle ft
interpre ter
Ġt b
Ġwr ong
Ġvoidfunctionmarker uint
Ġintfunction callback
mask voidfunctionmarker
Ġpy decrefpyobjectpointermarker
signal s
Ġot her
a ir
Ġintmarker intmarkerintmarker
sh ar
valu ed
set property
re maining
ct iv
list item
message box
Ġgit diff
invokemetamethod intfunctionmarker
Ġnet work
file type
k v
mo re
voidfunctionmarkervoidfunctionmarker nextvoidfunctionmarker
voidfunctionmarkervoidfunctionmarker nvoidfunctionmarker
object vv
Ġth ist
Ġz x
Ġgi mp
mode m
intfunctionpointermarkerintfunctionmarker nextintfunctionmarker
Ġio ctl
Ġmonomethod pointermarker
Ġj nienvpointermarker
tree widget
Ġa mitk
od r
qu ant
qu ick
canvas pointermarker
adjust mentpointermarker
voidfunctionmarkervoidfunctionmarker sizeof
ph andle
enum erator
Ġu b
Ġvoidfunctionmarker defaultvoidfunctionmarker
tpointermarker n
comp iler
Ġinstruction pointermarker
hash lib
el im
fre ed
dec imal
et ag
Ġbraser oburn
i mag
data len
fre sh
voidfunctionmarkermarkervoidfunctionmarker datavoidfunctionmarker
Ġxmms v
if intfunctionmarkerintfunctionmarker
Ġsv g
Ġcamelimap x
h r
get char
data marker
table s
sample s
st dostreammarker
Ġvoidfunctionmarker event
Ġgstr cmp
ing s
Ġot f
Ġintfunctionmarker keyintfunctionmarker
compo und
state voidfunctionmarkervoidfunctionmarker
li mb
Ġgst mpeg
Ġ1 3
top level
Ġreal pointermarker
pointermarker b
Ġgst m
set tpointermarker
mem set
Ġcharfunctionmarker if
r and
Ġr gb
Ġin et
sol ute
Ġsprintf charpointermarker
cro ss
la sh
intfunctionmarkerintfunctionmarker marker
Ġad v
delay ed
st p
second s
Ġ iterator
Ġf abs
p ane
Ġt ix
Ġcomple te
v n
qu iv
x marker
erec lass
si mp
Ġgtk response
pl l
ge o
id r
gf arm
Ġpkix pl
Ġn ormal
7 2
down load
ing n
Ġde tect
b ulk
Ġpointer pointermarker
er ange
Ġd xf
Ġb er
th r
win pointermarker
ble nd
Ġr ad
Ġten m
c sr
Ġrec v
Ġp x
she etpointermarker
ere al
o streammarker
Ġm map
Ġo map
Ġdi e
ev t
Ġgtktreeview get
list nodepointermarker
Ġunsignedpointermarker intmarker
Ġoff t
le av
Ġfput s
Ġm ath
Ġlo ctpointermarker
ren try
sizeof struct
egist erpointermarker
dis p
fx intmarker
0 7
e a
Ġ ord
Ġe source
spa wn
h b
s len
Ġintfunctionmarker o
Ġvoidfunctionmarkerr voidfunctionmarker
b structpointermarker
bits intfunction
Ġcould nt
Ġvtk indentmarker
tx n
Ġfd tpointermarker
c client
Ġgtk notebook
mat ches
Ġg arraypointermarker
au dit
task pointermarker
Ġk ill
Ġi bu
mex ec
algorith m
screen pointermarker
Ġql cnic
inform ationpointermarker
Ġt i
idata pointermarker
Ġrtx pointermarker
reserv ed
g erpointermarker
tag pointermarker
Ġ ase
an ame
Ġsec itempointermarker
Ġm an
del t
v fs
intfunctionmarkerintfunctionmarker get
Ġconstmarker get
tri angle
ba ser
Ġcryp to
n ed
Ġg ele
g int
ar ow
Ġafr localtpointermarker
Ġu c
Ġvoidfunctionmarker in
Ġvoidfunctionmarkerlong voidfunctionmarker
re start
gr ou
trans late
Ġvoidfunctionmarker set
Ġn bytes
Ġd sp
la unch
process or
al ive
Ġgo a
Ġpe er
de faul
Ġd ot
return iffail
chain up
Ġc err
Ġcon struct
entry intfunctionpointermarker
action s
j av
scm obj
Ġg lib
Ġn f
fir m
Ġlo ff
Ġere port
siz ed
info get
d le
mar ray
con current
doublefunctionmarker doublefunctionmarker
et urn
Ġge o
act ual
status marker
Ġsndso cd
Ġc i
com pos
Ġvoidfunctionself voidfunctionpointermarkervoidfunctionmarker
v ed
in ary
8 1
f z
f voidfunctionmarker
Ġr svg
xy z
conver ter
ur al
istat us
om b
comp ression
emp late
edi alog
Ġcharmarkerif charmarker
tpointermarker next
Ġcomp onent
erec ord
tem porary
Ġr fb
s co
Ġq pol
d on
Ġpointervoidfunctionmarker pthread
id obj
it her
de lement
Ġf req
par tial
log level
floatfunctionpointermarker floatfunctionmarker
in strpointermarker
Ġ3 1
tool s
1 0000
Ġintfunctionmarker fn
map pend
oct strpointermarker
adr uple
struct marker
ss ub
Ġg signalemit
voidfunctionmarkervoidfunctionmarker datavoidfunctionmarker
real pointermarker
Ġgboolean pointermarker
8 5
Ġch amp
Ġgd m
ref cnt
bt l
Ġpo l
Ġu a
Ġconn man
Ġgla dexml
Ġb w
Ġvoidfunction argvoidfunctionpointermarker
Ġk w
Ġsk buff
Ġcharpointermarker i
file system
valu ate
Ġmemset structvariable
con tour
Ġintfunction cb
Ġn orm
get private
sc all
Ġgtk filechooser
sp re
void voidfunctionmarkervoidfunctionmarker
voidfunctionmarkervoidfunctionmarker l
start ed
can on
vert ical
al ter
pl s
section pointermarker
bud dy
xml sec
Ġ volume
link pointermarker
x l
Ġs chedule
Ġw ant
Ġmon odomain
bits intfunctionpointermarker
Ġstrcase cmpcharpointermarker
Ġg ra
pl er
info intmarker
bitmap pointermarker
guicontrols data
st ere
Ġrp csv
a set
sd l
Ġvoidfunctionmarker option
me vent
handle intfunctionmarker
set active
uint pointermarker
v intfunctionmarker
Ġth iss
Ġ od
st k
Ġintfunction r
eth read
Ġstructpointermarker offset
ret val
Ġintfunctionmarkere in
obuff er
Ġvoidfunctionmarker typevoidfunctionmarker
Ġh ard
Ġvoidfunction output
Ġ2 00
Ġix gb
Ġgobject getdata
ewid th
Ġs che
voidfunctionmarkervoidfunctionmarker p
Ġt itle
ta ched
format pointermarker
st ick
start voidfunctionmarker
Ġmr pt
Ġintfunctionmarkerqmetaobjectintfunctionmarkerintfunctionmarker invokemetamethodintfunctionmarker
Ġq metaobject
Ġco in
Ġe fx
Ġis cr
Ġoperand s
s si
adap terpointermarker
Ġ interval
get active
Ġextradatacheckoutgnomegnomeboxe ssrc
c w
Ġst ar
Ġif f
us ion
evas object
Ġintfunctionmarker countintfunctionmarker
dl g
free voidfunctionmarker
Ġintfunctionmarkerifintfunctionmarker intfunction
Ġit r
Ġintfunctionmarker callback
si p
v pn
Ġc v
Ġca ched
org an
Ġre p
tree view
il la
color space
engine pointermarker
ov err
el szintfunctionmarker
itu de
set bit
brid ge
wm windowpointermarker
ew ord
cp kcs
structpointermarker i
byte svoidfunctionmarker
ci fi
ew rite
pro filepointermarker
o unt
file size
Ġwor ker
Ġtermin al
oc cur
id get
con str
name len
sintmarker intmarker
Ġgvfs job
b est
m isc
Ġs ched
Ġx log
Ġgee hash
resol ution
Ġu v
message s
Ġfloatmarker array
Ġbfd pointermarker
range pointermarker
combobo xpointermarker
pp key
Ġapr pooltpointermarker
hid den
Ġm ic
intfunctionpointermarkerintfunctionmarker voidintfunctionmarker
Ġas sign
Ġu uid
dev intfunctionpointermarker
lin ec
pie ce
paramvalues voidfunctionpointermarker
lo per
f ul
h ot
wx commandeventmarker
string charpointermarker
Ġexpression pointermarker
Ġspinlockirqsave structpointermarker
num berpointermarker
Ġlist head
re st
ol ate
cptr marker
op al
Ġbu iltin
b id
Ġchunk tpointermarker
Ġcal c
Ġgtkwidget destroy
Ġpointer unsignedpointermarker
rec ent
h ing
temp t
Ġgfile infopointermarker
strdup charpointermarker
writereg structpointermarker
po six
Ġd bug
Ġom ni
Ġac cept
Ġr andom
Ġreturn intmarker
pro j
Ġr f
m le
scre ate
9 00
s const
voidfunctionmarkervoidfunctionmarker n
Ġse m
e ad
Ġstructpointermarker cur
Ġdir pointermarker
error intfunctionmarkerintfunctionmarker
ouble pointermarker
h ci
Ġstructpointermarker buf
Ġf ro
ro sk
free intfunctionmarker
db l
Ġs at
it ter
control pointermarker
Ġisl basic
Ġseek set
r sp
string voidfunctionmarker
ab edit
un load
Ġg byte
Ġstructpointermarker start
lock structpointermarker
ctx marker
t ex
Ġgst state
intfunctionpointermarkerintfunctionmarker constintfunctionmarker
Ġv r
buf voidfunctionmarker
port voidfunctionmarker
Ġvtk data
pos voidfunctionmarker
Ġerror ptr
Ġmer ge
a vi
ma ker
g stringpointermarker
Ġintfunctionmarker sh
Ġ layer
Ġr ing
Ġr pc
p res
hash pointermarker
config tpointermarker
par ts
Ġcoun ter
Ġianjut a
Ġl at
comm unic
Ġvoidfunctionmarker or
fir mware
m map
Ġdi rection
en vironment
list iterator
Ġre interpretcast
ip c
Ġintfunctionmarker next
Ġvoidfunctionmarker is
free voidfunctionmarkervoidfunction
Ġdyn cast
re serve
vo rbis
Ġstring typointermarker
to c
Ġg const
nam et
edge pointermarker
Ġintfunctionmarker st
intfunctionmarkerintfunctionmarker h
Ġstate mentpointermarker
x form
Ġg seterror
or ies
Ġbasic blockpointermarker
Ġgamgid listpointermarker
cmd voidfunctionmarker
s chedule
Ġvoidfunctionmarkerguint voidfunctionmarker
Ġgdas ql
j mp
Ġi mp
Ġintfunctionmarker aj
u ck
Ġstructpointermarker e
intfunctionmarkerintfunctionmarker structintfunctionmarker
Ġstrdup charpointermarker
Ġuerrorcode marker
Ġback end
Ġspec ify
um mary
read int
dbg structpointermarker
Ġsq rt
Ġint r
Ġd er
Ġgtklist storepointermarker
trans ition
Ġlistforeachentry structpointermarker
Ġsh ell
inf ob
Ġgk rellm
Ġguint pointermarker
k n
Ġintfunctionmarker ointfunctionmarker
pr v
Ġintfunctionmarkerdouble intfunctionmarker
Ġc rc
Ġstructpointermarker count
sr cp
Ġmemcpy structpointermarker
Ġgst time
Ġis digit
Ġgdk window
pack start
Ġg unlikely
cm dr
Ġch ip
index ed
Ġcharfunctionmarkerif charfunctionmarker
5 1
Ġintfunctionmarker sizeintfunctionmarker
fs m
rectangle pointermarker
Ġdynamic cast
Ġi w
ci b
Ġintfunctionmarker dataintfunctionmarkerintfunctionmarker
at et
Ġh al
ver b
closure pointermarker
Ġvoid voidfunctionmarker
Ġhist ory
Ġre try
db lock
net snmp
Ġintfunctionmarkery intfunctionmarker
Ġh elp
pointer voidpointermarker
Ġintfunction h
und le
Ġcli p
jo urnal
Ġsane status
il ities
info intfunctionpointermarkerintfunctionmarker
draw able
eth is
form ation
Ġintfunctionmarkerecere methodecerenamespaceecere
pointermarkerrminpointermarkerrmaxpointermarkerrnatpointermarkerrminpointermarkerrmaxpointermarkerrnat pointermarkerrnat
t id
Ġv l
ms k
sh andle
Ġe q
enum er
m box
Ġvoidfunctionmarker switch
fi el
Ġgit repository
Ġsl ur
Ġref erence
Ġdisplay pointermarker
pointermarker d
Ġg dat
Ġintfunctionmarker buffer
Ġvoidfunctionmarker j
Ġb p
yp et
sla sh
as string
Ġanjut a
inc ip
pointermarker flags
ptr intfunctionpointermarker
Ġg date
ls urfacepointermarker
ml ink
page structpointermarker
Ġjs objectpointermarker
Ġintfunctionmarkerec p
buf intfunctionpointermarker
associ ation
ad ing
Ġp w
fo reground
Ġk nh
sb e
gtktree modelpointermarker
pointermarkerrminpointermarkerrmaxpointermarkerrnatpointermarkerrminpointermarkerrmaxpointermarkerrnat pointermarkerrmax
9 3
Ġg ascii
voidfunctionmarkervoidfunctionmarker ev
Ġpay load
ot ify
o uld
ra deon
parse d
z end
Ġh av
re quired
Ġa m
ec erenamespaceed
Ġq painter
status bar
Ġcli entpointermarker
Ġmet adata
el ay
cr l
Ġf it
Ġs ci
Ġlog debug
qla host
Ġg lyph
ra se
pointermarker intpointermarker
lo gs
Ġinit listhead
li sion
Ġgst audio
Ġm ip
Ġoct strpointermarker
realtmarker intmarker
br ick
complet ed
mo oth
slot s
aser egisterpointermarker
Ġgst video
mb da
clu sive
12 3
voidfunctionpointermarkervoidfunctionmarker nextvoidfunctionmarker
Ġerror int
Ġsnprintf charpointermarker
n th
Ġc red
x act
di ms
get default
nodepointermarker get
clas st
s ite
Ġ ide
Ġvstop vsb
Ġvstopvsb aseregisterpointermarker
voidfunctionmarkervoidfunctionmarker t
graph tpointermarker
gw en
get length
Ġx l
mt x
a gn
Ġvoidfunctionmarker hton
intfunctionmarkerintfunctionmarker e
Ġb m
str ack
Ġn ma
Ġmp t
Ġintmarker int
Ġm cap
list box
bo un
Ġintfunctionmarkerintfunctionmarker ifintfunctionmarkerintfunctionmarker
ed is
Ġvoidfunction f
Ġvalid ate
intfunctionmarkerintfunctionmarkeri intfunctionmarkerintfunctionmarker
Ġvoidfunctionmarkergcclosureswapdata voidfunctionmarkermarkervoidfunctionmarkerdatavoidfunctionmarker
int f
per cent
Ġd printf
list intfunctionmarkerintfunctionmarker
Ġvoidfunctionmarker op
return charfunctionmarker
intfunctionmarkerintfunctionmarker vtblintfunctionmarker
str ate
Ġre gno
pointermarkerrminpointermarkerrmaxpointermarkerrnatpointermarkerrminpointermarkerrmaxpointermarkerrnat pointermarkerrmin
op tr
cli b
empty structpointermarker
Ġ alias
ec ord
gtktree view
Ġsyn tax
de cpointermarker
Ġintfunctionmarkert intfunctionmarkerintfunctionmarker
p io
re name
Ġgkey file
Ġvoidfunction new
mb ed
loop pointermarker
al arm
Ġun def
n eeded
Ġg gnucunused
Ġe coree
Ġcharmarkerintmarker charmarker
k w
Ġun expected
Ġse ctor
u cs
stream voidfunctionmarker
ers on
Ġqstring list
propecerenamespaceecereguiwindow get
Ġvoidfunctionmarkerrc voidfunctionmarker
structpointermarker name
Ġt srml
Ġcharfunctionmarker returncharfunctionmarker
description pointermarker
Ġs cal
code cpointermarker
adap t
Ġhd asserth
Ġgtktext iter
sc i
Ġshe etpointermarker
cl r
Ġfi len
Ġc ob
bon d
di ctionary
com pr
Ġgtktree viewpointermarker
Ġvoidfunctionmarkerc voidfunctionmarker
resol ver
pab stract
Ġsoup message
m pr
Ġg utf
Ġunity webapp
Ġg tassert
Ġvoid intfunctionmarker
log file
Ġz mod
stop ped
ti men
arg tpointermarker
comp at
q os
Ġl float
u a
Ġintfunctionmarkerd intfunctionmarker
tr ust
execut or
s parse
node t
ref lection
Ġdbusmessage iter
user pointermarker
Ġjo in
n est
Ġcp parserpointermarker
Ġgimple marker
Ġdoublemarker pointermarker
map tpointermarker
queue structpointermarker
Ġsv pointermarker
poly tmarker
Ġgkey filepointermarker
Ġvoidfunctionmarkerdb d
Ġintfunctionmarker create
set size
Ġt y
Ġhash table
void voidfunctionmarkervoidfunctionmarkervoidfunctionmarker
Ġr r
ext end
ere q
sen trypointermarker
Ġcon str
Ġf old
Ġintfunction const
ker r
Ġp pointermarker
from file
Ġpk t
Ġgtkcell rendererpointermarker
Ġv im
un s
s om
up p
Ġx eventpointermarker
class intfunctionmarker
Ġma ch
rec no
lat ive
Ġwa ke
Ġhy brid
8 000
d ummy
st s
certificate pointermarker
ra ise
ma cr
ser ialize
Ġsp ell
l b
y voidfunctionmarker
int o
sl ider
string intfunctionmarker
sock addr
d voidfunctionmarker
open ssl
work structpointermarker
mc x
r adi
Ġptr errstructpointermarker
Ġe busy
Ġz val
n intfunctionpointermarker
br ush
Ġintfunctionmarkera intfunctionmarker
f lip
Ġgtk actionpointermarker
fra ction
edat atpointermarker
Ġnautil u
Ġvoidfunctioncmd pvoidfunctionpointermarkervoidfunctionmarker
button s
Ġc st
Ġe m
dir s
t up
Ġ fun
ix el
an v
Ġbo ok
provid erpointermarker
t iff
Ġc luster
cm od
te am
Ġbo ost
Ġext ent
Ġintfunction error
Ġg float
Ġstructpointermarker key
code editor
device s
gfx display
Ġvtkid type
list voidfunctionpointermarker
jo int
Ġf actor
intfunctionmarkerintfunctionmarker ointfunctionmarker
Ġl r
as ure
high light
Ġamd gpu
Ġdoublepointermarker doublepointermarker
7 3
xml se
Ġintmarker n
voidfunctionmarkervoidfunctionmarker e
Ġgretl matrixpointermarker
u errorcode
st ag
at s
ch g
Ġt wo
vi ou
og ram
g mt
pointermarker h
ser ies
Ġgtk builder
mexec ution
p intfunctionmarkerintfunctionmarker
re mot
Ġd av
sys buffered
amer a
Ġgdbus methodinvo
Ġr ds
Ġh a
e prom
g ate
Ġreturn false
co bj
function intfunctionpointermarker
Ġintfunctionmarker sintfunctionmarkerintfunctionmarker
Ġintfunctionmarkerqassertintfunctionmarkerintfunctionmarkerstaticmetaobjectintfunctionmarkerintfunctionmarkercast intfunctionmarkerintfunctionmarkerointfunctionmarker
printer pointermarker
x voidfunctionmarker
Ġbrasero track
en em
head voidfunctionmarker
Ġx n
call pointermarker
Ġvoidfunctionmarker key
Ġintfunctionerror intfunctionpointermarker
Ġup per
Ġadap ter
Ġb lob
Ġu u
argument s
lo pen
Ġd v
first child
Ġdevdbg structpointermarkerdev
pro x
cryp tion
Ġm anager
key board
digit s
Ġpth xpointermarker
Ġar io
pr ime
Ġpart icle
e scape
Ġintfunctionmarker compare
b ignum
marshal valuepeek
value intfunctionpointermarker
Ġw rap
min st
Ġpo six
Ġvoidfunctionmarkerif defvoidfunctionmarker
ver lay
instance voidfunctionmarker
Ġi rc
cmd structpointermarker
lin eno
Ġstructpointermarker error
Ġ0 4
start up
d py
Ġst di
num b
irc uit
o ok
printf intfunctionmarkerintfunctionmarker
phy s
w ant
er voidfunctionmarker
pointermarker charpointermarker
k lass
l erpointermarker
Ġq widgetpointermarker
low marker
pointermarkerrminpointermarkerrmaxpointermarkerrnatpointermarkerrminpointermarkerrmaxpointermarkerrnatpointermarkerrmax pointermarkerrminpointermarkerrmaxpointermarkerrnatpointermarkerrminpointermarkerrmaxpointermarkerrnatpointermarkerrnat
le ctor
window s
medi ate
map s
Ġser ial
sourc et
pointermarker size
handle voidfunctionmarker
cl utter
Ġper l
Ġst k
up load
Ġset bit
Ġintfunctionp intfunctionpointermarkerintfunctionmarker
Ġxmlsec error
c count
Ġt id
Ġw ay
c listpointermarker
g uint
Ġl w
bit sper
request ed
l cpy
mp ath
set marker
file path
countpointermarkerrcountpointermarkerr countpointermarkerrcountpointermarkerr
se cs
Ġun link
Ġif voidfunctionmarker
she ad
Ġe fi
ort ed
free git
Ġap ply
buffer voidfunctionmarker
etype pointermarker
y intfunctionmarker
end voidfunctionmarker
6 2
pool t
g if
r f
size structpointermarker
Ġe st
Ġ light
Ġa ff
Ġdw c
mp g
fig listpointermarker
Ġtsrml scc
Ġc graph
Ġmodule tablepointermarker
Ġqu adruple
Ġvoidfunctionmarker sizet
um bn
destruct or
po ffset
long pointermarker
Ġvoidfunctionmarkervoidfunctionmarkervoidfunctionmarker voidvoidfunctionmarkervoidfunctionmarkervoidfunctionmarker
Ġio mem
tool tip
quali fi
Ġfloatfunctionmarkerif floatfunctionmarker
si mul
ss id
x it
dat tribut
Ġu delay
map intmarker
vis it
Ġgdadat amode
verti ces
Ġvoidfunctionmarker paramvaluesvoidfunctionmarker
Ġgtk icon
ter mpointermarker
Ġ ol
Ġcon fi
Ġx malloc
e pointermarker
i ot
app le
chr on
Ġgnmex pr
widget marker
Ġmon og
fr o
event marker
Ġselect ed
Ġuni que
progra mappend
Ġsav ed
occur red
factory pointermarker
24 5
h f
Ġintfunction new
def er
bool pointermarker
Ġu art
Ġ ctl
ma get
Ġt ss
Ġstr buf
dup licate
Ġvoidfunctionmarkerorc programappend
li fy
Ġcol lection
Ġscr oll
Ġstructpointermarker reg
ca y
msg voidfunctionmarker
i ed
t of
get line
Ġpointercharfunctionmarker if
Ġgee concurrent
Ġcput obe
t ls
Ġqstring marker
pointermarkerrminpointermarkerrmaxpointermarkerrnatpointermarkerrminpointermarkerrmaxpointermarkerrnatpointermarkerrmin pointermarkerrminpointermarkerrmaxpointermarkerrnatpointermarkerrminpointermarkerrmaxpointermarkerrnatpointermarkerrmaxpointermarkerrminpointermarkerrmaxpointermarkerrnatpointermarkerrminpointermarkerrmaxpointermarkerrnatpointermarkerrnat
result s
k s
de compressptrmarker
Ġip v
Ġstrcpy charpointermarker
c get
error structpointermarker
Ġvoidfunction paramvaluesvoidfunctionpointermarker
io contextpointermarker
not ification
Ġg ot
de g
thread pointermarker
po bj
r gba
Ġvoidfunction pvoidfunctionpointermarkervoidfunctionmarker
Ġcair os
Ġix gbe
dat alist
file list
Ġgener ate
Ġg destroynotify
de t
scrol led
Ġif m
sub type
Ġf ast
0 6
Ġan y
f fi
l c
Ġi st
ph i
Ġis last
Ġsp an
white space
oc ument
x dr
Ġlib cerrorerror
Ġstructpointermarker index
Ġs core
Ġde script
Ġm ix
Ġk c
session tpointermarker
Ġxlatortpointermarker name
r chr
Ġvolatile pointermarker
pe ar
val voidfunctionmarker
cp p
f event
Ġad just
Ġghashtable insert
structpointermarker list
og gle
block tpointermarker
process ing
Ġge any
Ġgtktreeview columnpointermarker
Ġg uid
Ġn ul
d word
ew r
sv pointermarker
Ġcom mit
Ġn x
ree pointermarker
9 1
g la
er ect
Ġst or
sa ver
Ġex tra
updat ed
tpointermarker name
Ġpop pler
a che
n ump
u im
Ġf lo
tr ig
Ġalph a
road cast
r oup
iter voidfunctionmarker
renc y
5 4
Ġcomp ar
ch i
attr pointervoidfunctionmarker
ange pointermarker
Ġvoidfunctionmarker node
Ġvoidfunctionmarkerg marshalvaluepeek
row se
fix up
di rent
Ġar m
ewid get
Ġexo iconview
Ġg a
ip hy
ima gedata
Ġstructpointermarker cmd
intmarker pointermarker
wra pp
std stringmarker
wh at
Ġsu c
Ġdwar f
sp h
Ġpo lk
me ch
Ġgconst pointer
fl at
Ġaud it
Ġlo ok
Ġpolk it
int egr
re spon
it able
Ġvoidfunction b
ag raph
adv ance
6 1
Ġcharpointermarker charpointermarker
is b
dir intfunctionmarker
sr v
Ġgassert cmp
gad con
st y
Ġs x
mail box
item intfunctionmarker
mpar am
v box
Ġc ategory
Ġintfunctionmarker not
sub dev
Ġ entrypointermarker
init voidfunctionmarker
main window
Ġre d
Ġdat asetpointermarker
Ġintfunction fn
db m
Ġacpi parse
al c
db yte
Ġintfunctionconst intfunctionpointermarker
16 0
object tpointermarker
Ġw reg
Ġobject typepointermarker
pixel s
js contextpointermarker
cred ential
Ġchamp lain
Ġtr an
Ġvirt ual
le ader
Ġa gg
Ġpo licy
Ġsoup messagepointermarker
Ġbox es
Ġc ustom
Ġstructpointermarker stat
request recpointermarker
register ed
but t
Ġmachine instr
str cat
byte structpointermarker
Ġstructpointermarker q
Ġr sp
Ġintmarker d
f ss
en u
ent s
Ġglist next
o voidfunctionmarker
Ġg re
ff rag
Ġx ot
met r
Ġreg map
op timi
priv tpointermarker
valu elist
Ġplay list
rece ived
Ġbasicblock marker
incip al
o lo
Ġintfunctionmarker auth
ma ss
pointermarkerr oot
Ġcb f
Ġintfunctionmarker set
Ġr ound
out going
mexecution statusmarker
int illa
Ġintfunction funcintfunctionpointermarker
Ġvoidfunctionmarkervoidfunctionmarkervoidfunctionmarker voidfunctionmarkervoidfunctionmarkervoidfunctionmarkervoidfunctionmarker
Ġevas coord
de sign
vtbl intfunctionmarkerintfunctionmarkerecere
mt op
per l
Ġintfunctionmarkerecere pointer
spac ing
Ġv c
Ġfunc enter
pa ger
Ġintfunction user
Ġif constmarker
voidfunctionpointermarkervoidfunctionmarker structvoidfunctionmarker
r sa
s with
load erpointermarker
Ġquery pointermarker
add structpointermarker
pointermarker c
32 3
p ressed
s leep
line intfunctionmarker
fil t
Ġobject marker
view pointermarkerpriv
Ġgraph ic
Ġre gs
ex act
redis clientpointermarker
loc ker
pt re
frame work
Ġat s
Ġim port
ere gi
y es
ct able
Ġmo unt
get field
Ġr anget
mt p
cell s
reach able
Ġmono class
Ġheap tuple
d ereference
in use
Ġvoidfunctionmarker type
get node
oup per
str oke
su ite
key intfunctionpointermarker
sizeof structpointermarker
d k
32 0
se cre
u ge
activ ity
orig inal
ar man
def s
base voidfunctionmarker
debug ger
work space
Ġintfunctionmarker close
ad b
Ġe again
Ġop ret
Ġg est
Ġe k
rackersr clib
rackersrclib tracker
c ant
r hs
x b
Ġlp fc
io s
r w
Ġs asl
Ġt xt
d v
Ġif aj
msg pointermarker
Ġb order
return intfunctionmarkerintfunctionmarker
label pointermarker
memory tpointermarker
Ġsk k
Ġtimet marker
Ġr ts
Ġnd mp
Ġsens or
Ġ owner
log warning
fr iend
Ġqu ot
Ġintmarkerarray intmarker
Ġl f
code s
path voidfunctionmarker
Ġ alignment
Ġa sser
col lision
Ġget env
Ġpy incref
Ġme sa
or th
list next
file open
pointercharpointermarker intmarker
Ġintfunctionmarkercmp intfunctionmarker
Ġt k
sl urm
vo t
one intfunctionmarker
vertex pointermarker
Ġg dict
Ġpix map
trun cate
Ġp rec
Ġp ur
s data
err ow
Ġchain listpointermarker
w ig
Ġcom ment
bdd node
ke le
Ġth i
pack ed
params voidfunctionmarkervoidfunctionmarker
Ġcan vas
t ob
ew indow
put c
poly nomial
Ġpass word
arena poolpointermarker
set name
eren c
Ġhost wide
strea mp
Ġi pp
Ġj k
5 2
Ġ uri
par e
info s
ati ble
string list
Ġvoidfunction param
item voidfunctionmarker
Ġan aly
codec contextpointermarker
Ġgoocanvas item
Ġl ld
Ġvoidfunction e
job id
bal ance
ext ure
pos sible
Ġfs rtp
Ġstructpointermarker g
Ġs int
fre edata
gam ma
eregi str
re vision
re peat
Ġf etch
Ġscm marker
velo pe
umbn ail
le arn
Ġmod ify
intfunctionmarkerintfunctionmarker sizeintfunctionmarker
p fn
ct o
ref marker
def uset
an imat
out ine
ms uccess
Ġy es
unref voidfunctionmarker
y nc
Ġu d
Ġstructpointermarker dma
Ġfd set
l st
Ġintfunctionmarker z
Ġchar set
writ able
un ning
get num
def n
Ġed je
sens itiv
Ġl h
Ġen sp
pla c
parms pointermarker
Ġrpcsv crequest
Ġ answer
dev voidfunctionmarker
Ġcharfunctionmarker char
Ġld ns
Ġb ail
oth read
Ġll vm
Ġs in
Ġe freet
sc or
ql ite
si con
Ġb iff
Ġgslistpointermarker next
Ġconfig uration
mat rosk
entry voidfunctionmarker
pop en
Ġinit ial
ner infopointermarker
play erpointermarker
Ġfprint fout
Ġreg exp
un supported
level s
Ġsizeof int
input pointermarker
mg mt
Ġintfunctionmarkerp intfunctionmarkerintfunctionmarker
4 00
Ġg lob
structpointermarker n
op ath
Ġw pls
ret value
Ġar c
Ġmon otype
Ġt un
g pointer
Ġm ime
ptr intfunctionmarkerintfunctionmarker
Ġexec ute
Ġeb orderpointermarker
last error
irq structpointermarker
Ġuint pointermarker
get id
Ġpy none
inode structpointermarker
ni env
set int
Ġgit oid
alph ab
Ġ siz
max imum
prim itive
Ġd bl
ot i
method pointermarker
exp buffer
Ġintfunctionmarkerlist intfunctionmarker
Ġg fo
node intfunctionpointermarker
Ġwarn ing
irect fb
l id
x image
Ġvoidfunctionmarkerg intvoidfunctionmarker
Ġvoidfunctionmarker static
size intmarker
ch il
sv ec
clas ses
Ġwe ight
Ġm tr
Ġgst play
par sing
hdr tpointermarker
Ġ angle
po k
new with
d sp
Ġcon v
pa get
string stream
dev voidfunctionpointermarker
Ġpy unicode
ctx voidfunctionmarkervoidfunctionmarker
Ġregister marker
s lice
Ġvoidfunctionmarker last
i j
Ġstructpointermarker io
w c
ul ation
Ġma ster
d out
error tpointermarker
Ġmon itor
ere lease
Ġvoidfunctionmarker tmp
wh en
Ġpyx l
Ġvoidfunctionmarker sa
Ġm ol
res voidfunctionmarker
Ġj l
Ġsa a
Ġcor ba
inter fac
loc ity
Ġ5 12
de crypt
op lugin
md f
Ġan not
pk g
gwy data
tim ing
Ġintfunctionmarkertmp intfunctionmarker
Ġq modelindex
Ġintfunctionmarkerintfunctionmarker returnintfunctionmarkerintfunctionmarker
indi ces
k it
p voidfunctionmarkervoidfunctionmarker
structpointermarker intmarker
Ġa o
ms r
ret ty
a if
in el
Ġg in
fo ot
map per
input streampointermarker
Ġfprintf stdout
Ġmpfr rnd
Ġvoidfunctioncallback voidfunctionpointermarker
pre tty
iff y
Ġsd p
etime out
Ġvoidfunctionmarkerout voidfunctionmarker
time pointermarker
Ġudisk s
g intmarker
Ġintfunctionmarker idxintfunctionmarker
continue voidfunctionmarker
Ġvoidfunctioncc voidfunctionpointermarker
ed ir
Ġfft w
Ġstructpointermarker host
Ġl arge
test s
v if
in ator
Ġmemcpy charpointermarker
mux pointermarker
Ġwhile intmarker
hy per
sequ enc
Ġvoidfunctionmarker statusvoidfunctionmarker
tr im
Ġpointercharfunctionmarker class
re presentation
Ġvoidfunctionmarker mail
Ġt pa
er te
string tpointermarker
cl on
ba si
template pointermarker
et ask
ce v
we apon
zone pointermarker
error msg
gtk text
Ġg ive
Ġstructpointermarker st
sp lot
ant ic
Ġvoidfunctionmarkerstatic voidfunctionmarker
c ss
o intfunctionpointermarker
Ġe fm
rece ive
value get
init y
Ġbr anch
i map
Ġm db
is set
lob j
feature pointermarker
w all
pr ng
Ġstructvariable tvsec
4 7
intpointermarker intmarker
trie ve
obj voidfunctionpointermarker
ph one
lex pr
voidfunctionmarkervoidfunctionmarker gtk
cr m
sintfunctionmarker intfunction
pref erences
Ġxmlnode ptrmarker
f use
Ġ lower
lock s
Ġv ex
Ġvoidfunction t
Ġgap story
Ġq variant
per mission
is uccess
flo or
Ġgtktext bufferpointermarker
voidfunctionmarkervoidfunctionmarker get
Ġgdouble marker
Ġpang ofont
function s
Ġq ib
writ el
class voidfunctionmarker
pointervoidfunctionmarkerpointervoidfunctionmarker a
volume pointermarker
m nt
t b
Ġvoidfunctionmarkersizeofvoidfunctionmarkervoidfunctionmarker structvoidfunctionmarkermarker
c db
Ġtrans port
c map
n y
Ġgtk style
Ġj pc
Ġvstop registerpointermarker
Ġg oc
Ġstructpointermarker driver
Ġop errno
Ġintfunctionmarkerintfunctionmarkerint intfunctionmarkerintfunctionmarker
Ġif d
mo s
Ġpart ition
u map
Ġvoidfunctionmarker obj
unlock structpointermarker
ce p
app let
te ch
view port
Ġprintf s
Ġstructpointermarker y
sem nodepointermarker
Ġgdkevent keypointermarker
Ġfor ward
lement s
mo ver
ime out
Ġvoidfunctionmarker q
Ġaj int
w iz
in coming
type id
Ġan im
Ġnew size
Ġcomp ute
Ġintfunctionmarker failedintfunctionmarker
ff ont
voidfunctionmarkervoidfunctionmarker sa
op tpointermarker
Ġq bytearray
void intfunctionmarkerintfunctionmarker
Ġh el
le mpointermarker
log info
Ġast channel
Ġprintkkern err
g fi
Ġvoidfunction node
proc ed
b ag
m time
Ġsh ape
Ġvoidfunctionmarkervoidfunctionmarkervoidfunctionmarker omit
endif voidfunctionmarkervoidfunctionmarkervoidfunctionmarker
Ġereport error
Ġc mt
dex t
Ġg es
free v
bug on
Ġen gine
f u
item voidfunctionpointermarker
Ġsh ip
Ġattribute unused
Ġdevdbg structpointermarker
p wr
Ġ editor
er el
Ġdi gest
Ġtclo bj
camer ab
m list
chain pointermarker
t wo
de coderpointermarker
Ġb and
Ġintfunction m
Ġvoidfunction buf
vs base
w al
Ġg lf
al ity
5 00
Ġreg pointermarker
get attr
max size
spa cket
cmd intfunctionmarker
Ġintfunctionmarker argintfunctionmarker
ti o
Ġintfunctionmarkerb intfunctionmarker
Ġvoidfunctionmarker continuevoidfunctionmarker
Ġintfunctionmarkerint intfunctionmarkerintfunctionaintfunctionpointermarkerintfunctionmarker
Ġf low
Ġpl pgsql
Ġc nil
Ġf mpz
parameter spointermarker
Ġ1 8
us ing
Ġj sv
mar g
oc fs
enc seq
Ġel if
sto res
Ġtrans fer
Ġre lopt
Ġvoidfunction l
ctx intfunctionmarker
Ġvoidfunctionmarkervoidfunctionmarkervoidfunctionmarker if
intfunctionmarkerintfunctionmarker dataintfunctionmarker
pass wd
Ġkey word
head pointermarker
Ġp cm
Ġintfunction func
boolean marker
et her
flags intfunctionmarkermarker
u read
Ġgit buf
a con
vo k
Ġcur le
Ġwindow pointermarker
re covery
Ġre main
Ġm ouse
are ad
att le
inter sect
Ġconstmarker constmarker
mask intfunctionmarker
input stream
Ġvoidfunctionmarkerva argvoidfunctionmarker
intfunctionmarkerintfunctionmarker listintfunctionmarker
eg erpointermarker
Ġintfunctionmarkerbase intfunctionmarkermarker
un wind
Ġj iffy
ct mp
pr io
tpointermarker type
dis c
agg reg
x fs
Ġlog ger
exit failure
Ġgtktreeview column
u len
ow indow
ali ase
grid pointermarker
strcase cmp
er oot
Ġvoidfunctionmarker instancevoidfunctionmarker
pro cs
Ġpointervoidfunctionmarker a
s mp
Ġext ernal
reco gn
Ġstructpointermarker ops
ad get
Ġgtk windowpointermarker
Ġpo r
trans lation
Ġerrcode errcode
Ġe intr
msg intfunctionmarker
m ut
ou ve
Ġintfunction v
Ġseq printfstructpointermarker
Ġvoidfunctionmarkerorcprogram set
Ġmem move
ial o
ie ce
3 9
w xt
get arg
Ġstr ipe
Ġk free
fn voidfunctionmarker
array size
Ġcharmarkerarray max
sin addr
Ġsockaddr in
at iv
Ġstructpointermarker buffer
set default
fla c
s oft
w ild
Ġpys sizet
in um
el f
Ġx x
ass oc
Ġspinunlock structpointermarker
sp y
open ed
client tpointermarker
atr ue
com posit
pixel pointermarkerpointermarker
a si
j v
sp l
Ġsp if
Ġover flow
4 6
intfunctionmarkerintfunctionmarker q
Ġ entity
Ġgtk adjustment
p md
Ġgst requal
index es
Ġvoidfunctionmarkervoidfunctionmarkervoidfunctionmarker endifvoidfunctionmarkervoidfunctionmarkervoidfunctionmarker
co ffset
ou bl
Ġr adius
process pointermarker
Ġgx devicepointermarker
Ġgt str
include marker
Ġt n
ob utton
Ġw atch
pl id
Ġcol lect
Ġvoidfunctionmarkergcclosureswap datavoidfunctionmarker
par g
fil eread
Ġgtype string
Ġvoidfunctionmarkere voidfunctionmarker
Ġen s
row intfunctionmarker
og le
tr ap
Ġgtk builderpointermarker
pointermarker u
Ġx d
Ġx en
win w
Ġdrm device
po pt
un def
entry voidfunctionpointermarker
arg pointervoidfunctionmarker
ro om
mag ick
pro mp
ac ct
scr atch
pl ine
ale t
Ġut sint
Ġvm w
alle l
Ġc list
Ġstructpointermarker ip
Ġstructpointermarker privatedata
tr u
Ġi ra
floatfunctionmarkerfloatfunctionmarker marker
command s
Ġintfunctionmarkerret intfunctionmarkermarker
vis u
ra cket
buf intmarker
server recpointermarker
sys file
Ġintfunctionmarker entry
ent ype
kele ton
bl it
Ġgobject classpointermarker
te vent
ert able
cel ist
good voidfunctionmarkervoidfunctionmarkervoidfunctionmarker
ce vent
Ġx p
property id
ad m
il ine
sn ull
br ight
fl g
capab ilities
if orm
ok intfunctionmarker
init void
warn structpointermarker
Ġal ter
sha ke
Ġintfunctionmarkernot intfunctionmarker
Ġ ent
Ġ kernel
cp us
contin u
agn ost
Ġb tree
warn invalid
i voidfunctionmarkervoidfunctionmarker
Ġintfunctionmarker mpi
intfunctionmarkerintfunctionmarker sizeof
Ġpointer lib
Ġi pc
Ġvoidfunction proc
Ġin v
ip h
line voidfunctionmarker
Ġ area
od b
Ġc dl
el ib
Ġb ottom
Ġintfunctionmarker fd
connection s
Ġnumber of
Ġxmm sc
str ow
Ġd return
Ġ turn
ss p
confi gs
assembl y
Ġgst log
as f
so ffset
Ġev t
Ġhid tmarker
Ġvoidfunctionmarker from
conta ctpointermarker
Ġintfunctionmarkerecerenamespaceecere com
ai lout
aw ar
Ġactiv ate
s charpointermarker
on eg
Ġq r
Ġvoidfunctionmarkerg o
do melement
pip eline
Ġfor k
mi i
Ġlo fft
3 00
u sp
Ġintfunctionmarker exchange
gu ard
o un
ma ch
strate gy
Ġintfunctionmarker find
Ġintfunctionmarker precision
Ġintfunctionmarker mod
Ġd en
Ġecal backend
on ith
Ġre store
Ġstructpointermarker length
map h
device intfunctionmarker
Ġor g
bad voidfunctionmarkervoidfunctionmarkervoidfunctionmarker
Ġajstr del
write int
Ġdr v
Ġorig inal
Ġc dr
Ġc ity
ra cl
log ging
link ed
construct or
it k
Ġp lease
lay ers
block ing
Ġvoidfunctionmarkerg valuepeek
Ġcamelf old
ss c
signature pointermarker
vtblintfunctionmarkerintfunctionmarkerecere vmethodidecerenamespaceecere
p data
Ġi map
tmarker uint
Ġvoidfunctionmarkerifvoidfunctionmarker voidfunction
user s
1 10
dat tr
Ġche ss
b undle
lat ency
Ġdoublemarker doublemarker
Ġvoidfunctionmarker sizevoidfunctionmarker
iv idual
Ġvoidfunction r
stat edatatpointermarker
not ice
Ġstr ip
spointermarker priv
cn il
d bu
Ġq object
min imum
ct est
dr m
Ġz xid
guicontrols drop
storage pointermarker
if loatfunctionmarker
th y
path name
dev voidfunctionmarkervoidfunctionmarker
Ġisl keeppointermarker
ad c
union map
Ġintfunctionmarker key
ra sh
voidfunctionmarkervoidfunctionmarker b
enc contextpointermarker
Ġms leep
Ġpthread mutexunlock
pse udo
fa i
Ġse ct
Ġc enter
Ġintfunctionmarker quirk
Ġintfunctionmarker node
Ġre strict
an ded
Ġf cd
Ġh and
pobject pointermarker
clo sing
ifi ex
Ġ keep
la x
port al
Ġap get
Ġfc char
Ġd on
li f
t int
Ġintfunctionmarker cur
camer a
get key
as sist
mem b
window marker
ab solute
Ġfa iled
Ġc ss
Ġhash tablepointermarker
c u
Ġgretl matrix
Ġde scription
to ul
s un
entry t
Ġcpl property
Ġblk id
Ġv f
Ġz ip
select orpointermarker
p mp
set data
ver age
log out
read ing
Ġq point
fa de
fix num
Ġet h
Ġg uni
info intfunctionpointermarker
Ġal t
parser tpointermarker
parset uple
w av
string buffertpointermarker
Ġpy type
Ġdig it
el in
pm gr
arg parsetuple
in direct
Ġh int
su ser
Ġis o
p ull
Ġb am
and ard
ss can
sp lay
Ġco st
Ġclass erte
Ġintfunctionmarker read
variable s
option pointermarker
m imetype
v type
ct ld
Ġgeetree map
le f
Ġintfunctionmarker iscsi
ed structpointermarker
Ġh it
dis card
bar pointermarker
std vector
y stem
is a
list new
Ġq latin
il ing
type intfunctionmarkermarker
min intfunctionmarker
trans mit
activ egtk
z lib
Ġif str
Ġtr un
Ġxml rpc
w char
ew ork
res id
lu et
Ġcond ition
de lim
Ġgit g
Ġgit index
il y
y cle
geometry pointermarker
Ġfro gr
2 9
in progress
Ġv pi
Ġz valpointermarker
sw ig
h m
addr tpointermarker
on line
mat pointermarker
Ġj big
Ġmachine instrpointermarker
id is
Ġcomp ile
v voidfunctionmarkervoidfunctionmarker
sc md
file voidfunctionmarker
Ġxmlnode ptr
Ġgstbase transform
d cm
Ġ kern
io tpointermarker
acces sible
Ġdr mi
Ġpop up
Ġintfunctionmarkerein valintfunctionmarker
s voidfunctionpointermarkervoidfunctionmarker
context intfunctionmarker
mon itorpointermarker
oo tpointermarker
multi ple
hint s
alet te
par en
cl nt
Ġsf tk
re et
Ġc las
fr ng
men um
Ġswitch intmarker
typ enode
Ġoper ationpointermarker
Ġf write
con ce
Ġintfunction compare
Ġconn ector
com pose
do g
Ġn ump
th umb
Ġpy dict
sample pointermarker
k d
comp atible
addr structpointermarker
cond voidfunctionmarker
ap ic
Ġpre dicate
k p
at in
Ġsizeof uint
Ġstructpointermarker current
gtk entry
ndef voidfunctionmarkervoidfunctionmarkervoidfunctionmarker
Ġg constpointermarker
cs m
content type
vi sibility
Ġase ctionpointermarker
d ag
pointer pointermarker
pa wn
Ġerror code
Ġpack age
Ġf read
quest ion
sup p
Ġput char
Ġhid t
le vent
op j
Ġgtk stock
v ma
pa getpointermarker
Ġco ok
max intfunctionmarker
Ġinit ializ
luet oot
Ġstructpointermarker priv
me chan
format contextpointermarker
the env
Ġg z
set color
intfunctionmarkerintfunctionmarker nameintfunctionmarker
Ġfli ck
dis cover
sol id
Ġspinunlockirqrestore structpointermarkerlock
base name
fn voidfunctionpointermarker
Ġe lem
ir ror
to voidfunctionmarker
port tpointermarker
Ġnss ck
r adio
Ġgst querypointermarker
domain pointermarker
Ġax is
u art
it ge
ph dr
Ġen coding
Ġsd value
resource s
Ġvs base
snap shot
Ġg floatpointermarker
ir cle
Ġsup ported
Ġg id
Ġc w
Ġin ner
Ġl nk
view get
8 99
on tpointermarker
Ġr nd
idx voidfunctionmarker
Ġscm error
uc ed
member s
v ic
lex t
Ġl ual
Ġtim enull
Ġdescript or
a head
voidfunctionmarkervoidfunctionmarker sig
Ġbu g
lig h
Ġom uint
itge ist
Ġg quark
prop ag
Ġstructpointermarkern r
Ġg malloc
ctrl pointermarker
Ġvoidfunctionmarker ex
intfunctionmarkerintfunctionmarker t
bytes voidfunctionmarkermarker
acp i
x lx
Ġvoidfunctionmarker this
ma ind
ac quire
can v
method s
Ġfolk s
Ġl anguage
Ġgtk adjustmentpointermarker
spa ge
bus b
Ġeconfig dialogdatapointermarker
Ġr ank
Ġif null
syn th
a intfunctionmarker
u f
char ge
Ġvoidfunctionmarker cb
Ġl get
sp ending
Ġgobject warninvalid
Ġpr inter
Ġdata set
ld n
chunk tpointermarker
edi rect
ss ocket
Ġvoid functionpointermarker
Ġhd assert
specifi c
device id
8 9
p ht
Ġstd cerr
Ġaj true
Ġgest ime
Ġgobjectwarninvalid propertyid
addr voidfunctionmarker
Ġpar m
gui pointermarker
Ġf inal
con sistent
ali br
cmet adata
d q
n m
Ġintfunctionmarker fdintfunctionmarker
ist ate
gdk pixbuf
r ad
mode s
Ġgs d
in i
get error
i eld
Ġ functionpointermarker
of day
Ġs lice
mem pool
Ġmo difi
gn odepointermarker
Ġe i
Ġpyerr setstring
k hw
table voidfunctionmarker
window pointermarkerpriv
send er
Ġbuild er
po logy
Ġh v
dex pr
rec voidfunctionmarker
Ġmax imum
source s
Ġact ual
Ġstructpointermarker prev
Ġvoidfunctionmarker v
sync structpointermarker
Ġgw db
tpointermarker data
Ġsizeof char
parent intfunctionmarker
Ġfsogs m
d link
std in
Ġover lay
edr iv
g retl
f at
msg t
re ject
pr of
Ġm any
selection pointermarker
Ġav ail
wait for
Ġgn ctree
ph rase
Ġval a
Ġmono imagepointermarker
Ġcre at
gfarm msg
Ġd df
Ġe og
lock tpointermarker
file intfunctionpointermarker
callback voidfunctionmarkervoidfunctionmarker
gf m
Ġintfunctionmarkerlib cerror
Ġgene sys
Ġstructpointermarker de
Ġ1 000000
Ġde flate
Ġintfunctionmarkerfl xintfunctionmarkerintfunctionmarker
Ġm current
Ġe contact
graph pointermarker
Ġtenm objectpointermarker
Ġchar charpointermarker
intfunctionmarkerintfunctionmarker x
Ġdb pointermarker
atom s
Ġtarget register
defuset able
Ġpix get
full name
Ġapp lication
cor rect
Ġwork book
Ġunity internal
d marker
Ġun supported
Ġaw window
tcl interppointermarker
lo d
sb y
Ġgtkcell renderer
id i
atter y
Ġintfunctionmarker posintfunctionmarker
str voidfunctionmarker
reg pointermarker
Ġca ch
charfunctionpointermarker charfunctionmarker
info voidfunctionmarkervoidfunctionmarker
Ġin c
Ġtot em
Ġvoidfunctionmarkerhton l
al s
Ġstructpointermarker first
Ġinf adopted
spr ite
debu gs
Ġintfunction b
Ġk debug
Ġnum eric
Ġp b
rec ip
typ etpointermarker
packet s
Ġw char
no mem
Ġn y
Ġe widget
py thon
bi as
Ġe s
am ount
Ġch uck
Ġvx ge
ict ure
Ġvoidfunctionmarker objectvoidfunctionmarker
Ġ1 0000
string share
Ġdd nodepointermarker
ex pose
object id
ab b
main int
Ġfi idobj
Ġquadruple pointermarker
Ġd ag
ti ble
in dicator
alo ck
Ġcla ssert
r at
Ġc charpointermarker
n try
Ġstr tok
r id
ss m
sh ortpointermarker
Ġtr igger
Ġlist iterator
Ġdown load
or goto
Ġintfunctionmarker run
pro ct
stat spointermarker
pa g
Ġcla mp
Ġvoidfunctionmarkerg objectvoidfunctionmarker
cl ine
output streampointermarker
Ġgtkbox packstart
Ġre cur
Ġintfunctionc intfunctionpointermarker
t tpointermarker
Ġs mp
ele ms
Ġgstr concat
Ġintfunctionmarker cb
Ġlist cellpointermarker
simple pointermarker
h box
ma int
first voidfunctionmarker
av g
Ġacpiparse objectpointermarker
en ormal
Ġp lace
object voidfunctionpointermarker
Ġgtk spinbutton
ac ity
pointermarker value
Ġvoidfunctionmarker statevoidfunctionmarkervoidfunctionmarker
Ġvoidfunction i
buffer structpointermarker
gen e
label s
Ġvoidfunctionmarkervoidfunctionmarkervoidfunctionmarkerif ndefvoidfunctionmarkervoidfunctionmarkervoidfunctionmarker
it ical
la int
Ġif p
Ġstring list
Ġdict t
bit rate
bitsintfunctionmarker signed
phy sical
g res
p lo
intfunctionmarkerintfunctionmarker offsetintfunctionmarkerintfunctionmarker
am l
sr q
wh ere
analy sis
Ġpk g
Ġlistadd tail
str cpy
Ġre fresh
loglog err
mode structpointermarker
Ġintfunctionmarker table
Ġre ason
sh r
Ġk vm
ee prom
Ġpri ority
5 7
Ġstructpointermarker config
Ġx y
Ġcharmarker charmarkerarray
Ġsec success
Ġc lean
Ġstructpointermarker val
Ġbuff erpointermarker
rup t
Ġiscr success
int intfunctionmarkermarker
et est
tree itempointermarker
ome di
ue ss
Ġl on
im ate
luetoot h
inter action
ul se
pr incipal
Ġgf tp
Ġq text
Ġserver recpointermarker
Ġgele treepointermarker
Ġvoidfunctionmarker resultvoidfunctionmarker
Ġf rag
Ġr sa
mod al
Ġmca base
Ġin odetpointermarker
Ġg typemarker
Ġe el
Ġl iteral
comp act
ar ent
cp lugin
Ġgcry mp
Ġintfunctionmarker reg
bu il
Ġpointer xmlcharpointermarker
app en
mark ed
bucket s
runtime error
Ġ lab
Ġt charpointermarker
Ġde pend
z y
Ġtr x
wr ong
load ing
Ġpre vious
Ġflac stream
st yp
Ġstructpointermarker parent
intfunctionmarkerintfunctionmarker c
Ġh x
Ġsnd pc
Ġnr rd
Ġgst format
Ġdim ension
list view
col on
mode intfunctionmarker
Ġvoidfunctionmarkervoidfunctionmarkervoidfunctionmarker calling
Ġvoidfunctionmarkervoidfunctionmarkervoidfunctionmarkercalling voidfunctionmarkervoidfunctionmarkervoidfunctionmarkermarker
error voidfunctionmarkervoidfunctionmarker
Ġgst query
voidfunctionpointermarkervoidfunctionmarker datavoidfunctionmarker
status pointermarker
int set
Ġs id
com bin
Ġvoidfunctionmarker bool
sc lose
db r
Ġgstr freev
tr x
Ġgo od
Ġ8 0
operand s
o ob
t tp
Ġintfunctionmarker name
pos itive
ci es
Ġdat atype
Ġflm uint
Ġd uration
Ġcl nt
li ver
Ġcu dd
4 76
Ġaj uint
i id
p gen
Ġe g
ere set
qu is
ci ent
l ated
Ġg option
Ġre v
im od
Ġecere pointerecerenamespaceecere
st size
Ġp retty
start structpointermarker
Ġat tempt
Ġscope pointermarker
p adding
int int
Ġp am
Ġintfunctionmarkert db
Ġintfunctionmarker mcx
Ġvoidfunctionmarker chainup
double pointermarkerintmarker
Ġcon version
Ġlist emptystructpointermarker
Ġcairos urfac
Ġsuc ceed
Ġ1 7
Ġl un
Ġgtk button
Ġintfunctionmarkerlibcerrorerror domain
un ity
activ ated
Ġspe cial
Ġgfi som
ighb or
Ġvoidfunctionmarkerswitch voidfunctionmarker
Ġintfunctionmarker lengthintfunctionmarker
an on
Ġp atch
men ush
Ġnm ip
cla mp
Ġsnd r
Ġenum pointermarker
Ġf ace
pa per
code pointermarker
pointervoidfunctionmarkerpointervoidfunctionmarker ap
Ġext ern
Ġn est
Ġvoidfunction state
Ġen vpointermarker
or te
Ġa a
Ġintfunction argintfunctionpointermarker
Ġr pt
par a
Ġma jor
Ġge ometry
Ġgstobject unref
g errorpointermarker
block ed
Ġ6 55
sock opt
qlahost tpointermarker
n x
Ġ2 2
red u
coun try
p list
Ġvoidfunctionmarker output
Ġk v
callback s
Ġvis u
albu m
iv erpointermarker
Ġr outer
Ġj decompressptrmarker
update bitsstructpointermarker
intfunctionmarkerintfunctionmarker typeintfunctionmarker
Ġvoidfunctionmarkergvaluepeek pointervoidfunctionmarker
d ra
Ġg cc
Ġobj cmdr
struct pmarker
Ġgst ogg
stack size
gnut l
intfunctionmarkerintfunctionmarker bufintfunctionmarker
ip eline
Ġecerenamespaceecere come
way s
g objectpointermarker
m h
Ġse cpkcs
Ġg uest
ms n
change s
Ġgtk plot
col lab
re m
Ġj int
ot g
start time
mb x
Ġorig in
Ġarch iv
ar eg
Ġstructpointermarker link
return pointercharfunctionmarker
Ġelm gen
o ve
sh ost
ac all
cal led
xm le
Ġw am
Ġma cro
Ġstaticcast int
Ġinclude marker
maph ore
Ġso urc
infot ype
s qu
Ġg li
Ġr gba
com position
6 3
pa uth
Ġgst fl
Ġmay be
Ġf set
label voidfunctionmarker
sym tab
Ġintfunctionmarker page
si lon
Ġlo ser
manager get
Ġunicode string
Ġcamelf older
Ġgst type
pointer gcharpointermarker
Ġreturn true
Ġpointervoidfunctionmarker p
Ġz e
Ġcy g
tpointermarker i
Ġv id
cb rowser
board pointermarker
un et
Ġp ull
su c
Ġvi sible
writ et
Ġintfunctionmarkerec ereclass
Ġdh cp
vo r
signal connect
command linemarker
packet marker
gtktree model
t outf
Ġc up
length voidfunctionmarker
Ġerror handlerpointermarker
interrup tible
Ġvoidfunction tmp
o stream
el la
scap ed
Ġc xx
Ġeina false
r adius
ob ot
ms b
ers up
detail spointermarker
anag erpointermarker
Ġintfunctionmarkerfloat intfunctionmarkermarker
on ame
new line
Ġstor age
st l
list end
Ġv g
Ġf sp
Ġglobus l
fac et
a intpointermarker
get path
Ġl c
Ġnm connectionpointermarker
Ġintfunctionmarker value
Ġen c
Ġsizeof pointermarker
n uma
Ġre sourc
get widget
hdr pointermarker
jav a
e bad
ma v
tpointermarker m
Ġv nc
Ġbtr f
Ġggob idatapointermarker
Ġs gen
Ġx strdup
header size
Ġloff tpointermarker
Ġvis it
h dl
ma i
Ġw ire
vent ory
ush ort
verr ide
Ġac countpointermarker
Ġgth image
Ġgsignal handlers
array tpointermarker
Ġvoidfunctionmarkerg returniffail
step s
get item
data voidfunctionvoidfunctionvoidfunctionpointermarker
Ġx ap
ta in
Ġpy argparsetuple
by id
ma ger
scur rent
err t
val t
type p
Ġab ra
k c
che mtop
Ġmachine basicblockpointermarker
Ġul int
Ġg mount
an ode
ing er
Ġr m
addr pointermarker
inst pointermarkerget
Ġsd lsurfacepointermarker
Ġir r
x lator
str tpointermarker
Ġe gadcon
ah or
con e
ell pointermarker
c ity
Ġb s
pe vent
th unk
def intfunctionmarker
hash entrypointermarker
attributes pointermarker
Ġq objectpointermarker
Ġis d
view privatepointermarker
Ġvtk poly
ch andle
di g
Ġgpointer pointermarker
Ġf name
no intfunctionmarker
z i
Ġintfunctionmarker errno
Ġstr tol
pac count
collab or
u dy
Ġg dir
th ash
Ġo gg
Ġgnm valuepointermarker
pointermarkerrminpointermarkerrmaxpointermarkerrnatpointermarkerrminpointermarkerrmaxpointermarkerrnatpointermarkerrminpointermarkerrminpointermarkerrmaxpointermarkerrnatpointermarkerrminpointermarkerrmaxpointermarkerrnatpointermarkerrmaxpointermarkerrminpointermarkerrmaxpointermarkerrnatpointermarkerrminpointermarkerrmaxpointermarkerrnatpointermarkerrnat pointermarkerrminpointermarkerrmaxpointermarkerrnatpointermarkerrminpointermarkerrmaxpointermarkerrnatpointermarkerrminpointermarkerrminpointermarkerrmaxpointermarkerrnatpointermarkerrminpointermarkerrmaxpointermarkerrnatpointermarkerrmaxpointermarkerrminpointermarkerrmaxpointermarkerrnatpointermarkerrminpointermarkerrmaxpointermarkerrnatpointermarkerrnat
re loc
intfunctionmarkerintfunctionmarker f
ff loat
Ġgslist free
Ġmain window
te lement
Ġin formation
Ġvtk informationpointermarker
h orizontal
re quire
err intfunctionmarker
Ġgen rtx
Ġcomple x
internal tpointermarker
af olk
symbol s
Ġn amespace
Ġv art
invalid ate
pay pointermarker
Ġgstring free
Ġvoidfunctionmarkerargs voidfunctionmarker
un ionpointermarker
list free
path s
fil er
Ġvoidfunctionmarkern bytesvoidfunctionmarkermarker
directory pointermarker
Ġ are
Ġint intfunctionmarker
Ġl z
Ġvoidfunctionvoidfunctionvoidfunction funcptr
quirk intfunctionmarker
data voidpointermarker
Ġco res
ak mp
list size
Ġpr debug
bits intfunctionmarkermarker
Ġgnome canvas
i or
Ġg is
error t
gf p
i mplement
sh mem
amp ler
Ġgv f
attach ment
Ġcpp readerpointermarker
func voidfunctionmarkervoidfunctionmarker
list remove
packet tpointermarker
her it
Ġvoidfunctionmarker current
pro blem
byte sper
lin et
Ġloc ale
Ġmonodomain pointermarker
sy ste
Ġintfunctionmarkerqstring intfunctionmarkerintfunctionaintfunctionpointermarkerintfunctionmarker
me an
ss a
Ġch at
bt n
re pl
sc ertificate
buff ert
fn intfunctionmarker
toggle button
z en
len trypointermarker
cr op
av l
annot ation
Ġlong structpointermarker
s an
x en
tr ip
Ġa h
get selected
if ree
len structpointermarker
am ily
sp c
ere place
init intfunctionmarker
Ġintfunctionmarker const
key ring
neg ative
me lementpointermarker
Ġnt b
ct ag
le c
char charmarker
ex e
file infopointermarker
Ġstr rchr
bl ink
Ġmon ode
Ġproc namevoidfunctionmarker
intfunctionmarkerintfunctionmarker v
Ġh pd
Ġco lo
Ġout b
contact s
Ġcc ss
Ġnautilu scan
Ġmono reflection
b box
Ġn at
app data
Ġsla ve
in ux
Ġb lack
Ġr sv
func marker
Ġbo ot
cont entpointermarker
por th
Ġulong marker
d vb
co res
Ġmachine basicblock
Ġggob idpointermarker
Ġdht localtpointermarker
compos ite
f open
char pointercharfunctionmarker
al len
set state
pt mp
destroy voidfunctionmarker
pc idev
j l
v ex
Ġc od
Ġintfunctionmarker mem
ma pr
Ġr ole
Ġgst matrosk
bit stream
gen om
Ġaj fmt
Ġbit s
Ġlib spectrum
sm c
Ġse n
time ofday
class name
Ġd rag
is r
a sic
Ġintfunction s
Ġstr ncase
call er
x s
Ġb org
ff f
Ġk vp
Ġco s
probe struct
Ġapol vector
function voidfunctionpointermarker
Ġg pg
pos intfunctionpointermarker
ali b
Ġque u
po d
Ġintfunctionmarkerecereclassecerenamespaceecere sys
b k
ps z
Ġintfunctionmarker funcintfunctionmarker
ap ush
w ckey
un expected
al ready
Ġvoidfunctionmarker st
Ġvoidfunctionmarker new
intfunctionmarkerintfunctionmarker extensionintfunctionmarker
ff loatfunctionmarker
men ut
ecere pointerecerenamespaceecere
sm utex
Ġgfile test
re lative
string string
Ġcall stub
Ġglist prepend
Ġif strcmp
Ġil legal
array svoidfunctionmarkervoidfunctionmarker
mode marker
ptr intmarker
voidfunctionvoidfunctionpointermarker voidfunctionmarkervoidfunctionmarker
Ġvoidfunctionexvoidfunctionpointermarkervoidfunctionmarker arraysvoidfunctionmarkervoidfunctionmarker
Ġvoidfunctionexvoidfunctionpointermarkervoidfunctionmarkerarraysvoidfunctionmarkervoidfunctionmarker orc
pointermarker num
Ġa ux
Ġen ot
Ġapr success
87 23
mar gs
fin aliz
pop ulate
vp cm
Ġgtktreemodelget iter
Ġwake up
error message
filen o
polar ssl
get first
mat che
Ġsp lash
Ġecore x
c voidfunctionmarkervoidfunctionmarker
Ġintfunctionmarker functionintfunctionmarker
Ġf gets
pre ct
by func
fore ign
Ġmag ick
cache entrypointermarker
Ġvoidfunctionparam types
Ġc ups
Ġx fer
Ġgtkwindow set
g ps
si ent
boolean voidfunctionmarker
Ġrpcsvcrequest tpointermarker
b col
h mm
Ġg ar
con sume
nd up
gtk window
heal th
ouve au
level intfunctionmarker
Ġdbus connectionpointermarker
inode intfunctionpointermarker
Ġs ch
Ġce ph
Ġstrstr charpointermarker
s file
li mag
Ġh omet
Ġpro blem
Ġid irectfb
omat ic
Ġvoidfunctionselfvoidfunctionpointermarkervoidfunctionmarker privvoidfunctionmarkervoidfunctionmarker
Ġintfunctionmarker num
Ġ0 1
size intfunctionpointermarker
vec pointermarker
pdev dev
Ġc sr
ind x
ive pointermarker
mi b
Ġgdk windowpointermarker
serv ed
Ġvoidfunctionmarkerc sio
Ġg ff
she ader
b tr
Ġstructpointermarker width
me asure
pyex c
st x
Ġpointervoidfunctionmarker result
Ġgs ql
irq restore
pq expbuffer
Ġintfunctionmarkerw intfunctionmarker
sc lk
Ġl first
Ġse nt
Ġacpi operand
re itter
Ġint max
err bad
Ġobject vv
collabor afolk
Ġhomet reitter
Ġhometreitter collaborafolk
array s
for med
Ġsuper block
gla de
r oll
en cpointermarker
Ġe et
Ġgint topointer
manag ert
mon ster
Ġge om
pair s
Ġgio error
u er
array marker
Ġ vol
ine q
printf voidfunctionmarkervoidfunctionmarker
sk ill
declar ationpointermarker
ta pe
key val
match er
sol ver
vect ord
quis ition
user datavoidfunctionmarker
Ġstructpointermarker voidpointermarker
Ġt ds
pre fer
index tpointermarker
w intfunctionmarker
Ġintfunctionmarker nextintfunctionmarker
Ġe sourcepointermarker
gf bitstreampointermarker
j k
Ġn ic
Ġx vec
transaction pointermarker
Ġgflog debug
gx device
arti st
pos x
Ġze itgeist
Ġt up
Ġm mc
Ġh df
Ġun do
user intfunctionmarker
multi aff
Ġintfunctionuser intfunctionpointermarker
size s
00 000
Ġdecl ar
Ġmat erial
safe structpointermarker
Ġnr r
Ġu short
Ġvoidfunction ctxvoidfunctionpointermarker
Ġgn u
Ġglade property
Ġintfunctionmarkerdo intfunctionmarker
d intfunctionmarker
Ġg fa
box voidfunctionmarker
Ġsymbol db
destroy structpointermarker
Ġmw ifiex
i be
Ġintfunctionmarker strlen
Ġstructpointermarker device
la c
ing voidfunctionmarker
Ġspinlock structpointermarker
Ġn am
type int
matrix marker
8 4
Ġtest pointermarker
gnut ls
Ġs qu
ind ividual
as p
cur rency
Ġi mpl
call statetpointermarker
min us
crit ical
Ġintfunctionmarkerlibcerrorerror setintfunctionmarker
Ġtext ure
t reenodepointermarker
fi sh
short cut
Ġglobus gram
sser vice
Ġftt cellpointermarker
is plugin
sa c
root intfunctionmarker
edge s
b et
ar p
ap log
pre viou
Ġmon ster
Ġtable pointermarker
Ġg ulong
el abel
ap m
Ġgst camerab
lex statepointermarker
nam en
ch ash
Ġd sdp
Ġo v
Ġldap debug
er un
Ġg abedit
intfunctionmarkerintfunctionmarker db
Ġde p
stream t
Ġauth entic
Ġintfunctionmarker event
Ġde let
per form
Ġgstclock time
re cover
string structpointermarker
pre ply
Ġspinlockirqsave structpointermarkerlock
if ail
bar rier
proces sed
mode voidfunctionmarker
m and
ch or
hash entry
Ġal g
lg fs
Ġqmetaobject call
Ġstructpointermarker read
Ġs quare
pe ak
intfunctionmarkerintfunctionmarker keyintfunctionmarker
Ġdata len
t pointervoidfunctionmarker
size marker
lu a
Ġstructpointermarker req
Ġh c
rc v
off t
Ġhomemartyn sourcet
x io
po sy
Ġc ro
lin ed
Ġvoidfunctionmarkergtk hash
st ree
Ġvoidfunctionmarker min
ref voidfunctionmarker
gener ation
bh structpointermarker
Ġp antlr
calc ulate
Ġvoidfunctionmarkerslurmdb pack
Ġpointercharfunctionmarkerif pointercharfunctionmarker
Ġn i
Ġs leep
status structpointermarker
Ġfuncenter no
Ġe pr
Ġif uint
Ġlist en
pp ed
get file
list s
am itk
Ġmca coll
Ġif intpointermarker
Ġcpl parameter
j tpointermarker
Ġre name
gn m
ot ion
ag ma
sa mpl
work ing
Ġgt t
set e
ge vent
reg or
byte iocontextpointermarker
Ġserver statetpointermarker
j im
Ġ messaget
Ġintfunctionmarker tintfunctionmarker
Ġstructpointermarker chip
el ong
ere source
Ġgst queue
Ġin line
config ur
Ġgclear error
h cp
map iterator
pub lic
g str
m vm
w chart
Ġa mp
Ġvoidfunctionmarkere in
i op
Ġintfunctionmarker ev
Ġl it
token s
Ġf oc
iter ation
prop pointermarker
Ġmon th
Ġintfunctionmarker pg
Ġre nd
pos charfunctionmarker
use s
module s
Ġback ground
t uint
ib ou
pt p
Ġcd k
ture pointermarker
ahor se
ref erences
ang o
Ġdi ag
Ġclo og
Ġintfunctionmarkerrc intfunctionmarkermarker
m intfunctionmarker
Ġ messag
db t
compar ison
Ġvoidfunctionmarkerinputchr voidfunctionmarkermarker
Ġhometreittercollaborafolk stest
n ul
Ġstructpointermarker min
ut t
bl ur
Ġsn ap
index of
Ġcur winw
task s
Ġinitlisthead structpointermarker
c andidate
w he
ap sed
of ree
ation al
check structpointermarker
Ġanjut at
Ġsmall vector
in vert
Ġintfunctionmarker block
Ġx str
my ear
Ġge arman
dialo gr
gs m
k il
Ġg pi
pe ed
Ġm h
o mpi
x yp
Ġd rb
index marker
internal error
a id
ma ing
Ġx c
lr u
Ġhs streampointermarker
l intfunctionmarker
Ġintfunctionmarker widthintfunctionmarker
const voidfunctionmarker
ub ar
Ġy ear
etr ue
ty per
put s
unsigned intfunctionmarker
Ġp lot
value structpointermarker
sv n
Ġintfunctionmarkerresult intfunctionmarkermarker
g au
Ġaj debugvoidfunctionmarker
Ġjs varpointermarker
19 2
Ġgener al
d ac
is p
res voidfunctionpointermarker
Ġstrcpy charmarkerarray
at rack
Ġs af
Ġb v
Ġintfunction functionintfunctionpointermarker
Ġstd set
std intfunctionmarkerintfunctionmarker
Ġobject type
metadata pointermarker
Ġvoidfunctionmarkerorcprogramadd temporary
Ġvoidfunctionmarkerorcprogramaddtemporary voidfunctionmarker
e ff
cp i
Ġgf bs
prev intfunctionmarker
stri but
Ġintfunctionmarker indexintfunctionmarker
set ype
uerrorcode marker
list structpointermarker
args voidfunctionmarker
l us
Ġr hs
fs info
Ġab s
cor ner
omedi um
6 7
set attr
Ġw chart
private key
device intfunctionmarkerintfunctionmarker
Ġcms uint
Ġslur msuccess
Ġvoidfunctionmarker int
sub r
Ġcpl frame
Ġvoidfunctionmarkerd voidfunctionmarker
Ġglist append
Ġstructvariabl er
Ġstructpointermarker msg
co ff
su cc
mo st
Ġpthread mutexlock
Ġrelopt infopointermarker
Ġc rt
sp lugin
hash intfunctionmarker
control spointermarker
Ġcp parser
Ġ interrupt
id voidfunctionmarkervoidfunctionmarker
Ġintfunctionmarker last
Ġd id
Ġintfunction nintfunctionpointermarker
Ġch a
finished voidfunctionmarkervoidfunctionmarkervoidfunctionmarker
calling voidfunctionmarkervoidfunctionmarkervoidfunctionmarker
Ġvoidfunctionmarkervoidfunctionmarkervoidfunctionmarkerprintlinevoidfunctionmarkervoidfunctionmarkervoidfunctionmarkervoidfunctionmarkervoidfunctionmarkervoidfunctionmarker finishedvoidfunctionmarkervoidfunctionmarkervoidfunctionmarker
Ġvoidfunctionmarkervoidfunctionmarkervoidfunctionmarkerprintlinevoidfunctionmarkervoidfunctionmarkervoidfunctionmarkervoidfunctionmarkervoidfunctionmarkervoidfunctionmarker callingvoidfunctionmarkervoidfunctionmarkervoidfunctionmarker
compr is
Ġintfunctionmarker request
Ġgst warning
cmd intfunctionmarkerintfunctionmarker
bound ing
Ġspe cifi
Ġldn srr
leav eno
Ġblock size
Ġfunc leaveno
pixel format
db env
point spointermarker
mt u
Ġwh ite
u astatepointermarker
list itemtpointermarker
Ġr i
var stpointermarker
ti cket
gs ource
qu ation
Ġstat s
guicontrolsedit box
elim it
Ġintfunctionmarker the
b mp
object intfunctionmarker
ge any
om err
vir q
Ġscal ar
st erpointermarker
Ġg ist
ist ream
second ary
g char
se mi
u di
Ġsn ippet
Ġlog in
Ġav l
Ġhostwide int
un tpointermarker
sh ap
Ġid le
ow r
Ġde tail
log ic
Ġlu apush
g valuepointermarker
order ed
Ġfv wmwindowpointermarker
p intfunctionmarkermarker
map structpointermarker
Ġname len
iver se
Ġpointervoidfunctionmarkerresult pointervoidfunctionmarker
h ase
q of
int val
Ġf if
Ġf cntl
Ġs as
Ġconstmarker size
Ġp il
node id
Ġpointer intfunctionmarker
null pointer
context voidfunctionpointermarker
be acon
Ġunity protocol
Ġgsf xml
Ġgene fx
r ans
at intmarker
Ġconnection pointermarker
srcp ad
b an
Ġv n
client s
js varpointermarker
Ġgflog error
g dl
z x
get str
sc lass
Ġsend to
Ġsession pointermarker
crt c
r op
propag ate
Ġv e
for ms
changed cb
w eek
index intmarker
cre ase
Ġerr ptre
Ġcp limage
t reenode
y per
co id
Ġvoid mode
voidfunctionmarkervoidfunctionmarker v
to cp
size intfunctionmarkermarker
Ġh tab
Ġgobject notify
ha vi
l w
cm nd
Ġto lower
po intmarker
Ġcon sole
tree item
arch iv
Ġgtktreepath free
communic ation
et oken
return valiffail
br ig
is olate
ame m
mem cache
Ġoff tmarker
Ġecere pointer
Ġmai lim
Ġp red
tree voidfunctionmarker
cache size
Ġdrm intel
s oup
Ġpointer llistpointermarker
this floatfunctionmarkerfloatfunctionmarker
Ġbuffer size
f ence
Ġintfunctionmarker sl
Ġipmi console
s ur
Ġf tp
Ġpointervoidfunctionmarker node
Ġpi ir
str marker
ect x
lo ffset
Ġf act
Ġi funsigned
Ġo idmarker
qui et
w w
w ise
ar ser
Ġintfunctionmarker headintfunctionmarker
get max
pur pose
ss n
Ġgst multi
alloc structpointermarker
sen tpointermarker
Ġvt kerror
Ġsndr vpcm
i intfunctionmarker
cmd s
h ass
er arch
con firm
ab ility
Ġread er
Ġp iece
csm bus
s quare
key len
Ġintfunctionmarkerunsigned intfunctionmarkermarkerintfunctionmarker
Ġpg resultpointermarker
Ġgvariant builder
o main
Ġamd lib
get width
Ġpointermarker intmarker
buffer marker
read uint
cur v
Ġdef init
Ġnm connection
Ġintfunction output
st intfunctionmarker
el ast
Ġt ick
Ġq domelement
Ġat tach
Ġgnutl sassert
on itor
Ġl j
pre p
Ġqu ote
errno voidfunctionmarker
Ġvoidfunctionmarkern bytesvoidfunctionmarker
Ġranget blen
c mexecutionstatusmarker
ex clusive
Ġvoidfunctionmarker not
set field
Ġw d
Ġif int
Ġein atrue
f cs
param stpointermarker
not es
Ġcur ren
Ġpointergcharpointermarker i
Ġintfunctionmarkere ast
a es
Ġstructpointermarker regs
Ġpointer intpointermarker
read regstructpointermarker
res pointermarker
Ġpointercharfunctionmarker returnpointercharfunctionmarker
Ġtoken match
alist pointermarker
Ġua ec
Ġgf t
Ġdata size
filen ew
as che
key tpointermarker
Ġget text
etrans form
Ġmonog eneric
inter actor
Ġde ad
self heal
Ġintfunctionctx intfunctionpointermarkerintfunctionmarker
ml b
Ġmb fl
Ġre start
Ġw c
encod erpointermarker
Ġf ac
Ġs len
ir r
gad get
e ded
ac u
ub lickey
Ġifi s
t ow
Ġintfunctionmarker byte
tr ay
Ġuint ptrt
stat pointermarker
Ġoperand pointermarker
Ġsscanf charpointermarker
Ġvoidfunctionmarkeror conce
Ġintfunctionmarker startintfunctionmarker
not ifier
Ġstrcat charpointermarker
Ġstruct ure
Ġqu ad
Ġapr bucket
Ġlu at
Ġgasync result
Ġvoidfunctionmarkerhtonl voidfunctionmarkervoidfunctionmarker
Ġ signature
Ġm log
error bad
sp at
context t
Ġintfunctionmarkercmp intfunctionmarkermarker
x data
str map
Ġvoidfunctionmarker hash
ic ur
Ġvoidfunction free
Ġbuf tpointermarker
b map
Ġstructpointermarker sub
og ra
Ġllist elem
list lock
Ġget next
Ġex pi
Ġdebug msg
deleg ate
Ġvoidfunctionmarker fd
Ġp aint
do cpointermarker
Ġatoi charpointermarker
s ame
Ġn ation
en cryption
tr ail
Ġl ad
gra de
Ġpk cs
s ity
action voidfunctionmarker
Ġ12 7
prequest pointermarker
Ġintfunctionmarker time
Ġif gap
Ġgnc commodity
Ġbignum pointermarker
m ob
de cay
config file
enum marker
Ġecere methodecerenamespaceecere
Ġnem owindow
pointermarker v
co g
00 1
Ġpr ob
Ġraw ostreammarker
l ut
Ġst g
vector marker
match ed
pointermarkerpointermarkerpointermarkerpointermarkerpointermarkerpointermarkerpointermarkerpointermarker pointermarkerpointermarkerpointermarkerpointermarkerpointermarkerpointermarkerpointermarkerpointermarker
d data
Ġvoidfunctionmarker structpointermarker
client data
Ġgt feature
Ġdis connect
uri pointermarker
Ġg ffree
Ġgobject new
tag ged
lin ux
chunk pointermarker
b all
Ġstructpointermarker k
Ġvoidfunctionmarker countvoidfunctionmarker
pointermarkerr ight
Ġcair op
Ġnemo icon
or a
add to
key data
Ġev ry
Ġintfunctionmarker va
Ġcam l
sampler ate
set enabled
Ġplatform device
object type
Ġr w
Ġq assert
Ġstream pointermarker
Ġintfunctionmarker add
Ġpg stat
Ġunlikely structpointermarker
Ġgobjectset data
Ġintfunctionmarkermode intfunctionmarker
bright ness
u an
fun id
frame buffer
Ġpointercharfunctionmarker p
er marker
in cr
str chr
Ġa pi
ec b
func intfunctionmarkerintfunctionmarker
Ġsu ffix
Ġintfunctionmarkerl intfunctionmarkerintfunctionmarker
uff man
aplog mark
x intmarker
Ġafr privatetpointermarker
Ġg settingspointermarker
Ġp pc
api retvalue
cerrorerror tpointermarker
Ġpointerlib cerrorerrortpointermarker
Ġt ex
intmarker name
sc intilla
read s
Ġapr table
Ġvoidfunctionmarkergobject unrefvoidfunctionmarker
u lename
ect rl
Ġintfunction q
map get
Ġgst h
devic etpointermarker
o pointermarker
Ġvoidfunctionmarker vtk
iterator intfunctionmarker
Ġintfunctionmarkerecere propecerenamespaceecere
Ġvari ablepointermarker
c atch
i structpointermarker
re load
Ġgtk uim
fil led
f ot
n u
x pression
Ġresol ve
Ġvxge hw
int sstruct
at ar
Ġu sed
Ġle d
atter ns
hist ogram
n of
Ġintfunction fd
inter lace
Ġstructpointermarker height
Ġnull rtx
code intfunctionmarkermarker
md ay
Ġg lenum
Ġi k
su sed
config get
man age
assign ment
Ġslapi ch
authentic ation
Ġstructpointermarker pw
Ġw intpointermarker
cach etpointermarker
Ġgfi re
3 60
Ġp cre
db tpointermarker
Ġxml parser
Ġgwydata field
g ss
j i
p itch
q pointermarker
Ġu ps
ost yle
Ġintfunctionmarker devintfunctionmarkerintfunctionmarker
obj t
match ing
Ġstrlen charmarkerarray
iz ation
Ġge strack
q tpointermarker
fra men
writ ed
Ġsh adow
ca b
ctx tmarker
event voidfunctionmarker
Ġx i
00 7
Ġgnc sql
pin ch
Ġvoidfunctionmarkerfw cmd
max len
Ġav codeccontextpointermarker
Ġgtkentry gettext
Ġvex exprpointermarker
Ġgtk selection
sn am
Ġqlist q
Ġnssck fw
Ġj p
cla im
wh ich
Ġsec item
Ġfloatfunctionmarkerfloat floatfunctionmarker
initi ator
res v
Ġvoidfunctionmarkerd bus
organ ism
Ġp lu
end of
cp limagepointermarker
ick ness
Ġgo ogle
char act
name cstr
cm y
cmd line
pd u
Ġof s
Ġpid t
Ġclear bit
s ong
si mil
sub title
lic ant
gc intfunctionmarker
vers al
get numberof
Ġm creature
to o
s ap
Ġd ac
ex if
eto string
sex ec
con sum
Ġb cm
iv ers
fo ur
Ġif v
chan g
exp lain
util sc
Ġcla use
n or
Ġd ont
bn x
Ġintfunctionmarkerprecision intfunctionmarker
Ġintfunctionmarker nodeintfunctionmarker
Ġf seek
tr ange
param type
Ġfre et
Ġcharmarkercharmarkerarray charmarker
st emp
ma pe
set ter
alloc ationpointermarker
dev id
Ġreal tmarker
n f
Ġst un
wr k
setting sget
Ġtokenpointermarker str
Ġgtkentry settext
z ed
ch set
cur lpointermarker
Ġgth browser
p default
ch ap
Ġintfunctionmarker obj
Ġl b
job manager
Ġrun time
en sor
Ġse ahorse
pointermarker f
ing structpointermarker
string typointermarker
result t
lin enumber
constmarkerconstmarker constmarker
Ġsndsoc codec
Ġre m
Ġf ollow
ed own
Ġph ase
Ġper m
Ġfloatfunctionmarkerfloat floatfunctionmarkerfloatfunctionmarker
op acity
Ġdb tpointermarker
red uced
dispatch er
str and
get reg
Ġerr out
Ġintfunctionmarkerd oneintfunctionmarker
b info
Ġstructpointermarker if
track s
gfx bitmap
Ġstr ide
not null
Ġpointervoidfunctionmarker ein
Ġlog ical
Ġphoto s
output stream
2 000
pointermarker width
Ġif c
Ġed ata
Ġlib ssh
Ġgstring new
4 9
is in
Ġgdbus proxy
re gno
Ġr val
cb voidfunctionpointermarker
ate st
out file
one voidfunctionmarker
play back
propecerenamespaceecereguiwindowget master
ke e
Ġch k
Ġintfunctionmarkerl intfunctionmarker
Ġintfunctionmarker be
data ptr
const antpointermarker
Ġpointervoidfunctionmarker ap
Ġxml xpath
long long
sysbuffered fileintfunctionmarkerintfunctionmarker
Ġintfunctionmarker re
Ġsm sc
Ġgstringappend printf
c dev
Ġnull ptr
Ġl v
Ġarray tablepointermarker
fit s
Ġmpeg ts
ou ser
pre sence
row pointermarker
Ġp u
err intfunctionmarkerintfunctionmarker
Ġx slt
iterator marker
draw ing
Ġss aname
Ġgitrepository pointermarker
Ġintfunctionmarker sr
vel ist
m lout
p ctl
un ode
Ġintfunctionmarker statusintfunctionmarker
sm ux
Ġwith out
Ġstructpointermarker set
ere ader
Ġreal marker
brig ade
Ġstructvariable tvusec
dd nodepointermarker
Ġdl m
Ġscan ner
constraint s
Ġgmt long
r oute
Ġ items
Ġc ipher
di mage
path max
voidfunctionpointermarkervoidfunctionmarker callbackvoidfunctionmarker
Ġgl uint
html view
k tpointermarker
un reachable
Ġgt error
Ġvoidfunctioncb voidfunctionpointermarker
dat om
Ġfloatfunctionmarker return
gn et
log pointermarker
user id
let ter
cach ec
urb structpointermarker
fli ck
u pa
Ġg markup
Ġd oubl
ou ch
Ġl st
Ġintfunction nextintfunctionpointermarker
wn ck
Ġg fr
Ġf ax
get height
pth xpointermarker
Ġintfunctionmarker spinunlock
tpointermarker uint
name charpointermarker
Ġgf nodepointermarker
pi vot
width voidfunctionmarker
handler voidfunctionpointermarker
updat es
sq rt
f marker
Ġp ptr
Ġ1 9
fa ction
Ġbraser omedium
leanup intfunctionmarker
Ġintfunctionmarkerc leanupintfunctionmarker
Ġli ve
Ġredis clientpointermarker
d sa
j oy
cr pointermarker
Ġcp limagepointermarker
ersup ply
l arge
ass o
Ġintfunctionmarkererr intfunctionmarkermarker
Ġintfunctionmarkerisl unionmap
Ġoo ctxtpointermarker
Ġgstflow ok
chemtop levelpointermarker
g ob
Ġchar arraypointermarker
ter nal
Ġth dpointermarker
Ġvoidfunction a
ist ics
request s
Ġcpl xmlnodepointermarker
Ġnv k
Ġrender objectpointermarker
intfunctionmarkerintfunctionmarkerecere pointerecerenamespaceecere
q voidfunctionpointermarker
se ngine
Ġs fx
get env
Ġvoidfunction funcvoidfunctionpointermarkervoidfunctionmarker
so ur
slot infopointermarker
Ġgee abstract
Ġbrasero filen
q s
se ar
th ing
Ġcoord inate
Ġintfunctionmarker on
get bit
size intfunctionmarkerintfunctionmarker
def late
Ġdb gc
Ġpre sent
Ġtoken infomarker
Ġvoidfunction h
Ġgs l
ren gth
Ġit k
minst anc
at able
Ġre sp
text gtk
sele ment
isl keeppointermarker
m op
un iverse
voidfunctionmarkervoidfunctionmarker r
Ġintfunction ctmp
Ġvoidfunction svoidfunctionpointermarker
back light
block structpointermarker
la ve
la mbda
get uint
err voidfunctionmarker
Ġth reshold
Ġch o
pab ility
Ġconstr tx
vide os
mov et
depth voidfunctionmarker
Ġintfunctionmarkerintintfunctionmarkerintfunctionmarker aintfunctionmarkerintfunctionmarker
t g
v table
ct ask
Ġstr lcpy
Ġis a
callback pointermarker
11 1
str intfunctionpointermarker
type structpointermarker
Ġintfunctionmarkersh sintfunctionmarkerintfunctionmarker
Ġintfunctionmarkersintfunctionmarkerintfunctionmarker nintfunctionmarker
f ld
v en
re ate
Ġd cc
Ġp db
Ġerror mark
v x
Ġe ew
pres sevent
Ġgdbusmethodinvo cationpointermarker
it voidfunctionmarker
Ġn om
Ġp fn
connection voidfunctionmarker
Ġag ent
Ġmis match
overr ide
edriv etpointermarker
str structpointermarker
Ġintfunction z
Ġxexp marker
stere o
n op
Ġstructpointermarker head
gs l
Ġk not
demux er
sca ch
pa ged
string len
pointervoidfunctionmarkerpointervoidfunctionmarker man
Ġet her
sha de
ce c
Ġr fc
Ġvoidfunction listvoidfunctionpointermarker
che ma
Ġj as
Ġj ump
g mp
fa x
Ġk m
move ment
Ġread y
Ġgb datapointermarker
read line
ci e
trans portpointermarker
tim erpointermarker
Ġldn sr
le s
get element
do ffset
Ġintfunctionmarkerreturn intfunctionmarkerintfunctionmarker
ire ction
Ġghashtable new
Ġdbusg proxy
cair o
proced ure
op voidfunctionmarker
dat ase
ertifi cat
Ġgststate change
0 12
msg structpointermarker
Ġvoidfunctionmarkermy functionvoidfunctionmarker
un ame
enum pointermarker
88 5
it intfunctionmarker
pos pointermarker
write uint
managerpointermarker priv
Ġg source
Ġgtk file
Ġgst de
lu x
x or
structpointermarker fd
loc ationpointermarker
printf stderr
Ġorc union
8 25
p al
in for
si red
widget s
sig ma
Ġgvfs backend
Ġxot cl
en sure
Ġgfree charpointermarker
er ent
re etpointermarker
view erpointermarker
Ġgtktext iterpointermarker
rule s
Ġg sourc
Ġintfunctionmarker elszintfunctionmarker
queu etpointermarker
Ġulong pointermarker
a gs
en ch
Ġp ic
Ġp ta
data object
met ry
o pe
Ġstructpointermarker header
Ġvoidfunctionmarker walk
prot otype
Ġsetting s
butt ong
Ġintfunction nameintfunctionpointermarker
unt il
Ġvoidfunctionmarkerarg voidfunctionmarker
pointermarker add
pa gen
Ġst rea
Ġi mm
res ample
back ward
chan t
call s
sth is
inter est
Ġmailim f
io channel
cre ds
Ġxmlse cassert
Ġajfmt print
p db
fra mer
check pyobjectpointermarker
Ġot fr
Ġcar ibou
con ti
Ġt cs
Ġvoidfunctionmarkerg charvoidfunctionmarker
Ġerror n
Ġdb cpointermarker
yp etpointermarker
Ġgt errorpointermarker
o string
Ġ privatedata
Ġp ch
Ġq rect
gin fop
Ġev ase
Ġgnm style
marker n
Ġvoidfunctionmarker enable
Ġe ffect
per io
ise qual
Ġtyp valtpointermarker
Ġintfunctionmarker bar
connection privatepointermarker
Ġcol l
Ġvoidfunction src
Ġgst objectpointermarker
Ġintfunctionmarkerrun aintfunctionmarkerintfunctionmarker
6 100
Ġx ac
key file
Ġcur token
Ġcomp ut
inode intfunctionmarker
Ġgnm float
Ġgee array
Ġvoidfunctionmarker old
arg pointermarker
Ġstd in
exec ution
Ġac et
Ġgimple assign
Ġmon othread
sym bo
h av
s name
read config
Ġvtk cell
Ġgdk drag
Ġcairosurfac etpointermarker
h alt
Ġg pk
Ġvoidfunctionmarker ib
Ġst v
Ġintfunctionmarkerif defintfunctionmarker
play ing
Ġdrm mode
rot ate
ens ity
Ġvoidfunctionmarker do
Ġe soap
file browser
port structpointermarker
Ġsh are
at ore
pa used
cl ink
unable intfunctionmarker
pointermarker id
Ġkzalloc sizeofstructpointermarker
Ġcolo ur
st uff
activ ation
coe f
file structpointermarker
Ġg queue
Ġd word
get filename
Ġe logerror
Ġw bc
head ert
erm al
voidfunctionmarkervoidfunctionmarker typevoidfunctionmarker
Ġstrcmp structpointermarker
style sheet
vo ke
data length
Ġgnutls x
pa i
Ġq messagebox
intfunctionmarkerintfunction structintfunctionpointermarker
Ġassert intmarker
ur st
Ġcharpointermarker n
is d
sc allback
option stpointermarker
pointermarkerget type
cancel led
u pe
set voidfunctionmarkervoidfunctionmarker
Ġdir ty
ener gy
Ġamd ms
l un
get len
Ġl x
che ad
Ġvi a
disk s
Ġgdi mage
Ġintfunctionmarker output
Ġvoidfunction c
Ġstate pointermarker
Ġec ereclassecerenamespaceecere
errno error
Ġevasobject text
re strict
Ġb son
Ġde bu
Ġi oc
qu anti
cre ation
new from
Ġex port
Ġcl p
snd pcm
f luid
Ġintfunctionmarker error
ix er
code voidfunctionmarker
db ind
Ġpointercharfunctionmarker charpointercharfunctionmarker
build filename
declar ator
Ġvoidfunctionmarkergreturniffail voidfunctionmarker
re ppointermarker
si f
get x
mem berpointermarker
Ġj class
floatfunctionmarker floatfunction
outof memory
Ġgtkbuilder getobject
Ġintfunctionmarker min
sh dr
manag ed
Ġfx intmarker
Ġintfunctionctx intfunctionpointermarker
r intfunctionmarker
w pointermarker
en velope
Ġs ink
found intfunctionmarker
Ġintfunctionmarker usb
Ġn id
Ġcheck sum
Ġvoidfunctionmarkervoidfunctionmarker if
realtmarkerrealtmarker realtmarkerrealtmarker
Ġre verse
siz er
ve locity
gr ad
lit voidfunctionmarker
Ġvoidfunctionmarkeri voidfunctionmarkermarker
d av
ot able
fla ser
table slotpointermarker
count s
Ġnode implpointermarker
enot ify
Ġg max
printf charpointermarker
child intfunctionmarker
omet adata
baset ype
2 10
s of
ig a
bit set
Ġz oom
l val
Ġintfunctionmarker lo
Ġgtk check
cn tr
Ġelm widget
Ġpango attr
g intfunctionmarker
rea ppend
file id
Ġexpect ed
may be
str intfunctionmarkerintfunctionmarker
Ġstructpointermarker node
Ġstructpointermarker fw
file t
sp n
count structpointermarker
Ġgn unet
Ġdevice attribute
Ġwhile charpointermarker
agnost ic
c er
m get
ma ccess
Ġt ps
op arse
es nt
pix mappointermarker
multi ply
Ġvoidfunctionmarkerconst setvoidfunctionmarker
jit ter
mt d
12 71
gi mple
Ġord only
ch n
Ġu dp
Ġj compressptrmarker
ore d
Ġph i
Ġintfunctionmarkersizet intfunctionmarkermarker
w ifi
ord ers
mid intfunctionmarker
Ġvoidfunctionmarkersizet voidfunctionmarker
la me
fa ke
Ġi mplement
ml x
Ġsanestatus good
as signed
word structpointermarker
Ġacp ig
b pp
Ġstructpointermarker desc
Ġstructpointermarker vm
pr ch
Ġexit failure
chunk size
Ġmemory context
p intfunctionpointermarkerintfunctionmarker
q o
Ġl lu
Ġet ime
un e
Ġu cs
Ġcallstub tpointermarker
z xid
co pi
ge s
name intmarker
inode pointermarker
Ġintfunctionf intfunctionpointermarker
Ġgwydata fieldpointermarker
m al
Ġtree operand
Ġir mo
l num
ar ith
Ġe f
intmarkerintmarker intmarkerintmarker
Ġfre ed
Ġbl ue
q structpointermarker
fra c
nodepointermarker next
Ġtix mle
h cd
str voidfunctionpointermarker
Ġintfunctionmarker un
get operand
Ġfloat pointermarkerintmarker
sy mlink
chan ger
Ġxm le
k net
Ġspl itpointermarker
valuetype pointermarker
Ġvoidfunctionmarkerfree voidfunctionmarkervoidfunctionmarker
str intfunctionmarker
ma s
queue s
sw app
b rowse
on d
ms si
gu charpointermarker
Ġsize off
Ġproperty id
Ġuerrorcode pointermarker
Ġbugon structpointermarker
Ġstructvariable tm
filter s
pad pointermarker
Ġvoidfunctionbuf voidfunctionpointermarker
Ġs ide
ule pointermarker
Ġgdk key
blk no
Ġche e
st oken
Ġstructpointermarker o
ter ms
ht ool
stream ing
button press
clust ers
t z
Ġ likely
map end
cm an
mm io
Ġf ore
Ġw s
sn pointermarker
Ġvoidfunctionmarkerg fp
floatfunctionmarkermarker floatfunctionmarker
Ġunitywebapp s
fre er
Ġintfunctionmarkerintfunctionmarkerint intfunctionmarkerintfunctionmarkerintfunctionmarkerintfunctionmarker
n id
marker set
pa m
Ġgtk image
Ġj nienv
Ġpointervoidfunctionmarker list
Ġ5 00
6 000
Ġvoidfunctionmarker cmd
Ġe scape
Ġi owrite
Ġvoidfunction voice
Ġvis ual
Ġfuse statetpointermarker
Ġc vm
gn u
up ported
const sem
man gle
Ġpl res
Ġbon d
j a
un iform
Ġn ow
full screen
Ġgstlog object
Ġa sf
Ġlist cell
Ġgl sl
Ġfir mware
Ġintfunctiontintfunctionpointermarkerintfunctionmarker on
sequence pointermarker
Ġwr iter
Ġwx pg
top form
timer structpointermarker
Ġgtkwidget hide
Ġsla pid
Ġvoidfunctionmarkertype defvoidfunctionmarker
a finet
de b
intfunctionmarkerintfunctionmarker list
Ġe ap
Ġq i
clas si
Ġtransaction pointermarker
i ob
Ġstructpointermarker end
Ġt f
get child
Ġif s
Ġsec failure
Ġgamg ic
Ġvoidfunctionmarker cbvoidfunctionmarker
Ġt pl
Ġst e
ereg ion
Ġunlikely intmarker
Ġfloatfunctionmarkerreturn floatfunctionmarker
intfunctionmarkerintfunctionmarker offsetintfunctionmarker
Ġh errt
Ġclutter stage
Ġconfig ure
pointermarker max
Ġp ffrag
Ġgst qt
port intfunctionmarker
Ġcan on
b el
h ub
char intfunctionmarkerintfunctionmarker
si gs
Ġf u
this intfunctionpointermarker
Ġvoidfunctionmarkerorc executor
Ġvoidfunctionex voidfunctionpointermarker
Ġvoidfunctionmarkerex voidfunctionmarker
Ġvoidfunctionmarkerorcexecutor voidfunctionmarker
format s
wiz ard
t gt
v val
Ġintfunctionmarker data
Ġf id
ite vent
ec md
Ġis n
link s
Ġxt pointer
pref erence
person a
Ġgenesys devicepointermarker
c set
skb structpointermarker
Ġvoidfunction ev
Ġab stract
ialo gs
Ġm sec
Ġgs foutput
Ġfloatfunctionmarker int
source voidfunctionmarker
find first
authoriz ation
eregistr y
r ough
z val
get target
Ġde e
Ġi ma
from utf
sth read
Ġstdi streammarker
out intfunctionmarkerintfunctionmarker
he me
Ġgtkliststore set
b raser
Ġstructpointermarker private
di rentry
handle intfunctionpointermarker
pp p
first intfunctionmarker
speci es
tun er
l sn
Ġc si
ack et
Ġfor unsigned
trace structpointermarker
char arraypointermarker
file sintfunctionmarker
up to
alloc sizeof
field type
tx npointermarker
Ġvar pointermarker
Ġce failure
Ġg er
pr t
gn omet
Ġe mb
Ġnode t
frame size
wa com
Ġftt cell
scrolled window
d sdp
Ġvoidfunctionmarker tovoidfunctionmarker
Ġintfunction keyintfunctionpointermarker
Ġcharmarker charcharmarker
callback voidfunctionpointermarker
loc ate
Ġvoidfunctionmarkerc si
i pointercharfunctionmarker
Ġintfunctionmarker link
db y
time s
per sistent
control s
real t
quot a
Ġvoidfunctionmarkertp base
Ġcard inal
x ec
po ff
parse statepointermarker
ctrans form
Ġutil s
x sh
code d
cl ue
Ġit second
Ġoption s
entries intfunctionmarker
vi a
Ġvoidfunction n
source checkout
ho le
Ġport al
Ġgamgi windowpointermarker
Ġdest ination
pub lickey
subst voidfunctionmarker
Ġtri angle
Ġhomemartyn sourcecheckout
Ġhomemartynsourcecheckout gnomet
g k
vis itor
a emon
un ge
free ze
Ġgnm cell
Ġebook backend
Ġcomp iler
Ġg anv
Ġs ite
flags pointermarker
mod ul
mid dle
Ġnautilus filepointermarker
Ġnautiluscan vas
m orph
n av
Ġstructpointermarker fd
par ray
Ġvoidfunction namevoidfunctionpointermarker
mem pointermarker
Ġqu it
Ġghash tabl
Ġmap ping
insn s
Ġext end
m om
r ang
le aser
de compress
read able
Ġconstmarker length
Ġsc ene
er gy
base intfunctionmarker
raster band
ch ost
lin ewidth
structure d
quiv alen
s ce
co v
Ġif this
lic ationpointermarker
Ġslapip block
m ust
s pot
mo o
byte marker
Ġmachine mode
Ġic mp
nod ename
Ġvoidfunctionmarkerdb dget
get iter
file stream
type intfunctionmarkerintfunctionmarker
context typointermarker
result voidfunctionmarkervoidfunctionmarker
choo se
Ġdist ance
acu um
b if
Ġs mb
Ġa gn
ti ce
Ġpy long
de ffect
it voidfunctionmarkervoidfunctionmarker
Ġif pointermarker
Ġstructpointermarkerd name
Ġnto h
Ġvoidfunctionmarker init
face pointermarker
resourc etpointermarker
s void
Ġvoidfunctionmarker lenvoidfunctionmarker
Ġt om
print able
cla sh
play ers
Ġvoidfunctionmarkeri map
4 20
i si
voidfunctionmarker constmarker
of voidfunctionmarker
Ġk b
Ġgn omerr
cell renderer
reset structpointermarker
p key
r marker
se maphore
Ġintfunctionmarker try
data voidfunctionmarkervoidfunctionmarker
iter am
call datapointermarker
dup lex
server voidfunctionmarker
tl v
Ġtot emp
Ġta ke
Ġpointervoidfunctionmarkera pabstract
Ġintfunctionmarker var
Ġregisterpointermarker registerpointermarker
vm w
values voidfunctionmarkervoidfunctionmarker
constr aintpointermarker
Ġguni char
Ġconst treemarker
dir name
quot ed
eregist erpointermarker
intfunctionmarker voidintfunctionmarker
Ġc ec
bitsintfunctionmarker ot
cd l
Ġfield pointermarker
Ġrc uread
da mage
cred it
recogn ized
g uest
lo gn
Ġs parse
Ġgf track
search pointermarker
pri ce
remo ver
g list
h x
pr ange
err ok
hw voidfunctionmarker
Ġxmp uns
ffi cient
Ġintfunctionmarker spinlock
li ent
Ġintfunction valueintfunctionpointermarker
Ġq graphics
charmarkerarray charmarkerarray
flag voidfunctionmarker
sf tp
need s
pointervoidfunctionmarkermarker pointervoidfunctionmarker
Ġqmetaobjectcall marker
n ate
s ct
ide bug
printer r
msub stream
x size
Ġstructpointermarker ch
Ġget c
Ġsub st
the ad
pli er
Ġrest proxy
Ġvoidfunctionmarkerchainup voidfunctionmarkermarker
g conf
Ġvoidfunctionmarkerg booleanvoidfunctionmarker
seq num
cpl property
voidfunctionmarkervoidfunctionmarkersizeof voidfunctionmarkervoidfunctionmarker
co ale
Ġp ick
len ce
cre strict
Ġvoidfunctionmarkerreturn voidfunctionmarkervoidfunctionmarker
dict tpointermarker
Ġvoidfunctionmarkerret voidfunctionmarkermarker
Ġfuncenterno ap
k i
re direct
Ġop ts
h voidfunctionmarker
al led
info struct
typ elist
Ġal lo
changed intfunctionmarker
Ġforeach listcellpointermarker
9 8
s ms
ss ource
array pointermarkerget
server s
timeout voidfunctionmarker
Ġpyx decrefpyobjectpointermarker
Ġom it
xmlse ckey
Ġw alk
Ġintfunctionmarker res
pro ctpointermarker
pre set
sr ow
Ġintfunctionmarkerp gno
Ġmb x
Ġgda server
Ġgmt longmarker
depend ent
Ġc pt
ere sponse
system pointermarker
Ġintfunctionmarkerh intfunctionmarkerintfunctionmarker
privat et
redu ce
n xt
ob yte
Ġmp w
floatfunction floatfunctionpointermarker
gwydata fieldpointermarker
Ġvoidfunctionmarkerbool voidfunctionmarker
5 3
l voidfunctionmarker
color intfunctionmarker
pp keypointermarker
Ġlib rary
progress bar
Ġabra ca
th resh
listpointermarker priv
to ffset
Ġpointervoidfunctionmarker thread
writ edata
dec or
norm alize
Ġintfunctionmarker memcpy
Ġs ph
Ġgtksource completion
a ot
Ġvoidfunctionmarker namevoidfunctionmarker
of intfunctionmarker
check point
mask structpointermarker
sec ure
env intfunctionmarker
Ġajstr assign
elp erpointermarker
Ġtpa w
co pen
Ġhe a
Ġbio pointermarker
q voidfunctionmarker
cate g
Ġte am
a bout
Ġm dl
Ġcharfunctionmarker n
dialog privatepointermarker
Ġintfunctionmarkerecerenamespaceecere come
Ġomp io
Ġerrormark node
at ime
Ġvoidfunctionmarker read
table intfunctionmarker
Ġip w
Ġob mol
Ġswig fail
Ġs gf
Ġm last
Ġse par
Ġgtktree store
btl base
g pi
Ġvoidfunctionmarker start
Ġb df
Ġis null
block voidfunctionmarker
enc il
mis match
Ġs urface
ta ction
path len
Ġvoidfunctionparamtypes voidfunctionpointermarkervoidfunctionmarker
Ġvoidfunctionmarkergtkhash hashlib
Ġvoidfunctionmarker call
Ġb z
Ġm ii
sr cptrmarker
Ġfloatfunctionmarker thisfloatfunctionmarkerfloatfunctionmarker
Ġvoidfunctionmarker hashlib
Ġh l
print ff
sr x
std charfunctionmarkercharfunctionmarker
inf ode
Ġintfunctionmarkersizeof intfunctionmarkermarker
a pol
Ġstructpointermarker out
Ġacpioperand objectpointermarker
x log
re add
Ġf reen
list node
Ġintfunction handler
chan ce
Ġthe me
g oo
Ġdbus error
Ġcmt arget
c group
dir dirpointermarker
vtk id
Ġgimple stmt
Ġogr feature
Ġconstruct or
Ġintfunctionmarker this
Ġre draw
an odepointermarker
Ġvoidfunctionmarker gs
Ġd conf
Ġt ls
set in
scr ob
eread y
ima get
Ġbound ary
se gs
lo ver
ap lugin
Ġtcl interppointermarker
bio pointermarker
hard ware
Ġfolder itempointermarker
p get
Ġf its
Ġgtk is
Ġdi b
whe el
u data
Ġintfunctionmarker http
Ġstructpointermarker uint
Ġt oggle
Ġsh utdown
Ġgupnp dl
a im
et marker
Ġf ab
get time
ot ation
Ġl gl
the ight
definit ionpointermarker
Ġfprint ff
Ġvoidfunctionmarkervoidfunctionmarkervoidfunctionmarkeromit badvoidfunctionmarkervoidfunctionmarkervoidfunctionmarker
re order
list begin
lock pointermarker
mm c
Ġfound n
marker y
pe cial
termin ate
Ġcook ie
Ġgsourc eremove
Ġs an
Ġintfunction compar
ert op
handle t
Ġimage pointermarker
Ġgstvide oframe
str charpointermarker
et arget
Ġenum erator
Ġintfunctionmarkercallback intfunctionmarker
Ġr objpointermarker
Ġvoidfunctionmarkervoidfunctionmarkervoidfunctionmarker int
Ġpk transaction
Ġflo or
ad de
ex po
Ġe mail
spe cs
sintmarker name
Ġev buffer
Ġgt option
rel id
ul ist
ma uth
ot est
Ġar r
w p
Ġ attribut
Ġ ctype
Ġm ul
Ġvoid marker
cr iter
Ġpy string
plugin s
Ġsum mary
Ġxdr pointermarker
ecerenamespaceed arow
ed isplay
fi f
Ġm po
nt p
root voidfunctionmarker
dbus messagepointermarker
c and
intfunctionmarkerintfunctionmarker s
object get
file charpointermarker
tmarker int
db entry
Ġis valid
no ise
exist ing
single ton
Ġbrcm f
f co
ss cr
ol ine
voidfunctionmarkervoidfunctionmarker svoidfunctionmarker
start pos
Ġnm devicepointermarker
Ġpack etpointermarker
eto ol
ff s
parse contextpointermarker
extension pointermarker
pw multiaff
Ġdrb d
list len
iter init
sk top
debug msg
changed intfunctionmarkerintfunctionmarkerreinterpretcastintfunctionmarker
Ġguchar map
itemp y
enomem intfunctionmarker
th umbnail
edit pointermarker
vm g
Ġsub reg
Ġgfp atomic
Ġstrcat charmarkerarray
defer red
Ġmachineinstr pointermarkerget
mlb fo
i intmarker
ar ect
structpointermarker v
globus l
Ġckr ok
f st
at tached
or ient
Ġstructpointermarker channel
th er
Ġintfunction sintfunctionpointermarker
bool t
Ġwx commandeventmarker
Ġgee iteratorpointermarker
Ġgtkcm clistpointermarker
Ġvoidfunctionmarker valuesvoidfunctionmarkervoidfunctionmarker
Ġv eh
sk in
write struct
Ġgobject get
option al
h up
t n
Ġvoidfunctionmarker num
sh el
cmd tpointermarker
Ġpix destroy
Ġav c
Ġgdkevent button
Ġdefinit ion
c string
Ġconst antpointermarker
value intfunctionmarkerintfunctionmarker
Ġq treewidget
Ġvoidfunctionmarkernot voidfunctionmarker
ch t
Ġvoidfunctionmarker print
Ġl g
hand shake
al num
ur er
Ġn ick
Ġe cp
Ġpro du
Ġplayer tpointermarker
Ġmedi a
Ġpointervoidfunctionmarkerpthread attr
Ġrts x
f ter
Ġf rac
Ġsa ver
Ġde xit
handle s
apr pooltpointermarker
in ventory
Ġp ap
Ġst do
Ġpointermarker next
her ent
Ġgnutls datum
Ġn ad
co w
len able
stat ere
ition al
Ġdrm debug
invo cation
fatal error
sector s
arg b
Ġis ls
Ġgf m
Ġpr uint
fl t
Ġsi r
Ġparent class
Ġlin eno
odo ck
Ġvalist marker
f write
et y
reg set
i of
Ġmax len
regist ers
Ġvoidfunctionmarkern paramvaluesvoidfunctionmarker
Ġeina stringshare
Ġvoidfunctionmarkermail stream
Ġu data
Ġmp intpointermarker
Ġpro gname
ifi erpointermarker
ic md
to str
Ġz one
Ġpr obe
Ġvoidfunctionmarkern voidfunctionmarkermarker
sin port
des ctpointermarker
typet marker
Ġslapip blockpointermarker
err num
Ġvoidfunction req
mp age
om inator
Ġq actionpointermarker
dir charpointermarker
chunk s
deg ree
Ġ changed
Ġa cd
Ġintfunction base
Ġintfunction ointfunctionpointermarker
sp ut
art icle
Ġdb envpointermarker
dl sym
policy tpointermarker
Ġgoogle prot
l hs
Ġg ostyle
pr ow
sub scr
devic edatapointermarker
Ġspr ite
c arg
Ġt pm
Ġtask pointermarker
cm utex
cpl tablepointermarker
border width
mix in
Ġbgav streamtpointermarker
Ġfput c
arb age
Ġr o
Ġut uint
depend ency
Ġg mutexunlock
Ġintfunctionmarker static
wr ootpointermarker
new string
Ġfile datapointermarker
full path
Ġintfunctionmarkersizeof intfunctionmarker
Ġedge pointermarker
trun c
Ġgvalueset string
x structpointermarker
Ġintfunctionmarker temp
ob odock
window voidfunctionmarker
Ġal c
Ġjs val
Ġmin or
Ġglusterd vol
Ġifaj str
o gr
q e
str graph
Ġintfunctionmarker fb
Ġgtk comboboxpointermarker
Ġrt w
Ġe perm
ptr ans
wr item
job s
tra versal
ct et
di ce
ec ereclassecerenamespaceecere
gb main
section s
guid ialogs
Ġau di
f et
de init
or ing
is visible
fs get
Ġprintf voidfunctionmarker
guicontrolsdata boxintfunctionmarkerintfunctionmarker
ul ated
Ġt ht
bu string
file const
od on
medi um
Ġby t
set cursor
Ġecal component
minstanc etpointermarker
i om
u h
Ġintfunctionmarker pt
Ġt oupper
Ġvoidfunction ptrvoidfunctionpointermarker
one structpointermarker
Ġpointerstructpointermarker intmarker
maing lobal
spat ial
re li
Ġstructpointermarker write
Ġm int
ot yp
Ġst req
index structpointermarker
eren ced
rec s
handler intfunctionmarker
Ġgl float
ho ver
f get
l filepointermarker
id b
Ġgst asf
ca v
Ġdebug print
Ġal arm
clas se
Ġput c
Ġvoidfunctionmarkerfree voidfunctionmarkervoidfunction
Ġrds rec
7 4
at rix
Ġintfunctionmarker free
Ġvoidfunctionmarker krb
write string
ba sis
rece iver
34 56
intfunctionintfunctionpointermarker intfunctionmarkerintfunctionmarker
realtmarkerintmarker realtmarkerintmarker
er c
sh ould
Ġvoidfunctionmarkerg signalconnect
Ġopen ssl
tle endian
Ġxmlse ckey
Ġlfirst listcellpointermarker
Ġt io
Ġm sr
Ġcharmarker return
Ġapr array
Ġintfunctionmarkercompare intfunctionmarker
un er
Ġg buildfilename
Ġintfunctionmarker bufintfunctionmarker
ol ink
intfunctionmarkerintfunctionmarker rowintfunctionmarker
Ġe slo
iter intfunctionmarker
sa x
Ġfla sh
vas n
Ġvoidfunctionmarkerp thread
metr ics
g pg
Ġintfunction window
che me
Ġse e
filter tpointermarker
Ġpc id
tim ers
Ġsym tab
tick s
Ġg regor
Ġintfunctionmarker snd
Ġt string
Ġdebug printf
Ġintfunctionmarkeri intfunctionmarkerintfunctionmarker
r outer
position s
Ġgt encseq
Ġan chor
Ġvoidfunctionmarkern paramvaluesvoidfunctionmarkermarker
Ġarray defusetable
sol for
Ġgsignal handler
Ġintfunctionb intfunctionpointermarker
d ash
pe ctr
is dn
Ġstr m
Ġpy decref
per and
bitsintfunctionmarker uint
Ġel t
Ġhomemartynsourcet rackersrclibtracker
i an
Ġm di
Ġintfunction l
Ġrequest pointermarker
binding pointermarker
Ġintfunctionmarkerbar intfunctionmarker
q c
ch ld
Ġintfunctionmarker au
min i
Ġdebug ger
boot kobj
Ġintfunctionmarker unableintfunctionmarker
ol id
Ġgap stb
Ġsndpc msubstream
prefer red
e sp
Ġm ate
Ġu prv
node list
read u
db d
m type
Ġs oft
Ġb pp
Ġgs chemtoplevelpointermarker
clo bject
ret ch
Ġcur ve
form ul
ds ong
Ġlink ed
c buf
flags marker
destruct ive
d tp
Ġs cp
Ġin o
Ġcur buf
Ġcp le
Ġrect angle
Ġg message
ist ance
qu er
mo vi
clas sentrypointermarker
Ġqpainter pointermarker
Ġist gt
d intmarker
u dev
fi s
Ġj object
sub tree
Ġgdk color
i ces
w as
Ġstructpointermarker sp
Ġstructpointermarker entry
Ġvoidfunctionmarker proc
mp w
Ġp fs
Ġh kl
Ġgtk editable
ref ptr
cb tpointermarker
Ġvtk object
Ġtoken pointermarkernext
Ġd ts
get e
intfunctionmarkerintfunctionmarker structintfunctionmarkermarker
h pointermarker
str an
Ġg func
Ġc av
ex c
Ġ2 3
Ġbit sper
Ġgestime line
re lax
ma po
is ode
Ġo sm
cl s
mo untpointermarker
Ġdo esnt
17 0
Ġslapi logerror
Ġintfunctionmarker nameintfunctionmarker
Ġre serve
Ġf h
if act
Ġe w
Ġgtk object
ca sh
Ġcharfunctionmarker stdcharfunctionmarkercharfunctionmarker
gg ob
99 99
Ġajstr new
ch allen
Ġintfunctionmarker fileintfunctionmarker
Ġre po
Ġx set
sp el
from user
manager privatepointermarker
Ġpage pointermarker
size i
Ġh r
Ġo ob
no op
sr ct
e quest
g ore
en r
Ġvoidfunctionmarker fdvoidfunctionmarker
Ġt xn
Ġh obit
Ġgvalueset boolean
Ġnto hl
Ġvoidfunctioncc voidfunctionpointermarkervoidfunctionmarkercallbackvoidfunctionmarker
var d
Ġgst collect
io em
context voidfunctionmarkervoidfunctionmarker
cast er
input contexttpointermarker
Ġsp lot
Ġmono objectpointermarker
Ġsi x
pdf pointermarker
Ġpango layout
v list
Ġ antlr
Ġs on
Ġreg ulator
wrapp erpointermarker
gdkpixbuf pointermarker
i w
Ġg reen
Ġc ertificate
et ra
con fs
Ġuint max
Ġdb m
Ġrb dlink
guiwindow on
Ġgtktreeviewget selection
v h
in sic
Ġintfunction auth
cb ad
Ġthis set
lic enew
ast ext
Ġpg connpointermarker
er ance
re gn
Ġc id
string info
Ġstd map
are st
mid gard
Ġpyargparsetuple pyobjectpointermarker
se udo
Ġvoidfunctionmarker bn
co herent
Ġintfunction x
reg ulator
Ġcharfunctionmarker int
auth ority
sol ution
ssh ow
allo ct
Ġgfo k
Ġp alette
Ġt pd
Ġh ook
file dialog
Ġbyte marker
element intfunctionmarker
Ġsv ns
segment s
Ġaren a
g iv
g luster
Ġd of
read struct
di rt
Ġst o
Ġfloatfunction floatfunction
b am
d ap
m six
ke ventpointermarker
Ġglade project
framet pointermarker
Ġintfunctionmarkerhash intfunctionmarker
pyex ctype
adapt orpointermarker
f allback
char function
Ġn ouveau
Ġr oom
out intfunctionmarker
pt x
analy si
Ġvoidfunctionmarkergfarm errno
d ht
voidfunctionmarkervoidfunctionmarker sign
parent voidfunctionmarker
irq save
the men
Ġvoidfunctionmarkervoidfunctionmarker voidvoidfunctionmarkervoidfunctionmarker
array get
mark s
scale intfunctionmarker
mechan ism
ut i
Ġu charmarker
Ġvoidfunctionnode voidfunctionpointermarker
Ġawwindow simplepointermarker
Ġr oute
pro files
Ġsp el
Ġghashtable destroy
susp ended
Ġgmp c
Ġe op
Ġintfunction inodeintfunctionpointermarker
Ġif bgav
failed voidfunctionmarker
Ġword pointermarker
comput ed
Ġanjuta project
prch elperpointermarker
k an
bu stype
ip p
ule s
sen v
Ġphy s
Ġedje object
Ġvoidfunctionmarkertmp voidfunctionmarker
Ġgtklabel settext
Ġuaec ptrmarker
h ang
Ġre pmgr
write config
sd ma
Ġpointerg listpointermarker
vir config
datetime pointermarker
Ġass uan
p state
Ġvoidfunctionmarker dev
tpointermarker num
ot ext
Ġa ck
sp if
infopointermarker intmarker
dict pointermarker
Ġcairo set
Ġparser pointermarker
chk intfunctionmarker
Ġsys log
Ġiwl mvm
Ġtclo k
Ġintfunctionmarkermpi chkintfunctionmarker
get app
error log
space s
Ġco eff
exp ir
tail q
13 4
Ġvoidfunctionmarkergo isplugin
Ġintfunctionmarkershsintfunctionmarkerintfunctionmarker bitmask
t unsigned
Ġintfunctionmarker ca
intfunctionmarkerintfunctionmarker vtblintfunctionmarkerintfunctionmarkerecerevmethodidecerenamespaceecere
Ġgstobject unlock
pan ed
Ġintfunctionmarkerin intfunctionmarker
Ġq action
table size
pkix pl
elay out
resid ue
Ġintfunctionmarkerlibcerror runtimeerror
str t
el apsed
string append
am sg
instanc etpointermarker
le lem
Ġvoidfunctionmarker spinunlock
Ġk nown
b old
b sd
node structpointermarker
Ġo gre
Ġmp g
constant s
Ġattr s
Ġfloatfunctionmarkerfloatfunctionmarker float
untime pointermarker
Ġpow ersupply
h ere
un aligned
re cptr
siz ex
db c
start ing
Ġlog info
Ġjo urnal
Ġjpeg component
buddy pointermarker
Ġgbyte arraypointermarker
Ġpointermarker get
Ġsh m
internal pointermarker
ifi ed
Ġgslist prepend
Ġmpfr set
Ġgtkcontainer add
Ġveh icle
g ent
pointermarker a
stru ment
Ġpointervoidfunctionmarker else
Ġgit ref
creat et
Ġintfunctionmarkeris csit
Ġget current
Ġdis p
runtime intfunctionmarker
Ġintfunctionmarkerqstring intfunctionmarkerintfunctionmarkeraintfunctionmarkerintfunctionmarker
Ġpointervoidfunctionmarkerelse pointervoidfunctionmarker
si structpointermarker
voidfunctionmarkervoidfunctionmarker s
break point
medi apointermarker
Ġwindow marker
Ġgio channel
h om
Ġvoidfunction svoidfunctionpointermarkervoidfunctionmarker
ans ion
result intfunctionmarker
Ġgit config
Ġm time
Ġv fs
Ġif u
check box
Ġcomp ression
emit ctxvoidfunctionpointermarker
Ġs am
men us
atom voidfunctionmarker
cstr intfunctionmarker
Ġtyp ename
Ġhw loc
wire less
k control
Ġvoidfunctionmarker vasn
ad getpointermarker
Ġd ct
dex ec
Ġk s
msg type
Ġch r
df b
display name
stop voidfunctionmarker
Ġatomic readstructpointermarker
Ġsusp end
ret intfunctionmarker
Ġ3 600
Ġfoc us
char intfunctionpointermarker
Ġf cp
pr ite
ad au
set id
sh if
Ġr fm
up port
path voidfunctionpointermarker
Ġical componentpointermarker
Ġintfunctionmarker put
var tpointermarker
real m
Ġarg us
fl err
Ġvector pointermarker
en sa
structpointermarker b
Ġb luetooth
ap t
am b
params marker
Ġpkix p
dm cp
Ġdup licate
si mpl
Ġgst byt
pp ing
scale d
dattribut e
Ġintfunctionmarkerthe intfunctionmarker
z ard
en trie
Ġintfunctionmarker stdintfunctionmarkerintfunctionmarker
Ġh our
Ġr ide
Ġvoidfunction func
map set
sr oot
Ġpointervoidfunctionmarker ptr
Ġgvalue init
Ġba bl
x min
Ġvoidfunctionmarker sd
ed b
ser ase
Ġgtk dialogpointermarker
Ġvoidfunction gc
read write
res ul
Ġk url
Ġge os
gnc commodity
k free
set visible
Ġin crement
Ġop l
Ġper lio
Ġconf lict
Ġscsi qlahosttpointermarker
Ġipm is
b stract
f an
f ollow
h df
Ġ and
Ġg node
min er
voidfunctionpointermarkervoidfunctionmarker s
Ġcomp ress
get user
intfunctionmarkerintfunctionmarker xintfunctionmarker
error no
key intfunctionmarkerintfunctionmarker
Ġbon obodock
r out
Ġj a
destroy ed
Ġdev getdrvdatastructpointermarker
Ġintfunctionmarkerr ight
Ġatk objectpointermarker
Ġcharmarkerreturn charmarker
s se
er ature
Ġintfunctionmarker entryintfunctionmarker
Ġre peat
Ġvoidfunctionmarker request
op c
bo ost
cp lu
we en
limit s
Ġstructpointermarker var
Ġf usion
Ġtrans late
pointermarkert if
dev intfunctionpointermarkerintfunctionmarker
session marker
mac addr
datal ine
1 50
Ġstructpointermarker info
ad ix
Ġse ed
Ġconstmarker constmarkerconstmarker
list elementpointermarker
Ġh mdf
Ġun ix
Ġun defined
gr an
cre cpointermarker
iterator next
command line
build ing
Ġio objectpointermarker
pout put
alphab et
d entry
f close
str un
set pixel
intfunctionmarkerintfunctionmarker fintfunctionmarker
Ġis dn
button release
command structpointermarker
Ġar row
Ġpa use
Ġvoidfunctionmarkerorcvar s
Ġgsttime format
Ġc if
tr ight
context intfunctionpointermarker
lic ense
xx xx
compile pointermarker
1 80
7 9
b lo
x mit
tmarker intmarker
db handlepointermarker
device voidfunctionmarker
Ġglade propertypointermarker
byt edata
Ġgsttime args
Ġintfunctionmarkerconst intfunctionmarkermarker
Ġtokenmatch tokenpointermarker
j un
v sec
set sensitive
Ġcode c
ex on
ode coder
sh utter
Ġpar sed
Ġbyte sn
pub key
Ġgptrarray add
expi re
Ġcharfunctionmarkerchar charfunctionmarker
Ġintfunctionmarkertable intfunctionmarkerintfunctionmarker
nullpointer dereference
flaser codecpointermarker
Ġintfunctionmarker pk
Ġre size
pe lement
so c
enable structpointermarker
inode tpointermarker
Ġgpointer toint
Ġssl pointermarker
Ġmate wnck
on o
is active
Ġintfunction sizeintfunctionpointermarker
ix map
buf siz
Ġstructvariable structvariable
do s
pointermarkerpointermarker pointermarker
Ġit cl
y ou
err ts
Ġv string
ance stor
c we
gtk list
m ou
Ġvoidfunctionmarker max
add item
lab e
memory pointermarker
Ġdbus connection
Ġinst all
Ġintfunctionmarkerj intfunctionmarker
Ġstructpointermarker local
Ġf g
qu at
we ep
Ġglobus lgfs
sex pr
Ġmodel pointermarker
in verse
obj marker
file data
men ubar
store d
auth or
sel var
Ġgstelement class
iov len
Ġvoidfunctionmarker per
Ġcom po
timeout add
Ġmsg type
ereclassec erenamespaceed
Ġmca bt
Ġvoidfunctionf voidfunctionpointermarker
b racket
Ġc andidate
Ġl n
local t
Ġgra b
Ġintfunctionmarkerstatic intfunctionmarker
Ġpointervoidfunctionmarker elm
Ġgdk screenpointermarker
ident ify
stmt exprpointermarker
Ġplan pointermarker
x max
en a
Ġstructpointermarker mem
Ġvoidfunctionmarker te
Ġr reg
exp onent
Ġdis patch
Ġyy contextpointermarker
Ġint val
Ġintfunctionmarker from
si sempty
Ġs cs
ed ict
end b
image s
invalid intfunctionmarker
big endian
Ġgda connection
Ġintfunctionmarkerlibcerrorerrordomain runtimeintfunctionmarker
p set
data i
sc l
Ġvoidfunction key
ptr voidfunctionpointermarkervoidfunctionmarker
Ġreg ex
Ġcy cle
a ke
str tok
Ġre load
Ġm nt
Ġle g
car rier
graphic spointermarker
Ġintfunctionmarkerfn intfunctionmarkerintfunctionmarker
0 9
iv es
dex ception
Ġerr ore
Ġjs valpointermarker
Ġpa inter
plan es
Ġplan nerinfopointermarker
Ġvoidfunctionmarkerx voidfunctionmarker
Ġlistforeachentry safestructpointermarker
Ġconstrtx marker
e args
z ation
to lower
Ġread lstructpointermarker
Ġsi mp
Ġsymbol pointermarker
Ġlin ux
get array
obj s
obj voidfunctionmarker
write voidfunctionmarker
Ġpr false
Ġgdk rectangle
rel se
encrypt ed
Ġvoidfunctionmarker snd
key value
item intfunctionpointermarker
Ġstdstring npos
fz contextpointermarker
pear ance
f sh
ow ait
of x
ation voidfunctionmarker
queue head
Ġfs ck
Ġstructpointermarker int
pe s
word intfunctionmarker
ql atin
trans f
eter min
id intmarker
str ipe
Ġl seek
node set
Ġgst plugin
key sym
sa uth
move s
Ġdi co
Ġmo idtpointermarker
Ġba con
Ġwas p
Ġecoree vas
Ġclassert git
re view
Ġstructpointermarker active
Ġs ou
list foreach
Ġh sizet
Ġr om
not supported
Ġgit tree
registr ation
graphic ssc
loper ation
Ġintfunctionmarker stateintfunctionmarker
Ġt oc
chooser pointermarker
Ġafr selfheal
Ġ ite
bo ur
Ġlist tpointermarker
Ġpr im
Ġintfunctionmarkerlist intfunctionmarkermarker
Ġvoidfunctiontmp voidfunctionpointermarker
s array
Ġ0 3
Ġen em
control lerpointermarker
Ġvoidfunctionmarkervoidfunctionmarkervoidfunctionmarker cwe
Ġle af
scope pointermarker
cair otpointermarker
Ġvoidfunctionmarkerdbd got
g z
voidfunctionmarkervoidfunctionmarker key
ht able
Ġpy tuple
Ġgdate pointermarker
h mac
Ġstructpointermarker user
an ic
flag intfunctionmarker
test case
Ġpix buf
system intfunctionmarker
Ġpag er
Ġre pl
list count
db intfunctionmarker
Ġpur ple
f ord
t f
Ġh fi
Ġvoidfunction fn
Ġj av
Ġ2 1
gr ant
lin enum
Ġmpeg t
literal svoidfunctionmarker
sas l
ch a
Ġintfunctionmarker ext
file format
style d
pw m
Ġatt ack
voidfunctionmarkervoidfunctionmarkersizeof voidfunctionmarkervoidfunction
i alog
q ry
list length
size pointervoidfunctionmarker
Ġgtk menu
Ġk html
no err
record s
Ġcor rect
Ġintfunctionmarker path
Ġde g
Ġin fd
stack voidfunctionmarker
af fi
shr ink
string const
up d
array intfunctionpointermarker
com ma
class id
ab c
vector s
offset s
Ġque st
messag enew
Ġfopen charpointermarker
countpointermarkerrcountpointermarkerrcountpointermarkerrcountpointermarkerr countpointermarkerrcountpointermarkerrcountpointermarkerrcountpointermarkerr
thunk pos
Ġintfunctionmarker compar
scr dma
full y
Ġu failure
Ġpointervoidfunctionmarker res
Ġmp limb
Ġsub ject
hy brid
lout put
Ġswig type
b size
is or
voidfunctionmarkervoidfunctionmarker namevoidfunctionmarker
Ġi pr
Ġtr a
stat edatapointermarker
Ġstart pos
sol ve
Ġexpi re
Ġb or
ge mpty
ca ccount
cr lf
option svoidfunctionmarker
tuple s
rule pointermarker
n intmarker
n ume
at en
Ġstructpointermarker ma
Ġn a
get state
Ġvoidfunction user
text ctrl
Ġbit set
Ġaf ter
Ġgnet property
sour cel
ue vent
Ġgli bustring
2 25
tr oot
set opt
ob server
cs um
fx mlout
Ġstdvector stdstring
Ġgel matrix
Ġgar con
Ġg db
de ps
debug fs
Ġpro vid
Ġdat as
intfunctionmarkerintfunctionmarkerh intfunctionmarker
d voidfunctionmarkervoidfunctionmarker
tr ash
free isltakepointermarker
Ġy et
Ġgit commit
version intfunctionmarker
entries intmarker
me sa
Ġa ble
const pointervoidfunctionmarker
button voidfunctionmarker
Ġdev info
Ġper iod
Ġwait for
d id
if r
Ġa es
sc pointermarker
point size
Ġaj debug
y e
de mod
Ġp data
buf structpointermarker
ph ash
sto reappend
tran sient
Ġsvns wig
on es
Ġstructpointermarker src
Ġvoidfunctionmarker handlervoidfunctionmarker
get r
set item
for ced
Ġlog msg
Ġpl ane
s st
le pointermarker
Ġin str
io error
left voidfunctionmarker
Ġdoc umentpointermarker
Ġvoidfunctionmarkerself voidfunctionmarker
Ġb cf
ma ction
ll x
ne igh
Ġgi op
items pointervoidfunctionmarker
iss ue
Ġck y
s sign
stru x
get root
pointervoidfunctionmarkerpointervoidfunctionmarker i
Ġce page
g gest
me ms
Ġb k
iv ector
Ġh z
ig gle
voidfunctionmarkervoidfunctionmarkervoidfunctionmarker pointervoidfunctionmarker
gd al
Ġgda connectionpointermarker
Ġtix ml
Ġfuncleaveno apiretvalue
pointer voidfunctionmarkervoidfunctionmarkervoidfunctionmarkerpointervoidfunctionmarker
voidfunctionmarkervoidfunctionmarker x
Ġe cho
block sintfunctionmarker
Ġgs lice
Ġclutter gst
Ġsoup session
Ġmutexunlockstructpointermarker mutex
proj ection
Ġc db
Ġo idpointermarker
buffer intmarker
Ġline ar
xt ension
Ġbytes read
recur sive
Ġglobusgram jobmanager
Ġg sizepointermarker
Ġn read
Ġgst decode
Ġsizeof u
Ġge elink
Ġgwy graph
Ġgclear object
Ġecoree vent
s lock
Ġs lo
is dir
Ġv endor
sem antic
Ġgee priority
Ġecere propecerenamespaceecere
id bg
si an
si unit
add widget
callback intfunctionmarker
Ġintfunctiontintfunctionpointermarkerintfunctionmarker slot
i ode
marker add
Ġg sequence
et imer
Ġintfunctionmarker tree
Ġintfunctionmarker shm
mark pointermarker
Ġ6 3
Ġcamel mime
Ġoo h
remo vec
Ġmrpt utilsc
Ġislbasic set
Ġb atch
Ġe ps
ptr tpointermarker
Ġbo xpointermarker
Ġgs fxmlout
sl ink
gb datapointermarker
Ġot fw
scli entpointermarker
Ġdialog datapointermarker
Ġevase vent
de letion
pr c
Ġs sd
type string
ime sh
Ġesl sq
intfunctionmarkerintfunctionmarkerecere propecerenamespaceecereguiwindowgetmaster
pick ler
Ġg ps
Ġconstmarker intmarker
event handler
group voidfunctionmarker
Ġcomple tion
Ġcpu freq
snam etpointermarker
g ather
Ġpro j
3456 78
pointermarker int
Ġg settings
sh own
io cb
sn et
sl inux
cache entry
Ġvtk imagedata
Ġgit reference
vr h
Ġshared ptr
gs pointermarker
timer voidfunctionmarker
Ġexit exitfailure
pixel pointermarker
Ġmalloc intmarker
Ġgedit filebrowser
Ġintfunctionmarkerarray intfunctionmarker
Ġobjcmdr q
s info
Ġintfunctionmarker input
get last
alloc voidfunctionmarkervoidfunctionmarker
progra mpointermarker
Ġgvalueget boolean
virq fd
l ane
Ġd map
null pointervoidfunctionmarker
sm sc
Ġcore layer
Ġintfunctionmarkerecereclassecerenamespaceeceresys fileintfunctionmarkerintfunctionmarker
Ġeslo k
read data
Ġdd managerpointermarker
Ġgflog warning
Ġstructpointermarkerdev private
messaget ype
charfunctionmarkermarker charfunctionmarker
pointermarker height
re siz
Ġ2 6
Ġo verride
cre w
default s
tab intmarker
Ġintfunctionmarkerbool intfunctionmarker
q i
log g
au d
inser tion
Ġintfunctionmarkersizeofintfunctionmarkerintfunctionmarker structintfunctionmarkermarker
Ġgupnp service
Ġa y
he st
Ġtree chain
Ġdi rent
pg resultpointermarker
bot h
Ġclock s
datad ir
Ġgsttag listpointermarker
int ype
err none
is zero
map marker
Ġq sort
cre ator
config recpointermarker
ab i
number marker
Ġsnd kcontrol
Ġopal output
Ġhal f
pointermarkerintpointermarker pointermarkerintpointermarker
Ġintfunctionmarker dbg
Ġget attr
sn ot
Ġcairop attern
c xt
Ġstructpointermarker cb
Ġn h
val intmarker
Ġr out
value intmarker
ip ath
open file
reserv ation
jv u
marker m
Ġvoidfunctionmarker userdatavoidfunctionmarker
Ġx a
Ġin p
dev as
addr voidfunctionpointermarker
Ġseg mentpointermarker
xlator tpointermarker
Ġintfunctionmarker mail
Ġvoidfunction objvoidfunctionpointermarker
config dialogdatapointermarker
offset voidfunctionmarker
form pointermarker
aliz ation
Ġintfunctionmarkerg retl
Ġgnm rangepointermarker
Ġfm fieldpointermarker
Ġvoidfunctionmarkera voidfunctionmarker
Ġc mpi
Ġi att
Ġgst discover
xff ffff
Ġintfunctionctmp intfunctionpointermarkerintfunctionmarker
get activegtk
if lags
intfunctionmarkerintfunctionmarker last
Ġintfunction prng
Ġgst messagepointermarker
chan n
buffer length
volu mem
Ġpe as
Ġvoidfunctionmarkergtkwidget voidfunctionmarker
Ġcurle asy
Ġintfunctionprng intfunctionpointermarker
in file
ut ype
Ġgtk tool
Ġop timi
real marker
vide ow
Ġflm bytepointermarker
tou ser
Ġvaend ap
edirect ory
z intfunctionmarker
on block
al ty
Ġun pack
db e
Ġup load
datat racker
Ġdat an
ready callback
Ġ2 8
Ġget name
Ġcpl table
p cr
Ġst andard
par allel
Ġvoidfunction err
alloc no
term ine
Ġmanager get
s charmarker
Ġf ort
Ġe sourc
Ġun register
node get
output tpointermarker
Ġgn ms
Ġtest and
Ġfirst child
stri ction
lowmarker bddnode
w ater
ct ex
id intfunctionmarkerintfunctionmarker
voidfunctionmarker voidvoidfunctionmarker
io stream
Ġlist nodepointermarker
Ġstructpointermarkerstructpointermarker intmarker
direct ories
Ġmpfrrnd n
s ar
Ġg cp
Ġg printerr
set attribute
mo lec
Ġpar tial
Ġcurrent time
ha zard
Ġgkm secret
fold erpointermarker
idat atype
Ġintfunctionmarker log
log gerpointermarker
Ġo cr
Ġk now
Ġcores urface
errts se
re lay
se qual
Ġp list
eg ion
double voidfunctionmarker
Ġaj listiter
Ġhe im
quir rel
Ġpoly gon
Ġway pointpointermarker
Ġ ray
Ġintfunctionmarker sub
Ġsys fs
driv erpointermarker
x i
Ġintfunction in
Ġcl utt
Ġthis m
sg l
pub lish
a z
k id
buff ree
de cal
Ġcl one
valu ation
Ġgstbase parse
keyword s
Ġpass wd
Ġvoidfunctionvoidfunctionvoidfunction datavoidfunctionvoidfunctionvoidfunctionpointermarker
Ġvoidfunctionmarkerorcprogramadd sourcevoidfunctionmarker
destination voidfunctionmarker
Ġintfunctionmarkerbuffer intfunctionmarker
toul charpointermarker
si sl
Ġf get
Ġb ank
ap intfunctionmarker
ctx intfunctionpointermarker
Ġapr poolt
place ment
asc i
prim itiv
trig g
Ġresourc etpointermarker
g host
re fix
Ġif x
Ġen ough
bitsintfunctionmarker out
Ġgslist next
Ġbn xt
Ġmatrix pointermarker
Ġpys sizetmarker
alibr ation
Ġwchar tmarker
demuxer contexttpointermarker
Ġd data
Ġout file
interpol ation
pointermarker null
ch ro
Ġintfunctionmarker write
get config
Ġi e
Ġintfunction listintfunctionpointermarker
Ġintfunction fileintfunctionpointermarker
fro zen
g as
y r
Ġstructpointermarker total
size o
Ġvoidfunction data
Ġk mo
Ġgs licenew
mm cp
sem ble
Ġsr v
operation s
Ġre loc
Ġi end
free struct
Ġad verti
meta pointermarker
updat ec
specifi ed
Ġphp stream
Ġrangetblen trypointermarker
de activate
Ġstructpointermarker pos
ss r
py none
sd nodepointermarker
Ġ9 0
Ġirq handled
Ġnemo filepointermarker
ln k
Ġstructpointermarker path
Ġi a
arg stpointermarker
Ġop aque
Ġstat etpointermarker
typ en
Ġjs contextpointermarker
Ġad j
comb ine
Ġnil fs
Ġvoidfunctioncmd pvoidfunctionpointermarker
sampl ing
a marker
p cre
re at
Ġc gi
ex cl
node type
es l
Ġvoidfunctionmarkerg wy
wait structpointermarker
Ġtcl error
out structpointermarker
ir d
left intfunctionmarker
Ġdat at
ctxt ptrmarker
valist voidfunctionmarker
f all
Ġintfunctionmarker match
Ġvoidfunctionmarker ofvoidfunctionmarker
Ġend of
Ġctx t
Ġgcr itical
mp ut
key down
min max
py x
target pointermarker
Ġscr atch
Ġintfunctionmarkergit strmap
dialogr un
n z
Ġt sp
Ġpointer krb
Ġi ob
map intfunctionmarker
Ġstructvariable intmarker
Ġvoidfunctionmarkerg dk
Ġac ct
messaget pointermarker
Ġsol ver
Ġvoidfunctionmarker nextvoidfunctionmarker
Ġp sz
ff lags
par ity
Ġin vert
voidfunctionpointermarkervoidfunctionmarker intvoidfunctionmarker
track pointermarker
Ġmemory n
Ġdefined have
Ġgdbus connectionpointermarker
Ġgtk entrypointermarker
bit spointermarker
Ġpro gra
Ġos info
Ġradeon device
con su
Ġe cell
Ġh o
Ġq h
sub tract
Ġal bu
Ġlib cerror
Ġb an
key id
cp ath
Ġpr info
Ġout er
v ity
get index
Ġe h
Ġsndpcm hw
marker i
Ġpri mary
Ġvastart ap
Ġintfunctionmarker pos
Ġvoidfunctionmarker mb
Ġintfunction g
Ġvoidfunction itemvoidfunctionpointermarker
Ġget timeofday
ev f
Ġmpeg enccontextpointermarker
Ġs ce
able structpointermarker
byte order
cs d
b race
vo ic
Ġg mutexlock
Ġintfunctionmarker addr
Ġf at
tpointermarker charpointermarker
ss dbind
Ġe smartdatapointermarker
Ġical component
Ġgsignalhandlers disconnect
Ġc sl
cm box
ali se
Ġper cent
Ġgk d
Ġfre elist
Ġxmp p
itempy objectpointermarker
Ġstructpointermarker file
ref intmarker
Ġen sure
Ġat l
modifi ers
tre erow
Ġeew s
mainglobal paramspointermarker
d g
h sp
Ġintfunctionmarker enomemintfunctionmarker
voidfunctionmarkervoidfunctionmarker voidvoidfunctionmarker
Ġgtk messag
Ġx event
ip mi
Ġgd amet
path intfunctionpointermarker
Ġmulti ple
Ġdnsr dataset
structpointermarker data
dat et
Ġgtk buttonpointermarker
trans parent
Ġdev m
Ġtime val
resol ved
v nc
or bit
Ġst age
Ġi pointermarker
check ing
resol v
Ġdvb frontend
re map
sc nt
not supp
page intfunctionmarker
Ġgn l
Ġpl arenapoolpointermarker
Ġgoo stringpointermarker
Ġglu i
able voidfunctionmarker
Ġunsigned rmarker
node pointervoidfunctionmarker
structvariable stmode
top intfunctionmarker
Ġapr p
Ġc sv
Ġvoidfunctionmarker buf
get window
Ġgd keventpointermarker
reply pointermarker
u reg
Ġintfunctionmarker itemintfunctionmarker
Ġvoidfunctionmarker valistvoidfunctionmarker
box es
contact list
Ġvoidfunctionmarkervoidfunctionmarkerif voidfunctionmarkervoidfunctionmarker
re write
Ġg regex
th andle
Ġth ise
env intfunctionpointermarker
lex ec
etype marker
voidfunctionmarkervoidfunctionmarker f
string intfunctionpointermarker
time zone
app pointermarker
br k
sen devent
ib ble
Ġdec imal
Ġd if
Ġpointervoidfunctionmarker itemspointervoidfunctionmarker
Ġat o
Ġev ppkey
pointervoidfunctionmarkerpointervoidfunctionmarker n
reach ed
0 20
Ġvoidfunctionmarker py
iv ide
ta gname
sn ippet
overlay pointermarker
e ch
e ight
it al
li ke
sizeof intfunctionpointermarkerintfunctionmarker
ore m
ass copy
font size
Ġtrans lation
mk dir
Ġvoidfunctionmarkerhtonlvoidfunctionmarkervoidfunctionmarker fw
set from
Ġgt l
panel pointermarker
assembl er
c info
i as
Ġstructpointermarker arg
Ġp al
Ġde faul
clo bj
Ġpci readconfig
Ġnl m
Ġgladewidget adaptorpointermarker
d ptr
l ing
re plac
Ġt z
data floatfunctionmarker
msg error
height intfunctionmarker
Ġdrm error
Ġvoidfunctionmarkerr vvoidfunctionmarker
Ġvoidfunctionmarkerunsigned voidfunctionmarkermarker
Ġjpegcomponent infopointermarker
b re
i intfunctionmarkerintfunctionmarker
k ip
p lotpointermarker
Ġp aget
th d
stat use
key eventpointermarker
pos intmarker
Ġset sockopt
Ġgstr t
inf adopted
delta pointermarker
Ġtool bar
Ġ only
Ġlist next
Ġregisterpointermarker vsbase
Ġjson objectpointermarker
Ġipm ioem
gnot ice
Ġpytype objectpointermarker
Ġvtkerror macro
s j
s db
Ġvoidfunctionmarker listvoidfunctionmarker
Ġs sb
Ġw p
Ġse coid
Ġcurrent function
ar es
Ġintfunction i
time intfunctionmarker
channel voidfunctionmarker
work queue
Ġgfile info
Ġpng ptr
Ġtuple tableslotpointermarker
poption spointermarker
er eturn
Ġvoidfunctionmarker structvoidfunctionmarkermarker
Ġvoidfunctionmarker indexvoidfunctionmarker
Ġp ip
th andler
Ġr cbad
init ed
Ġgn elements
Ġoperator const
Ġintfunctionmarker algo
get point
fa br
ver bo
Ġfor intpointermarker
fn intfunctionpointermarker
Ġmono jit
enc seqpointermarker
manager tpointermarker
Ġintfunctionmarkerdb tintfunctionmarker
Ġvoidfunctionmarkerva endvoidfunctionmarker
3 000
Ġ ang
Ġstructpointermarker target
Ġvoidfunction priv
12 0
mer ged
Ġmono aot
pd upointermarker
Ġdat etime
descr pointermarker
e me
Ġint n
Ġvoidfunctionmarker rb
ca ct
ecere pointer
Ġar phy
ln if
Ġprintkkern info
gate way
ework space
c as
i list
co k
Ġb eg
float ing
Ġstructvariable type
packet type
Ġpk backend
Ġprintkkern warning
Ġomap iobject
sinaddr saddr
Ġclasserte qual
g intpointermarker
Ġintfunctionmarker src
sp voidfunctionmarker
Ġk malloc
hash voidfunctionmarker
Ġgl int
encoding pointermarker
mk zalloc
Ġgoocanvas itempointermarker
Ġda emon
ifail ure
b roadcast
Ġintfunctionmarker seq
Ġvoidfunctionmarker callback
Ġn an
Ġp cap
intfunctionmarkerintfunctionmarker err
add action
ti st
ere lementpointermarker
instance get
Ġfl container
ug ht
Ġglf w
g ff
re play
str intmarker
Ġstructpointermarker event
ot ate
Ġl num
Ġq script
stat istics
intfunctionpointermarkerintfunctionmarker n
Ġpr of
red it
Ġmin imum
Ġgvalue getstring
Ġdx plid
havi or
8 22
Ġvoidfunctionmarker reg
Ġvoidfunction objectvoidfunctionpointermarker
ve ment
ag on
send message
host intfunctionmarker
Ġpg getarg
chip structpointermarker
Ġedicttpointermarker client
guicontrolsbutton intfunctionmarkerintfunctionmarker
Ġsndsocd aif
Ġvoidfunctionmarker fmt
co ption
len ew
out buf
return value
iter tpointermarker
Ġj it
child pointermarker
child voidfunctionmarker
Ġarg list
iss pace
hi erarch
e de
re vent
re quisition
Ġvoidfunctionmarker itervoidfunctionmarker
voidfunctionmarkervoidfunctionmarker ivoidfunctionmarkervoidfunctionmarker
addr s
parent intfunctionpointermarker
Ġgdk draw
Ġtrans ition
dimension s
un ary
id tmarker
Ġintfunctionmarker init
Ġt ol
intfunctionmarkerintfunctionmarker k
fo ffset
as pect
gtk pointermarker
socket intfunctionmarker
split ter
Ġajp seq
Ġajp strpointermarker
in q
Ġintfunctionmarker offsetintfunctionmarker
ex ch
Ġif ace
dir voidfunctionmarker
Ġsi f
remove structpointermarker
odev ic
Ġsis dir
y namic
Ġ ou
re do
writ ing
Ġintfunctionmarkerf li
Ġzend hash
Ġpdf objpointermarker
loglog warning
Ġtht ensor
e ol
ig roup
color marker
cc d
pad s
Ġgamg is
structpointermarker p
mail streampointermarker
eread only
Ġcommand linemarker
Ġglobus gfs
guicontrols list
properti e
Ġvoidfunctioncmd voidfunctionpointermarkervoidfunctionmarker
s it
fun ce
Ġc ifs
Ġgst bin
Ġlog message
Ġinit i
encode d
mo vec
Ġpointercharfunctionmarker ipointercharfunctionmarker
Ġpre pare
ca ction
lex erpointermarker
Ġgraph ics
Ġbignum digit
po ver
Ġun wind
off s
Ġpage shift
compare func
Ġv asy
as a
Ġq ed
message voidfunctionmarker
Ġintfunctionmarkerreturn valintfunctionmarker
align voidfunctionmarker
Ġclutter text
Ġintfunctionm intfunctionpointermarkerintfunctionmarker
gretl matrixpointermarker
Ġxvec exp
c cache
in side
un block
ur is
Ġvoidfunctionmarker portvoidfunctionmarker
ec ap
Ġin b
time voidfunctionmarker
filename intfunctionmarker
sock fd
done intfunctionmarker
Ġinf optr
pmp x
d tpointermarker
h or
Ġe lementpointermarker
mem o
db lk
io read
buffer get
aut oneg
canvas item
Ġoc sp
Ġwidget datapointermarker
apple tpointermarker
Ġgstcamerab in
pointermarker state
al iv
Ġintfunctionmarker endintfunctionmarker
Ġvoidfunctionmarker conv
Ġf amily
set op
buffer intfunctionmarker
func statepointermarker
ud c
foc used
Ġgvariant unref
Ġisspace charpointermarker
Ġgtktreeviewget model
numa pointermarker
Ġvoidfunctionmarker ctxvoidfunctionmarkervoidfunctionmarker
buf s
Ġcom b
Ġp icture
pe cifi
Ġe eprom
Ġh ot
di ren
next sibling
button intfunctionpointermarker
Ġvoidfunctionmarkervoidfunctionmarkervoidfunctionmarker good
Ġal ert
Ġisl int
Ġgnm floatpointermarker
sent inel
Ġcms ystem
upp licant
len gine
Ġh fsp
Ġgst a
db gs
view voidfunctionmarkervoidfunctionmarker
Ġgs m
Ġkey len
Ġsnd rv
Ġpng structpmarker
uff le
i charfunctionmarker
Ġintfunctionmarker slurmdb
tr marker
Ġm sb
Ġec normal
region s
sto ol
floatmarker array
qp voidfunctionmarkervoidfunctionmarker
gdi ctx
radi obutton
Ġgdadatamode lpointermarker
Ġcamelfold erpointermarker
Ġbraserofilen odepointermarker
Ġa ac
module t
Ġfr ont
Ġmutexunlock structpointermarkerlock
Ġ40 96
Ġg al
Ġvoidfunctionmarker strlen
Ġvoidfunction ret
ver ity
map size
sp erson
met er
addr len
per sist
Ġgascii strcasecmp
c df
Ġc sio
pro cpointermarker
Ġif get
read dir
valid ation
Ġlo ct
Ġgtassert gt
Ġvoidfunctionmarkerthis voidfunctionmarker
Ġm sn
list iterate
name marker
pro of
Ġdi ctionary
gt t
por ta
1 40
Ġvoidfunctionmarker void
Ġvoidfunctionmarkergfarm errorstring
Ġdrmintel bo
Ġvoidfunctionmarkergfarmerrno errorvoidfunctionmarker
Ġp en
err x
Ġvoidfunction d
Ġif n
valid ity
page voidfunctionmarker
match pointermarker
Ġap log
Ġgsb data
Ġafrselfheal tpointermarker
o a
de war
Ġf lip
ode coderpointermarker
Ġfile size
intfunctionpointermarkerintfunctionmarker extensionintfunctionmarker
req pointermarker
Ġgl p
Ġclass pointermarker
Ġcat alog
pgen p
Ġg oplugin
ss cm
err invalid
Ġa z
data pointervoidfunctionmarker
Ġh f
Ġz u
Ġla me
car et
spath intfunctionmarker
Ġkzalloc sizeofstruct
5 8
er red
in herit
Ġc amera
Ġre ject
pe erpointermarker
Ġconst cast
voidfunctionmarkervoidfunctionmarker pvoidfunctionmarker
Ġin s
to s
cap tion
Ġcar ry
strn cpy
structpointermarker base
Ġintfunctionmarker sp
Ġvoidfunctionmarker find
Ġn xt
Ġf os
lay list
table entry
Ġen crypt
Ġlog file
Ġpre par
Ġgtktext view
interrup ts
emon ic
Ġlex statepointermarker
Ġ privat
th ist
Ġun der
Ġq widget
Ġex cel
Ġnew line
Ġsock lent
Ġcor rupt
Ġelf internal
two intsstruct
quirrel vm
e cho
m port
m irror
Ġt da
th rot
sc at
dex it
dev pointermarker
Ġdoublepointermarker i
Ġstd stringpointermarker
resource pointermarker
worker tpointermarker
Ġplres managerpointermarker
x fe
structpointermarker r
set object
set drvdatastructpointermarker
unlock ed
ie f
Ġtem porary
Ġintfunctionmarker file
Ġintfunctionmarker freeintfunctionmarkerintfunctionmarker
Ġintfunctionmarker chance
Ġstructpointermarker bus
Ġstructpointermarker bt
Ġintfunction db
Ġdis card
cover age
gobject gtkwidgetpointermarker
Ġgslice free
is y
voidfunctionmarkervoidfunctionmarker intvoidfunctionmarkermarker
Ġi path
do ff
msg intfunctionpointermarker
Ġz d
Ġbr w
frag mentpointermarker
Ġecerenamespaceecere com
Ġgog axis
arect angle
Ġd ent
ma ssert
di al
buf intfunctionmarkerintfunctionmarker
Ġfor mpg
shadow pointermarker
Ġneg ative
e core
un checked
Ġg res
Ġg app
Ġvoidfunctionmarker prev
voidfunctionmarkervoidfunctionmarker nullvoidfunctionmarker
result tpointermarker
signal handler
Ġprint line
s length
per f
parse values
sig set
Ġbraser odr
Ġcd db
gtktree pathpointermarker
orith m
imp licit
Ġintfunctioncallback intfunctionpointermarker
Ġvoidfunctionmarker error
Ġvoidfunctionmarker infovoidfunctionmarkervoidfunctionmarker
op type
Ġa wrootpointermarker
Ġv ag
Ġx k
Ġlist entrystructpointermarker
Ġmono object
Ġad io
vis itorpointermarker
Ġgeetree set
Ġintfunctionmarkerflxintfunctionmarkerintfunctionmarker win
Ġguest fs
vo bject
Ġd block
Ġb ot
Ġintfunction stack
null voidfunctionmarkervoidfunctionmarkervoidfunctionmarker
Ġth r
mage pointermarker
Ġgstr tcp
Ġdat ad
Ġxlatortpointermarker private
Ġintfunctionmarkers intfunctionmarkermarker
addres ses
Ġvoidfunctionmarkergtkwidget show
po o
str val
Ġc fun
lo ption
Ġcharpointermarker null
bu int
voidfunctionmarkervoidfunctionmarker scp
ptr voidfunctionmarkervoidfunctionmarker
fil eref
Ġfor c
interface s
constmarkerconstmarker constmarkerconstmarker
Ġgstelement classpointermarker
wild card
col lation
ath x
num of
Ġen ame
Ġvoidfunctionmarkerg assert
address intfunctionmarker
be h
payload intfunctionpointermarker
Ġgmain loop
v port
Ġg row
Ġintfunctionmarker old
Ġre iser
reg ular
time line
Ġqu ick
Ġbuff erevent
term marker
subst it
enomem voidfunctionmarker
d structpointermarker
e valuate
h n
r an
ct s
Ġintfunctionmarker start
si l
Ġb rowser
Ġp ly
Ġtr ip
Ġuint n
sizeof charmarkerarray
sr s
Ġar loglog
lex token
extension s
Ġnetsnmp variable
tou int
Ġfuncenternoap ino
d name
add voidfunctionmarkervoidfunctionmarker
Ġret code
send structpointermarker
Ġref pointermarker
Ġpc idevice
Ġgdbus messagepointermarker
ende lement
Ġgeehash mappointermarker
Ġg ret
Ġintfunctionmarker co
Ġs ampler
Ġp pp
Ġp vr
Ġt own
err pointermarker
queu et
Ġtclobj pointermarker
i et
Ġintfunctionmarker invalidintfunctionmarker
Ġstructpointermarker context
Ġs info
Ġh u
Ġid edrivetpointermarker
Ġdev warn
Ġgtype int
Ġlibcerrorerror domain
b ss
g uess
tr r
Ġw ave
sen able
go al
Ġbuffer head
Ġgslist append
Ġemit insn
Ġxeventpointermarker x
qualifi ed
h v
Ġvoidfunctionmarker emit
set label
return pointermarker
num entries
Ġjson nodepointermarker
Ġcut test
Ġgassertcmp int
id intfunctionpointermarker
th ickness
000 1
Ġbad cast
Ġvoidfunctionmarkerf voidfunctionmarker
Ġcert certificatepointermarker
Ġvoidfunctionself voidfunctionpointermarker
Ġintfunctionmarkerpgno intfunctionmarker
po le
Ġintfunctionmarker client
Ġp set
ob mol
intmarker charpointermarker
func intfunctionpointermarkerintfunctionmarker
Ġreg istr
Ġco g
gtk box
Ġfl popup
Ġfflush stdout
stribut ion
Ġvoidfunctiongc closureswap
g fire
Ġ ali
char voidfunctionvoidfunctionvoidfunctionpointermarker
Ġvoidfunctionmarker spinlock
get code
Ġxml schema
pm c
target s
prog res
oute pointermarker
Ġbdd nodepointermarker
gfm servervoidfunctionmarker
ul at
Ġintfunction args
so filepointermarker
Ġpointervoidfunctionmarker argpointervoidfunctionmarker
Ġpointervoidfunctionmarker nullpointervoidfunctionmarker
Ġdl g
Ġgstvide oformat
Ġvertex pointermarker
Ġgdi p
e ed
i h
s op
er ed
get tag
get position
set evasobjectpointermarker
ot ree
Ġl s
loc ator
line voidfunctionmarkervoidfunctionmarker
Ġalloc a
s max
le a
Ġdb t
stop structpointermarker
Ġio read
38 4
Ġworld packetmarker
Ġvoidfunctionmarkerorcprogramadd destinationvoidfunctionmarker
protect ed
Ġanim ation
Ġauthentic ation
Ġvoidfunctionvoice voidfunctionpointermarkervoidfunctionmarker
f ar
w structpointermarker
iv ity
bo k
Ġvoidfunction const
head voidfunctionpointermarker
Ġnext insn
serv ation
Ġvoidfunctionmarkerl voidfunctionmarker
Ġpan ic
w ep
Ġint egerpointermarker
Ġl to
gs ub
iterator tpointermarker
Ġslapi entry
sensor s
could nt
bookmark s
Ġnrr dpointermarker
pro gname
priv ile
field voidfunctionmarker
Ġread only
vol um
de ep
Ġw il
out line
cp er
Ġpar set
sl id
intfunctionmarkerintfunction d
Ġca pability
Ġoffset of
area pointermarker
imag eres
pointervoidfunctionmarkerpointervoidfunctionmarkerap funid
string buffer
Ġi second
ere lement
scal ing
Ġlua state
preply pointermarker
topform voidfunctionmarker
b ab
x r
type intfunctionpointermarker
Ġisl set
wl an
Ġdf ref
dele ter
an alog
voidfunctionmarkervoidfunctionmarker a
file descpointermarker
sa fp
Ġpl ci
protocol pointermarker
Ġla m
Ġintfunctionmarkersnd config
d obj
in p
in ct
et erpointermarker
lo st
string ptr
vi ct
sy ms
Ġz er
request structpointermarker
service s
tool pointermarker
usb dev
Ġauto pointermarker
d op
stat istic
Ġca lendar
Ġgerrorpointermarker domain
Ġtp connection
Ġgladexml nodepointermarker
Ġzmod polytmarker
st imer
Ġg dirpointermarker
Ġvoidfunctionmarker errnovoidfunctionmarker
Ġm data
Ġvoidfunction entryvoidfunctionpointermarker
Ġex ample
Ġlog err
Ġconnection marker
band width
Ġregisterpointermarkerregisterpointermarker vm
int egerpointermarker
get opt
color spacepointermarker
Ġ4 8
bitsintfunctionmarker int
gf id
Ġme ch
Ġgnm stylepointermarker
setup pointermarker
vol ution
Ġintfunctionmarkerv intfunctionmarker
Ġomp isuccess
Ġaff in
Ġmrptutilsc streammarker
f tr
Ġstructpointermarker input
tr n
Ġv lan
add child
Ġstring npos
Ġor ientation
acker ror
Ġvoidfunctionmarkerd st
voidfunctionmarkervoidfunctionmarkere voidfunctionmarker
upto date
on pointermarker
Ġl printf
Ġintfunction data
Ġsizeof buf
Ġfor mul
fin ite
open gl
Ġnautilus file
Ġlistdel structpointermarker
b ml
c ame
de vo
Ġintfunctionmarker call
log structpointermarker
param svoidfunctionmarker
instruction cpointermarker
Ġintfunctionmarkeriscsit x
on um
Ġn u
Ġchar intmarker
me sg
tpointermarker flags
sh ere
key event
Ġse curity
mo ck
bitsintfunctionmarker i
Ġcair ore
png ptr
Ġasc ii
Ġdeflate statepointermarker
re gnum
de liver
Ġs pointermarker
ex us
get struct
ic r
free void
Ġj objectmarker
delt at
Ġvoidfunctionmarkerin voidfunctionmarker
nest ed
Ġvoidfunctionmarkerstatevoidfunctionmarkervoidfunctionmarker s
Ġc df
Ġn ume
Ġb h
bitsintfunctionmarker return
ers ummary
Ġgfs domainpointermarker
Ġgasync readycallback
Ġgfx w
Ġnuma pointermarker
re ver
tpointermarker x
tpointermarker size
qu adr
fil sys
gen ew
phy structpointermarker
802 1
Ġgstobject lock
Ġvs check
enumer ate
f type
q object
st rength
Ġg socket
Ġt if
Ġintfunction handleintfunctionpointermarker
window intfunctionmarker
Ġwx stringmarker
Ġmono image
f value
la ff
Ġin ser
Ġk no
byte streammarker
status intmarker
Ġut ad
any midi
Ġpkix check
s index
structpointermarker id
Ġvalue pairpointermarker
transaction id
Ġrot ate
propagate error
e mail
Ġgtk allocationpointermarker
sa query
Ġex ceed
man ual
dialog pointermarkerpriv
Ġout free
pla ced
vtk information
Ġamd gp
Ġvoidfunctionmarkercsi omb
h ig
get integer
Ġe gl
ref nan
Ġgnm floatmarker
Ġback up
anymidi quirkintfunctionmarker
refnan ny
d ow
g type
i ms
l vl
v info
st dio
gtk browser
Ġdi odon
the ader
Ġof string
bv val
str ap
Ġd ime
ma st
Ġcair ot
voidfunctionpointermarkervoidfunction datavoidfunctionpointermarker
demux streampointermarker
Ġjson object
Ġvoidfunctionmarkerconv tablevoidfunctionmarker
en queue
Ġintfunctionmarker test
return voidfunctionmarkervoidfunctionmarkervoidfunctionmarker
alloc intmarker
Ġpointermarker voidfunctionmarker
msg voidfunctionmarkervoidfunctionmarker
Ġpng uint
norm alized
foot er
Ġintfunctionmarker voidintfunctionmarkerintfunctionmarker
Ġif gcharpointermarker
Ġstat u
Ġvoidfunctionmarkervoidfunctionmarkervoidfunctionmarker returnvoidfunctionmarkervoidfunctionmarkervoidfunctionmarker
activ stack
Ġpath pointermarker
Ġagn odetpointermarker
s add
de alloc
Ġintfunctionmarker opt
Ġp this
Ġstruct intfunctionmarker
Ġthis numberof
sys fs
Ġct pl
watch dog
wal ker
u ree
structpointermarker charpointermarker
Ġintfunctionmarker frng
group tpointermarker
fp voidfunctionpointermarker
gd kevent
Ġslurm error
Ġpyerr occurred
in ew
Ġintfunctionmarker lim
Ġre du
ptr intfunctionpointermarkerintfunctionmarker
Ġsc gam
Ġintfunctionmarkerf intfunctionmarker
filen am
Ġedit linepointermarker
Ġvoidfunctionmarker header
ver y
arg intfunctionmarkerintfunctionmarker
Ġget pid
Ġsizeof pointermarkerpointermarker
Ġmax size
war f
Ġpf prchelperpointermarker
Ġpri u
Ġgfarm errnoerror
k bd
Ġ mar
in ot
par mpointermarker
so ff
Ġprint ff
fx int
heap pointermarker
Ġmpi comm
iface pointermarker
pyexctype error
st ation
str m
Ġb box
intfunctionmarkerintfunctionmarker driver
time d
Ġtype def
Ġpr true
scan line
Ġjs object
Ġcpl free
sym tabpointermarker
Ġte ch
Ġgimpleassign rhs
Ġd ul
is ns
Ġgtk menush
ok voidfunctionmarker
proc intfunctionmarker
Ġstructpointermarkerd st
Ġpango layoutpointermarker
Ġhomemartynsourcecheckoutgnomet rackersrclibtracker
Ġf limagepointermarker
len intfunctionmarkermarker
arg doublefunctionmarker
Ġgn mp
Ġgstrdup gcharpointermarker
Ġsock stream
mult icast
Ġgtktreeselection getselected
printk kern
parentclass finalize
strn cmp
Ġintfunctionmarkercreate anymidiquirkintfunctionmarker
Ġintfunctionmarker unlikely
Ġd assert
bu ser
intfunctionmarkerintfunctionmarker voidintfunctionmarker
Ġst onith
add field
Ġtr ail
max x
Ġse p
Ġfloatfunctionmarker else
cc c
Ġgtkwidgetshow all
Ġcho ice
r h
er ate
Ġreturn error
get sub
ow g
info voidfunctionpointermarker
Ġq int
col ord
hash size
Ġpre view
igh tpointermarker
Ġpos sible
Ġeop notsupp
0 10
er x
Ġvoidfunctionmarker foreach
Ġvoidfunctionmarker defined
Ġm ud
ff ind
key type
Ġpo d
dialog intfunctionmarker
Ġgerrorpointermarker code
socket tpointermarker
ax es
Ġchild ren
Ġvari ant
Ġhead erpointermarker
Ġgamg icast
Ġvoidfunctionmarkersizeofvoidfunctionmarkervoidfunctionmarker structvoidfunctionmarker
Ġpref s
c mappointermarker
Ġintfunctionmarker handleintfunctionmarker
string length
Ġgtk menuitem
key marker
table entrypointermarker
Ġlib c
Ġer gore
Ġpub lic
v cpu
get content
err un
Ġr id
fd tpointermarker
Ġgstm ve
Ġstripe localtpointermarker
Ġfloatfunctionmarkerelse floatfunctionmarker
de mand
Ġintfunctionmarker current
Ġs un
Ġvoidfunction my
col lt
context get
intfunctionmarkerintfunction f
instance s
Ġsec asn
Ġpng byte
verti ce
communic ator
ivers al
f read
pointermarker last
Ġintfunctionmarker xfer
sp ush
fs ck
oup date
anel pointermarker
Ġlibcerrorerror set
Ġgstbasetransform pointermarker
d vd
n sec
pointermarker voidfunctionmarker
Ġi po
nd x
ac d
wh ole
Ġtime lib
Ġlr md
Ġtixmle lementpointermarker
Ġghashtabl eremove
Ġintfunctionmarkerchance intfunctionmarker
r atio
Ġintfunctionmarker cl
co ex
Ġvoidfunction ir
sr m
dn sr
Ġassert structpointermarker
direct ive
Ġmark up
pur ge
n ob
Ġstructpointermarker fmt
Ġd svec
Ġm box
Ġq size
Ġin flate
bl ind
Ġz mq
mutex intfunctionmarker
Ġet htool
failure intfunctionmarker
bignum pointermarker
et rack
Ġintfunctionmarker sqlite
Ġf lat
la zy
Ġun iv
stat stpointermarker
gtk container
order voidfunctionmarker
Ġpyx refnanny
descriptor tpointermarker
Ġhw lo
Ġgsfxml inpointermarker
l cp
v ram
po ch
Ġintfunctionmarker ofintfunctionmarker
di ction
Ġvoidfunction chainup
Ġcharmarker gf
Ġpy thread
own load
voidfunctionmarkervoidfunction voidfunctionvoidfunction
Ġout unlock
Ġintfunctionmarkerl ft
adv anced
Ġvoidfunctionmarkervtk imageres
Ġvoidfunctionchainup voidfunctionpointermarker
7 00
sc ii
cur ses
intfunction intfunction
Ġdisplay dpointermarker
Ġwe bp
Ġxt ensa
Ġmca bcol
Ġglobu ssuccess
p add
Ġst themen
Ġvoidfunctionmarkerev voidfunctionmarkervoidfunctionmarkerev
consum er
f time
l h
de tached
Ġde lt
name length
item t
Ġconstpointermarker intmarker
sd node
Ġvoidfunctionmarkerp n
Ġintfunctionmarkern memb
comment s
Ġre direct
Ġp lf
Ġpointervoidfunctionmarker struct
sub set
Ġglade projectpointermarker
Ġgeo clue
Ġevasobjecttext block
8 10
c stringmarker
m strue
w chartpointermarker
Ġf out
Ġs mtp
get ter
Ġm bb
Ġh da
Ġst a
bo ffset
64 4
Ġgdk rectanglepointermarker
exp anded
syn chron
files intfunctionmarkermarker
ctiv ate
promp tpointermarker
Ġanjutat okenpointermarker
p wa
Ġg test
de fa
de lf
voidfunctionmarkervoidfunctionmarker theenv
Ġbu il
Ġword listpointermarker
hs streampointermarker
Ġvoidfunctiongmarshalfuncvoid object
Ġvoidfunctionsrc voidfunctionpointermarker
Ġglusterdvol infotpointermarker
7 134
ar ies
pointer s
Ġstructpointermarker un
Ġvoidfunctionmarker scsi
Ġb pf
com iochannel
Ġintfunctionmarkerec ereclassecerenamespaceed
Ġgstbase sinkpointermarker
Ġiv tv
Ġislbasic map
Ġvtkpoly datapointermarker
g db
l and
Ġc urn
iv ec
so me
count intmarker
ssl pointermarker
Ġbrasero data
mouse eventpointermarker
canon ical
str acker
Ġstructpointermarker new
Ġvoidfunctionmarker file
Ġs st
Ġm os
comp s
Ġsizeof intmarker
cfg pointermarker
sla pip
wq e
Ġrpc clnt
Ġintfunctionmarkerecereclassecerenamespaceeceresysfileintfunctionmarkerintfunctionmarker vtblintfunctionmarker
Ġvoidfunctionmarker merge
voidfunctionmarkervoidfunctionmarker this
Ġe contactpointermarker
add string
Ġgit gre
invalid ated
Ġav streampointermarker
categ ories
Ġable xpr
l um
u y
Ġstructpointermarker page
inst alled
ctr ue
Ġchunk size
Ġfx int
ed ump
mp s
Ġh dl
Ġintfunction is
shared pointermarker
Ġgdbusmethodinvo cation
al ways
im in
Ġconstmarker end
Ġgl floatpointermarker
Ġglist length
Ġdoublefunctionmarker py
Ġgptrarray index
n ation
t one
el lip
la ssert
Ġintfunction devintfunctionpointermarker
Ġat of
lin en
Ġcomp at
Ġmail box
Ġintfunctionmarker blk
Ġs cev
clear intfunctionmarker
memory voidfunctionmarker
Ġvector string
Ġgdkeventbuttonpointermarker button
5 9
i get
s am
in ext
st otal
co ref
iter intfunctionpointermarker
ulong marker
Ġgstringpointermarker str
Ġpid tmarker
validate orgoto
Ġacc um
inter active
Ġintfunctionmarker foundintfunctionmarker
Ġvoidfunctionmarker block
Ġfree image
sd n
Ġalloc no
Ġper f
game pointermarker
ffffff f
u pr
Ġ etype
st ash
Ġg compris
var name
Ġj un
ref erenc
64 0
Ġmp c
Ġgf boxpointermarker
Ġet ree
Ġevent type
hi intfunctionmarker
mesh pointermarker
Ġvoidfunctioncb fnvoidfunctionpointermarker
a fr
q id
po ps
Ġstructpointermarker block
Ġvoidfunctionmarker malloc
ed ouble
if tpointermarker
set key
Ġr data
Ġpointer uint
cp t
alloc size
Ġtree value
Ġsc if
over lap
cpl frame
ein a
Ġexo icon
u voidfunctionmarkervoidfunctionmarker
Ġi gb
ist art
Ġen coder
cmd pointermarker
Ġscm objpointermarker
Ġper form
Ġvtkdata arraypointermarker
aliase s
Ġdebugmsg tl
bytedata structpointermarker
activstack voidfunctionmarkervoidfunctionmarkert
c if
Ġvoidfunctionmarker gn
set position
free z
update structpointermarker
clu ded
Ġpoint pointermarker
car v
gfp kernel
simil arity
g ht
st udy
Ġe sp
Ġx freecharpointermarker
rec ipe
trans for
uid intfunctionmarker
cnt intfunctionmarker
coeff s
Ġvoidfunctionmarkernode voidfunctionmarkervoidfunctionmarker
Ġarraydefusetable semnodepointermarker
s pointervoidfunctionmarker
Ġstructpointermarker netdev
um ode
Ġr q
Ġis olate
Ġres ultpointermarker
session tmarker
dt or
Ġre ach
di an
type intmarker
key size
cr x
Ġdev mkzalloc
off setpointermarker
Ġart icle
Ġmallocsizeof struct
u if
marker x
Ġre quired
Ġvoidfunctionmarker crm
Ġn md
size hint
Ġvoidfunction result
age s
command intfunctionmarker
Ġintfunctionmarkerintfunctionmarker m
Ġdr i
display intfunctionmarker
Ġintfunctionmarkerf intfunctionmarkerintfunctionmarker
Ġrpt value
d ont
y intmarker
Ġ attributes
st g
Ġc le
or n
set statestructpointermarker
im mediate
table t
status ok
cmd parmspointermarker
module tablepointermarker
Ġec ereclass
Ġetime dout
Ġsplot dpointermarker
ct reenodepointermarker
Ġintfunctionmarker stack
Ġstructpointermarker se
[...]
