{
  "version": "1.0",
  "truncation": null,
  "padding": null,
  "added_tokens": [
    {
      "id": 0,
      "content": "<|endoftext|>",
      "single_word": false,
      "lstrip": false,
      "rstrip": false,
      "normalized": true,
      "special": true
    }
  ],
  "normalizer": null,
  "pre_tokenizer": {
    "type": "ByteLevel",
    "add_prefix_space": false,
    "trim_offsets": true,
    "use_regex": true
  },
  "post_processor": {
    "type": "ByteLevel",
    "add_prefix_space": true,
    "trim_offsets": false,
    "use_regex": true
  },
  "decoder": {
    "type": "ByteLevel",
    "add_prefix_space": true,
    "trim_offsets": true,
    "use_regex": true
  },
  "model": {
    "type": "BPE",
    "dropout": null,
    "unk_token": null,
    "continuing_subword_prefix": "",
    "end_of_word_suffix": "",
    "fuse_unk": false,
    "byte_fallback": false,
    "vocab": {
      "<|endoftext|>": 0,
      "!": 1,
      "\"": 2,
      "#": 3,
      "$": 4,
      "%": 5,
      "&": 6,
      "'": 7,
      "(": 8,
      ")": 9,
      "*": 10,
      "+": 11,
      ",": 12,
      "-": 13,
      ".": 14,
      "/": 15,
      "0": 16,
      "1": 17,
      "2": 18,
      "3": 19,
      "4": 20,
      "5": 21,
      "6": 22,
      "7": 23,
      "8": 24,
      "9": 25,
      ":": 26,
      ";": 27,
      "<": 28,
      "=": 29,
      ">": 30,
      "?": 31,
      "@": 32,
      "A": 33,
      "B": 34,
      "C": 35,
      "D": 36,
      "E": 37,
      "F": 38,
      "G": 39,
      "H": 40,
      "I": 41,
      "J": 42,
      "K": 43,
      "L": 44,
      "M": 45,
      "N": 46,
      "O": 47,
      "P": 48,
      "Q": 49,
      "R": 50,
      "S": 51,
      "T": 52,
      "U": 53,
      "V": 54,
      "W": 55,
      "X": 56,
      "Y": 57,
      "Z": 58,
      "[": 59,
      "\\": 60,
      "]": 61,
      "^": 62,
      "_": 63,
      "`": 64,
      "a": 65,
      "b": 66,
      "c": 67,
      "d": 68,
      "e": 69,
      "f": 70,
      "g": 71,
      "h": 72,
      "i": 73,
      "j": 74,
      "k": 75,
      "l": 76,
      "m": 77,
      "n": 78,
      "o": 79,
      "p": 80,
      "q": 81,
      "r": 82,
      "s": 83,
      "t": 84,
      "u": 85,
      "v": 86,
      "w": 87,
      "x": 88,
      "y": 89,
      "z": 90,
      "{": 91,
      "|": 92,
      "}": 93,
      "~": 94,
      "¡": 95,
      "¢": 96,
      "£": 97,
      "¤": 98,
      "¥": 99,
      "¦": 100,
      "§": 101,
      "¨": 102,
      "©": 103,
      "ª": 104,
      "«": 105,
      "¬": 106,
      "®": 107,
      "¯": 108,
      "°": 109,
      "±": 110,
      "²": 111,
      "³": 112,
      "´": 113,
      "µ": 114,
      "¶": 115,
      "·": 116,
      "¸": 117,
      "¹": 118,
      "º": 119,
      "»": 120,
      "¼": 121,
      "½": 122,
      "¾": 123,
      "¿": 124,
      "À": 125,
      "Á": 126,
      "Â": 127,
      "Ã": 128,
      "Ä": 129,
      "Å": 130,
      "Æ": 131,
      "Ç": 132,
      "È": 133,
      "É": 134,
      "Ê": 135,
      "Ë": 136,
      "Ì": 137,
      "Í": 138,
      "Î": 139,
      "Ï": 140,
      "Ð": 141,
      "Ñ": 142,
      "Ò": 143,
      "Ó": 144,
      "Ô": 145,
      "Õ": 146,
      "Ö": 147,
      "×": 148,
      "Ø": 149,
      "Ù": 150,
      "Ú": 151,
      "Û": 152,
      "Ü": 153,
      "Ý": 154,
      "Þ": 155,
      "ß": 156,
      "à": 157,
      "á": 158,
      "â": 159,
      "ã": 160,
      "ä": 161,
      "å": 162,
      "æ": 163,
      "ç": 164,
      "è": 165,
      "é": 166,
      "ê": 167,
      "ë": 168,
      "ì": 169,
      "í": 170,
      "î": 171,
      "ï": 172,
      "ð": 173,
      "ñ": 174,
      "ò": 175,
      "ó": 176,
      "ô": 177,
      "õ": 178,
      "ö": 179,
      "÷": 180,
      "ø": 181,
      "ù": 182,
      "ú": 183,
      "û": 184,
      "ü": 185,
      "ý": 186,
      "þ": 187,
      "ÿ": 188,
      "Ā": 189,
      "ā": 190,
      "Ă": 191,
      "ă": 192,
      "Ą": 193,
      "ą": 194,
      "Ć": 195,
      "ć": 196,
      "Ĉ": 197,
      "ĉ": 198,
      "Ċ": 199,
      "ċ": 200,
      "Č": 201,
      "č": 202,
      "Ď": 203,
      "ď": 204,
      "Đ": 205,
      "đ": 206,
      "Ē": 207,
      "ē": 208,
      "Ĕ": 209,
      "ĕ": 210,
      "Ė": 211,
      "ė": 212,
      "Ę": 213,
      "ę": 214,
      "Ě": 215,
      "ě": 216,
      "Ĝ": 217,
      "ĝ": 218,
      "Ğ": 219,
      "ğ": 220,
      "Ġ": 221,
      "ġ": 222,
      "Ģ": 223,
      "ģ": 224,
      "Ĥ": 225,
      "ĥ": 226,
      "Ħ": 227,
      "ħ": 228,
      "Ĩ": 229,
      "ĩ": 230,
      "Ī": 231,
      "ī": 232,
      "Ĭ": 233,
      "ĭ": 234,
      "Į": 235,
      "į": 236,
      "İ": 237,
      "ı": 238,
      "Ĳ": 239,
      "ĳ": 240,
      "Ĵ": 241,
      "ĵ": 242,
      "Ķ": 243,
      "ķ": 244,
      "ĸ": 245,
      "Ĺ": 246,
      "ĺ": 247,
      "Ļ": 248,
      "ļ": 249,
      "Ľ": 250,
      "ľ": 251,
      "Ŀ": 252,
      "ŀ": 253,
      "Ł": 254,
      "ł": 255,
      "Ń": 256,
      "er": 257,
      "ar": 258,
      "in": 259,
      "mar": 260,
      "ker": 261,
      "marker": 262,
      "int": 263,
      "ct": 264,
      "on": 265,
      "un": 266,
      "ion": 267,
      "po": 268,
      "ction": 269,
      "inter": 270,
      "fun": 271,
      "pointer": 272,
      "function": 273,
      "pointermarker": 274,
      "functionmarker": 275,
      "st": 276,
      "id": 277,
      "re": 278,
      "vo": 279,
      "void": 280,
      "Ġint": 281,
      "voidfunctionmarker": 282,
      "str": 283,
      "at": 284,
      "ch": 285,
      "le": 286,
      "se": 287,
      "intfunctionmarker": 288,
      "stru": 289,
      "struct": 290,
      "Ġg": 291,
      "char": 292,
      "en": 293,
      "de": 294,
      "al": 295,
      "structpointermarker": 296,
      "Ġintmarker": 297,
      "Ġc": 298,
      "or": 299,
      "et": 300,
      "ur": 301,
      "it": 302,
      "lo": 303,
      "Ġintfunctionmarker": 304,
      "Ġre": 305,
      "Ġstructpointermarker": 306,
      "si": 307,
      "an": 308,
      "urn": 309,
      "turn": 310,
      "Ġvoidfunctionmarker": 311,
      "Ġn": 312,
      "Ġf": 313,
      "Ġ0": 314,
      "Ġchar": 315,
      "me": 316,
      "Ġreturn": 317,
      "ul": 318,
      "tr": 319,
      "pr": 320,
      "el": 321,
      "ad": 322,
      "Ġs": 323,
      "co": 324,
      "ed": 325,
      "li": 326,
      "Ġd": 327,
      "ck": 328,
      "ex": 329,
      "ut": 330,
      "con": 331,
      "ble": 332,
      "Ġb": 333,
      "ma": 334,
      "fi": 335,
      "mp": 336,
      "la": 337,
      "Ġp": 338,
      "Ġt": 339,
      "get": 340,
      "tpointermarker": 341,
      "ss": 342,
      "ce": 343,
      "ue": 344,
      "if": 345,
      "ull": 346,
      "ing": 347,
      "functionpointermarker": 348,
      "set": 349,
      "ra": 350,
      "ob": 351,
      "err": 352,
      "pe": 353,
      "Ġcharpointermarker": 354,
      "val": 355,
      "op": 356,
      "ect": 357,
      "Ġm": 358,
      "is": 359,
      "siz": 360,
      "dat": 361,
      "Ġ1": 362,
      "ent": 363,
      "Ġcon": 364,
      "list": 365,
      "intmarker": 366,
      "Ġnull": 367,
      "bu": 368,
      "ode": 369,
      "gn": 370,
      "Ġu": 371,
      "ate": 372,
      "ase": 373,
      "obj": 374,
      "ou": 375,
      "ot": 376,
      "charpointermarker": 377,
      "rea": 378,
      "ame": 379,
      "ge": 380,
      "ol": 381,
      "intfunctionmarkerintfunctionmarker": 382,
      "ff": 383,
      "ext": 384,
      "Ġa": 385,
      "data": 386,
      "size": 387,
      "ty": 388,
      "Ġvoid": 389,
      "able": 390,
      "ree": 391,
      "tk": 392,
      "else": 393,
      "sh": 394,
      "Ġconst": 395,
      "voidfunctionmarkervoidfunctionmarker": 396,
      "sign": 397,
      "len": 398,
      "il": 399,
      "Ġstruct": 400,
      "object": 401,
      "um": 402,
      "Ġelse": 403,
      "error": 404,
      "th": 405,
      "iv": 406,
      "Ġe": 407,
      "fo": 408,
      "pa": 409,
      "32": 410,
      "ouble": 411,
      "ow": 412,
      "loat": 413,
      "Ġh": 414,
      "intfunctionpointermarker": 415,
      "di": 416,
      "sc": 417,
      "string": 418,
      "signed": 419,
      "Ġl": 420,
      "end": 421,
      "lock": 422,
      "ew": 423,
      "Ġun": 424,
      "Ġr": 425,
      "file": 426,
      "Ġv": 427,
      "ite": 428,
      "Ġst": 429,
      "ap": 430,
      "up": 431,
      "voidfunctionpointermarker": 432,
      "ser": 433,
      "par": 434,
      "and": 435,
      "value": 436,
      "info": 437,
      "Ġw": 438,
      "ray": 439,
      "Ġpointer": 440,
      "fa": 441,
      "Ġgtk": 442,
      "ic": 443,
      "type": 444,
      "array": 445,
      "Ġx": 446,
      "reak": 447,
      "add": 448,
      "te": 449,
      "Ġde": 450,
      "Ġi": 451,
      "Ġcase": 452,
      "Ġintfunction": 453,
      "ke": 454,
      "bo": 455,
      "vi": 456,
      "ec": 457,
      "om": 458,
      "Ġdouble": 459,
      "ind": 460,
      "00": 461,
      "var": 462,
      "out": 463,
      "ack": 464,
      "name": 465,
      "am": 466,
      "ti": 467,
      "erpointermarker": 468,
      "of": 469,
      "ta": 470,
      "loc": 471,
      "Ġvoidfunction": 472,
      "print": 473,
      "ine": 474,
      "ist": 475,
      "Ġbreak": 476,
      "pro": 477,
      "const": 478,
      "tmarker": 479,
      "Ġif": 480,
      "gs": 481,
      "as": 482,
      "ver": 483,
      "Ġunsigned": 484,
      "Ġtr": 485,
      "wid": 486,
      "map": 487,
      "ult": 488,
      "sp": 489,
      "all": 490,
      "od": 491,
      "alse": 492,
      "node": 493,
      "ere": 494,
      "Ġuint": 495,
      "float": 496,
      "state": 497,
      "ok": 498,
      "ation": 499,
      "Ġgst": 500,
      "read": 501,
      "rt": 502,
      "Ġq": 503,
      "us": 504,
      "ms": 505,
      "stat": 506,
      "che": 507,
      "Ġin": 508,
      "key": 509,
      "text": 510,
      "vari": 511,
      "res": 512,
      "ig": 513,
      "ix": 514,
      "ca": 515,
      "try": 516,
      "cp": 517,
      "priv": 518,
      "return": 519,
      "ord": 520,
      "ile": 521,
      "Ġintpointermarker": 522,
      "mem": 523,
      "ter": 524,
      "ip": 525,
      "charfunctionmarker": 526,
      "max": 527,
      "free": 528,
      "lay": 529,
      "col": 530,
      "log": 531,
      "for": 532,
      "cm": 533,
      "ve": 534,
      "put": 535,
      "Ġfalse": 536,
      "he": 537,
      "pointervoidfunctionmarker": 538,
      "mat": 539,
      "listpointermarker": 540,
      "unt": 541,
      "reg": 542,
      "ype": 543,
      "ir": 544,
      "mode": 545,
      "printf": 546,
      "widget": 547,
      "Ġcharmarker": 548,
      "ong": 549,
      "pre": 550,
      "variable": 551,
      "nd": 552,
      "bit": 553,
      "code": 554,
      "iter": 555,
      "su": 556,
      "buff": 557,
      "Ġstr": 558,
      "nt": 559,
      "item": 560,
      "qu": 561,
      "entry": 562,
      "Ġj": 563,
      "pl": 564,
      "Ġgcharpointermarker": 565,
      "com": 566,
      "dex": 567,
      "age": 568,
      "objectpointermarker": 569,
      "arg": 570,
      "ht": 571,
      "ml": 572,
      "ream": 573,
      "art": 574,
      "Ġfloat": 575,
      "ptr": 576,
      "Ġ2": 577,
      "oto": 578,
      "db": 579,
      "fla": 580,
      "que": 581,
      "ath": 582,
      "to": 583,
      "sy": 584,
      "uint": 585,
      "floatfunctionmarker": 586,
      "ref": 587,
      "so": 588,
      "ment": 589,
      "alloc": 590,
      "Ġo": 591,
      "gr": 592,
      "pos": 593,
      "Ġtrue": 594,
      "wr": 595,
      "Ġse": 596,
      "next": 597,
      "back": 598,
      "cl": 599,
      "buf": 600,
      "sizet": 601,
      "ash": 602,
      "sk": 603,
      "chan": 604,
      "port": 605,
      "cur": 606,
      "tree": 607,
      "sa": 608,
      "mo": 609,
      "64": 610,
      "intfunctionmarkermarker": 611,
      "num": 612,
      "vent": 613,
      "stream": 614,
      "Ġpointermarker": 615,
      "Ġk": 616,
      "ert": 617,
      "sizeof": 618,
      "im": 619,
      "yte": 620,
      "cla": 621,
      "vice": 622,
      "table": 623,
      "count": 624,
      "ator": 625,
      "spa": 626,
      "ph": 627,
      "ag": 628,
      "init": 629,
      "io": 630,
      "16": 631,
      "comp": 632,
      "dev": 633,
      "def": 634,
      "conn": 635,
      "indow": 636,
      "Ġdoublemarker": 637,
      "attr": 638,
      "charmarker": 639,
      "ata": 640,
      "bug": 641,
      "Ġget": 642,
      "buffer": 643,
      "hand": 644,
      "tion": 645,
      "fs": 646,
      "Ġis": 647,
      "func": 648,
      "but": 649,
      "index": 650,
      "cre": 651,
      "Ġbo": 652,
      "ac": 653,
      "Ġop": 654,
      "block": 655,
      "Ġstructvariable": 656,
      "Ġvoidpointermarker": 657,
      "gth": 658,
      "new": 659,
      "Ġend": 660,
      "met": 661,
      "es": 662,
      "eg": 663,
      "time": 664,
      "call": 665,
      "Ġgd": 666,
      "Ġreg": 667,
      "dr": 668,
      "no": 669,
      "fig": 670,
      "space": 671,
      "Ġex": 672,
      "base": 673,
      "act": 674,
      "ure": 675,
      "param": 676,
      "cr": 677,
      "line": 678,
      "length": 679,
      "Ġpy": 680,
      "ild": 681,
      "Ġco": 682,
      "fr": 683,
      "window": 684,
      "check": 685,
      "class": 686,
      "Ġfile": 687,
      "unsigned": 688,
      "intfunctionpointermarkerintfunctionmarker": 689,
      "Ġconstmarker": 690,
      "voidfunction": 691,
      "view": 692,
      "do": 693,
      "eren": 694,
      "sn": 695,
      "fault": 696,
      "addr": 697,
      "wit": 698,
      "Ġintfunctionmarkerif": 699,
      "dis": 700,
      "prop": 701,
      "path": 702,
      "hash": 703,
      "ffset": 704,
      "Ġstat": 705,
      "Ġen": 706,
      "ory": 707,
      "Ġsizet": 708,
      "Ġvoidfunctionmarkerg": 709,
      "Ġgoto": 710,
      "head": 711,
      "ctx": 712,
      "cli": 713,
      "mess": 714,
      "men": 715,
      "null": 716,
      "sr": 717,
      "cont": 718,
      "min": 719,
      "start": 720,
      "voidfunctionmarkermarker": 721,
      "py": 722,
      "ore": 723,
      "flags": 724,
      "lu": 725,
      "cket": 726,
      "double": 727,
      "intfunction": 728,
      "bl": 729,
      "ali": 730,
      "eld": 731,
      "cmp": 732,
      "ecere": 733,
      "cess": 734,
      "ink": 735,
      "spointermarker": 736,
      "one": 737,
      "infopointermarker": 738,
      "ive": 739,
      "Ġth": 740,
      "ity": 741,
      "Ġintfunctionmarkerifintfunctionmarker": 742,
      "sintfunctionmarker": 743,
      "byte": 744,
      "ans": 745,
      "context": 746,
      "og": 747,
      "Ġdoublepointermarker": 748,
      "Ġgtkwidget": 749,
      "voidfunctionpointermarkervoidfunctionmarker": 750,
      "ber": 751,
      "Ġlong": 752,
      "write": 753,
      "ector": 754,
      "config": 755,
      "use": 756,
      "point": 757,
      "ight": 758,
      "rec": 759,
      "fra": 760,
      "valid": 761,
      "box": 762,
      "Ġsizeof": 763,
      "mage": 764,
      "ton": 765,
      "inst": 766,
      "oup": 767,
      "Ġma": 768,
      "ide": 769,
      "not": 770,
      "ssert": 771,
      "bus": 772,
      "mt": 773,
      "datapointermarker": 774,
      "nc": 775,
      "Ġbool": 776,
      "message": 777,
      "private": 778,
      "lean": 779,
      "device": 780,
      "play": 781,
      "msg": 782,
      "Ġbu": 783,
      "comm": 784,
      "fd": 785,
      "ime": 786,
      "filepointermarker": 787,
      "pt": 788,
      "ele": 789,
      "rent": 790,
      "quest": 791,
      "und": 792,
      "Ġpointervoidfunctionmarker": 793,
      "urce": 794,
      "ell": 795,
      "dir": 796,
      "Ġerror": 797,
      "status": 798,
      "Ġnew": 799,
      "cb": 800,
      "own": 801,
      "witch": 802,
      "debug": 803,
      "Ġset": 804,
      "app": 805,
      "ssion": 806,
      "Ġintfunctionmarkerreturn": 807,
      "ule": 808,
      "Ġsh": 809,
      "ant": 810,
      "old": 811,
      "ort": 812,
      "intpointermarker": 813,
      "sub": 814,
      "ard": 815,
      "sele": 816,
      "Ġendif": 817,
      "scr": 818,
      "Ġmp": 819,
      "sion": 820,
      "fil": 821,
      "load": 822,
      "mple": 823,
      "nodepointermarker": 824,
      "Ġvoidfunctionmarkerif": 825,
      "nel": 826,
      "Ġintfunctionmarkerreturnintfunctionmarker": 827,
      "Ġintfunctionmarkerint": 828,
      "Ġgs": 829,
      "clo": 830,
      "per": 831,
      "ail": 832,
      "mb": 833,
      "Ġtmp": 834,
      "mod": 835,
      "Ġcharmarkerarray": 836,
      "rect": 837,
      "amespace": 838,
      "Ġmem": 839,
      "Ġgf": 840,
      "ci": 841,
      "cmd": 842,
      "tp": 843,
      "Ġstd": 844,
      "field": 845,
      "Ġres": 846,
      "erenamespace": 847,
      "em": 848,
      "color": 849,
      "ret": 850,
      "oken": 851,
      "fail": 852,
      "Ġregist": 853,
      "Ġz": 854,
      "last": 855,
      "etpointermarker": 856,
      "low": 857,
      "model": 858,
      "ub": 859,
      "extpointermarker": 860,
      "are": 861,
      "ection": 862,
      "Ġvoidfunctionmarkerifvoidfunctionmarker": 863,
      "gra": 864,
      "ost": 865,
      "ns": 866,
      "pi": 867,
      "md": 868,
      "ress": 869,
      "mask": 870,
      "gtk": 871,
      "handle": 872,
      "row": 873,
      "tx": 874,
      "pointercharfunctionmarker": 875,
      "lib": 876,
      "Ġret": 877,
      "ler": 878,
      "gen": 879,
      "Ġlist": 880,
      "erenamespaceecere": 881,
      "callback": 882,
      "Ġgtktree": 883,
      "ance": 884,
      "Ġcur": 885,
      "ly": 886,
      "constmarker": 887,
      "Ġpo": 888,
      "arch": 889,
      "ab": 890,
      "statepointermarker": 891,
      "lob": 892,
      "Ġerr": 893,
      "Ġpar": 894,
      "case": 895,
      "cs": 896,
      "av": 897,
      "ition": 898,
      "can": 899,
      "Ġtype": 900,
      "button": 901,
      "Ġfor": 902,
      "man": 903,
      "est": 904,
      "pix": 905,
      "Ġ3": 906,
      "event": 907,
      "pointermarkerr": 908,
      "cast": 909,
      "sl": 910,
      "Ġswitch": 911,
      "vel": 912,
      "pp": 913,
      "Ġ4": 914,
      "vector": 915,
      "std": 916,
      "user": 917,
      "spe": 918,
      "word": 919,
      "result": 920,
      "Ġxml": 921,
      "ang": 922,
      "Ġvalue": 923,
      "Ġunsignedpointermarker": 924,
      "sb": 925,
      "intfunctionmarkerintfunction": 926,
      "utex": 927,
      "proper": 928,
      "offset": 929,
      "date": 930,
      "Ġfloatfunctionmarker": 931,
      "raw": 932,
      "iterator": 933,
      "tin": 934,
      "move": 935,
      "ep": 936,
      "Ġdb": 937,
      "channel": 938,
      "page": 939,
      "output": 940,
      "width": 941,
      "Ġmon": 942,
      "contextpointermarker": 943,
      "form": 944,
      "Ġch": 945,
      "fir": 946,
      "Ġgn": 947,
      "olean": 948,
      "sintmarker": 949,
      "Ġgobject": 950,
      "Ġstring": 951,
      "10": 952,
      "Ġfree": 953,
      "format": 954,
      "trol": 955,
      "from": 956,
      "Ġconstpointermarker": 957,
      "entpointermarker": 958,
      "lete": 959,
      "nal": 960,
      "input": 961,
      "group": 962,
      "Ġtree": 963,
      "wor": 964,
      "ont": 965,
      "connection": 966,
      "Ġcl": 967,
      "arn": 968,
      "level": 969,
      "ft": 970,
      "args": 971,
      "Ġsn": 972,
      "gin": 973,
      "Ġnode": 974,
      "alog": 975,
      "ev": 976,
      "Ġpr": 977,
      "Ġgchar": 978,
      "Ġpro": 979,
      "lab": 980,
      "ql": 981,
      "Ġdefault": 982,
      "ro": 983,
      "aut": 984,
      "Ġmax": 985,
      "Ġpointercharpointermarker": 986,
      "store": 987,
      "arget": 988,
      "frame": 989,
      "main": 990,
      "Ġintfunctionmarkerintintfunctionmarker": 991,
      "atch": 992,
      "Ġglistpointermarker": 993,
      "hod": 994,
      "ust": 995,
      "ery": 996,
      "image": 997,
      "charmarkerarray": 998,
      "Ġresult": 999,
      "current": 1000,
      "rc": 1001,
      "Ġfail": 1002,
      "attri": 1003,
      "break": 1004,
      "parse": 1005,
      "option": 1006,
      "sd": 1007,
      "Ġat": 1008,
      "errorpointermarker": 1009,
      "Ġthis": 1010,
      "cache": 1011,
      "fin": 1012,
      "thread": 1013,
      "Ġfprintf": 1014,
      "client": 1015,
      "gu": 1016,
      "control": 1017,
      "itempointermarker": 1018,
      "Ġdata": 1019,
      "source": 1020,
      "ject": 1021,
      "Ġsp": 1022,
      "cc": 1023,
      "Ġfla": 1024,
      "regist": 1025,
      "Ġstatic": 1026,
      "Ġsy": 1027,
      "ify": 1028,
      "Ġgtkwidgetpointermarker": 1029,
      "Ġdi": 1030,
      "Ġid": 1031,
      "mit": 1032,
      "action": 1033,
      "fe": 1034,
      "unlock": 1035,
      "local": 1036,
      "privatepointermarker": 1037,
      "edit": 1038,
      "conta": 1039,
      "oy": 1040,
      "bitsintfunctionmarker": 1041,
      "sg": 1042,
      "Ġnum": 1043,
      "ush": 1044,
      "fix": 1045,
      "property": 1046,
      "first": 1047,
      "unk": 1048,
      "find": 1049,
      "Ġlen": 1050,
      "boolean": 1051,
      "trans": 1052,
      "Ġev": 1053,
      "queue": 1054,
      "voidfunctionmarkervoidfunction": 1055,
      "internal": 1056,
      "request": 1057,
      "ange": 1058,
      "open": 1059,
      "ld": 1060,
      "Ġsize": 1061,
      "attribut": 1062,
      "send": 1063,
      "cap": 1064,
      "flag": 1065,
      "create": 1066,
      "lot": 1067,
      "floatfunctionmarkerfloatfunctionmarker": 1068,
      "Ġcontin": 1069,
      "ctr": 1070,
      "Ġpointercharfunctionmarker": 1071,
      "header": 1072,
      "wa": 1073,
      "Ġcontinue": 1074,
      "11": 1075,
      "ccess": 1076,
      "child": 1077,
      "df": 1078,
      "000": 1079,
      "Ġvtk": 1080,
      "stroy": 1081,
      "signal": 1082,
      "xml": 1083,
      "mi": 1084,
      "fre": 1085,
      "session": 1086,
      "link": 1087,
      "Ġlog": 1088,
      "Ġso": 1089,
      "stack": 1090,
      "Ġy": 1091,
      "dup": 1092,
      "select": 1093,
      "Ġgstr": 1094,
      "Ġregisterpointermarker": 1095,
      "label": 1096,
      "ba": 1097,
      "lic": 1098,
      "emp": 1099,
      "Ġguint": 1100,
      "git": 1101,
      "ee": 1102,
      "sm": 1103,
      "scrip": 1104,
      "rb": 1105,
      "sig": 1106,
      "Ġ8": 1107,
      "12": 1108,
      "ale": 1109,
      "cell": 1110,
      "Ġgit": 1111,
      "lear": 1112,
      "copy": 1113,
      "face": 1114,
      "Ġval": 1115,
      "voidpointermarker": 1116,
      "cpointermarker": 1117,
      "iffail": 1118,
      "tag": 1119,
      "cond": 1120,
      "number": 1121,
      "long": 1122,
      "sec": 1123,
      "Ġcharfunctionmarker": 1124,
      "default": 1125,
      "structintfunctionmarker": 1126,
      "assert": 1127,
      "Ġprintf": 1128,
      "ting": 1129,
      "Ġnet": 1130,
      "reen": 1131,
      "cpy": 1132,
      "Ġca": 1133,
      "ace": 1134,
      "Ġline": 1135,
      "handler": 1136,
      "entrypointermarker": 1137,
      "aliz": 1138,
      "Ġgint": 1139,
      "ers": 1140,
      "rix": 1141,
      "mark": 1142,
      "ump": 1143,
      "close": 1144,
      "instance": 1145,
      "ts": 1146,
      "command": 1147,
      "Ġaj": 1148,
      "destroy": 1149,
      "parent": 1150,
      "Ġifdef": 1151,
      "yp": 1152,
      "lename": 1153,
      "lf": 1154,
      "Ġ10": 1155,
      "pc": 1156,
      "position": 1157,
      "Ġdo": 1158,
      "net": 1159,
      "Ġwr": 1160,
      "idx": 1161,
      "work": 1162,
      "warn": 1163,
      "Ġar": 1164,
      "valuepointermarker": 1165,
      "server": 1166,
      "ain": 1167,
      "Ġunsignedmarker": 1168,
      "address": 1169,
      "Ġread": 1170,
      "manag": 1171,
      "svoidfunctionmarker": 1172,
      "Ġcol": 1173,
      "Ġfilepointermarker": 1174,
      "dialog": 1175,
      "Ġgreturn": 1176,
      "iff": 1177,
      "Ġbyte": 1178,
      "Ġfloatmarker": 1179,
      "pool": 1180,
      "ged": 1181,
      "query": 1182,
      "mutex": 1183,
      "au": 1184,
      "ary": 1185,
      "filter": 1186,
      "cod": 1187,
      "pointermarkerpriv": 1188,
      "Ġstructmarker": 1189,
      "Ġein": 1190,
      "env": 1191,
      "bool": 1192,
      "fn": 1193,
      "ecerenamespaceecere": 1194,
      "Ġgdk": 1195,
      "oper": 1196,
      "Ġhe": 1197,
      "element": 1198,
      "yle": 1199,
      "Ġobject": 1200,
      "cf": 1201,
      "br": 1202,
      "host": 1203,
      "inf": 1204,
      "seq": 1205,
      "ated": 1206,
      "gcharpointermarker": 1207,
      "real": 1208,
      "egin": 1209,
      "intmarkerintmarker": 1210,
      "Ġwx": 1211,
      "mentpointermarker": 1212,
      "desc": 1213,
      "append": 1214,
      "test": 1215,
      "connect": 1216,
      "build": 1217,
      "lex": 1218,
      "pointervoidfunctionmarkerpointervoidfunctionmarker": 1219,
      "scan": 1220,
      "ls": 1221,
      "pointermarkerget": 1222,
      "ature": 1223,
      "Ġkey": 1224,
      "ps": 1225,
      "vert": 1226,
      "gf": 1227,
      "typ": 1228,
      "version": 1229,
      "method": 1230,
      "mer": 1231,
      "Ġintfunctionmarkerstructintfunctionmarker": 1232,
      "voidvoidfunctionmarker": 1233,
      "this": 1234,
      "Ġgfree": 1235,
      "Ġarg": 1236,
      "change": 1237,
      "be": 1238,
      "mpl": 1239,
      "Ġlo": 1240,
      "xy": 1241,
      "dn": 1242,
      "tri": 1243,
      "match": 1244,
      "mbol": 1245,
      "false": 1246,
      "Ġvoidfunctionmarkervoidfunctionmarkervoidfunctionmarker": 1247,
      "exp": 1248,
      "by": 1249,
      "conf": 1250,
      "50": 1251,
      "height": 1252,
      "wh": 1253,
      "Ġvoidfunctionmarkerreturn": 1254,
      "etype": 1255,
      "Ġflag": 1256,
      "order": 1257,
      "irq": 1258,
      "fl": 1259,
      "Ġdebug": 1260,
      "contain": 1261,
      "menu": 1262,
      "mon": 1263,
      "ial": 1264,
      "voidintfunctionmarker": 1265,
      "Ġstructpointermarkerstructpointermarker": 1266,
      "Ġpyobjectpointermarker": 1267,
      "Ġdev": 1268,
      "tab": 1269,
      "unref": 1270,
      "lobal": 1271,
      "0000": 1272,
      "ave": 1273,
      "structvariable": 1274,
      "stringpointermarker": 1275,
      "Ġintfunctionmarkerintfunctionmarker": 1276,
      "module": 1277,
      "packet": 1278,
      "top": 1279,
      "Ġstatus": 1280,
      "Ġdr": 1281,
      "Ġgt": 1282,
      "sert": 1283,
      "setting": 1284,
      "ument": 1285,
      "Ġout": 1286,
      "sor": 1287,
      "Ġvoidfunctionmarkerreturnvoidfunctionmarker": 1288,
      "sv": 1289,
      "register": 1290,
      "pad": 1291,
      "cd": 1292,
      "Ġal": 1293,
      "display": 1294,
      "ster": 1295,
      "job": 1296,
      "cel": 1297,
      "Ġcall": 1298,
      "red": 1299,
      "ng": 1300,
      "Ġgerrorpointermarker": 1301,
      "Ġname": 1302,
      "matrix": 1303,
      "reach": 1304,
      "ay": 1305,
      "80": 1306,
      "Ġintfunctionmarkerbreak": 1307,
      "cal": 1308,
      "Ġstrcmp": 1309,
      "Ġintfunctionmarkerbreakintfunctionmarker": 1310,
      "Ġgboolean": 1311,
      "umn": 1312,
      "Ġdn": 1313,
      "core": 1314,
      "enum": 1315,
      "update": 1316,
      "Ġbit": 1317,
      "req": 1318,
      "Ġdef": 1319,
      "valu": 1320,
      "tablepointermarker": 1321,
      "used": 1322,
      "Ġfi": 1323,
      "filename": 1324,
      "lin": 1325,
      "bar": 1326,
      "bits": 1327,
      "Ġcom": 1328,
      "search": 1329,
      "hw": 1330,
      "mpointermarker": 1331,
      "streampointermarker": 1332,
      "Ġpix": 1333,
      "plu": 1334,
      "Ġpk": 1335,
      "xx": 1336,
      "ded": 1337,
      "parser": 1338,
      "utter": 1339,
      "clear": 1340,
      "Ġboolmarker": 1341,
      "Ġjs": 1342,
      "Ġgl": 1343,
      "asy": 1344,
      "ply": 1345,
      "Ġstrlen": 1346,
      "Ġgr": 1347,
      "nder": 1348,
      "Ġstart": 1349,
      "pointermarkerintmarker": 1350,
      "unit": 1351,
      "dl": 1352,
      "style": 1353,
      "Ġsizetmarker": 1354,
      "ux": 1355,
      "Ġadd": 1356,
      "her": 1357,
      "icon": 1358,
      "Ġvoidfunctionmarkervoidvoidfunctionmarker": 1359,
      "atom": 1360,
      "my": 1361,
      "Ġprint": 1362,
      "ren": 1363,
      "ched": 1364,
      "true": 1365,
      "ek": 1366,
      "align": 1367,
      "Ġle": 1368,
      "del": 1369,
      "Ġintfunctionmarkervoidintfunctionmarker": 1370,
      "pop": 1371,
      "elist": 1372,
      "gg": 1373,
      "we": 1374,
      "graph": 1375,
      "Ġmode": 1376,
      "attribute": 1377,
      "gui": 1378,
      "Ġpre": 1379,
      "bytes": 1380,
      "Ġblock": 1381,
      "pack": 1382,
      "sic": 1383,
      "caseintfunctionmarker": 1384,
      "dy": 1385,
      "Ġcp": 1386,
      "layer": 1387,
      "Ġintfunctionmarkercaseintfunctionmarker": 1388,
      "Ġmono": 1389,
      "orm": 1390,
      "Ġsnd": 1391,
      "Ġfind": 1392,
      "off": 1393,
      "Ġmy": 1394,
      "iver": 1395,
      "Ġdis": 1396,
      "os": 1397,
      "let": 1398,
      "Ġ5": 1399,
      "mm": 1400,
      "Ġcpl": 1401,
      "lement": 1402,
      "selection": 1403,
      "Ġcheck": 1404,
      "bin": 1405,
      "ll": 1406,
      "arraypointermarker": 1407,
      "writ": 1408,
      "stem": 1409,
      "Ġbuf": 1410,
      "layout": 1411,
      "Ġed": 1412,
      "oc": 1413,
      "vt": 1414,
      "Ġscm": 1415,
      "Ġqu": 1416,
      "Ġbuff": 1417,
      "ctrl": 1418,
      "dep": 1419,
      "Ġindex": 1420,
      "oo": 1421,
      "Ġtime": 1422,
      "stop": 1423,
      "socket": 1424,
      "nown": 1425,
      "pm": 1426,
      "xt": 1427,
      "enc": 1428,
      "xf": 1429,
      "token": 1430,
      "vec": 1431,
      "expr": 1432,
      "vm": 1433,
      "opt": 1434,
      "xff": 1435,
      "ulti": 1436,
      "win": 1437,
      "Ġht": 1438,
      "gener": 1439,
      "Ġconn": 1440,
      "Ġcli": 1441,
      "ger": 1442,
      "bufferpointermarker": 1443,
      "Ġvar": 1444,
      "stpointermarker": 1445,
      "okup": 1446,
      "memory": 1447,
      "Ġel": 1448,
      "ctl": 1449,
      "widgetpointermarker": 1450,
      "enable": 1451,
      "20": 1452,
      "ifi": 1453,
      "gb": 1454,
      "script": 1455,
      "stderr": 1456,
      "sed": 1457,
      "Ġap": 1458,
      "Ġassert": 1459,
      "coun": 1460,
      "lat": 1461,
      "Ġclutter": 1462,
      "ick": 1463,
      "wy": 1464,
      "Ġstate": 1465,
      "uid": 1466,
      "pla": 1467,
      "Ġph": 1468,
      "gt": 1469,
      "Ġsi": 1470,
      "ds": 1471,
      "left": 1472,
      "process": 1473,
      "iz": 1474,
      "insert": 1475,
      "Ġsc": 1476,
      "doublemarker": 1477,
      "orc": 1478,
      "constpointermarker": 1479,
      "tail": 1480,
      "Ġad": 1481,
      "book": 1482,
      "Ġcount": 1483,
      "ationpointermarker": 1484,
      "Ġtoken": 1485,
      "sen": 1486,
      "Ġgslistpointermarker": 1487,
      "lease": 1488,
      "Ġregister": 1489,
      "pointermarkerpointermarker": 1490,
      "bt": 1491,
      "eter": 1492,
      "Ġhash": 1493,
      "direct": 1494,
      "ces": 1495,
      "Ġoffset": 1496,
      "run": 1497,
      "Ġisl": 1498,
      "windowpointermarker": 1499,
      "warning": 1500,
      "auth": 1501,
      "Ġgen": 1502,
      "doc": 1503,
      "plugin": 1504,
      "Ġec": 1505,
      "invalid": 1506,
      "voidfunctionmarkervoidfunctionmarkervoidfunctionmarker": 1507,
      "ib": 1508,
      "Ġan": 1509,
      "dd": 1510,
      "Ġiter": 1511,
      "gl": 1512,
      "uple": 1513,
      "ast": 1514,
      "Ġwrite": 1515,
      "ass": 1516,
      "src": 1517,
      "static": 1518,
      "seg": 1519,
      "Ġ6": 1520,
      "Ġuser": 1521,
      "changed": 1522,
      "vas": 1523,
      "Ġdbus": 1524,
      "sup": 1525,
      "Ġfl": 1526,
      "vide": 1527,
      "cat": 1528,
      "ortmarker": 1529,
      "Ġinit": 1530,
      "Ġcomp": 1531,
      "column": 1532,
      "ry": 1533,
      "ote": 1534,
      "Ġglist": 1535,
      "omet": 1536,
      "part": 1537,
      "Ġfloatpointermarker": 1538,
      "pk": 1539,
      "Ġav": 1540,
      "font": 1541,
      "active": 1542,
      "ptrmarker": 1543,
      "begin": 1544,
      "streammarker": 1545,
      "atter": 1546,
      "Ġser": 1547,
      "target": 1548,
      "doublepointermarker": 1549,
      "orpointermarker": 1550,
      "Ġ00": 1551,
      "remove": 1552,
      "qual": 1553,
      "fb": 1554,
      "ual": 1555,
      "sys": 1556,
      "Ġmin": 1557,
      "errno": 1558,
      "spon": 1559,
      "Ġup": 1560,
      "cnt": 1561,
      "Ġspin": 1562,
      "Ġnext": 1563,
      "ical": 1564,
      "decl": 1565,
      "fx": 1566,
      "mpty": 1567,
      "cate": 1568,
      "Ġext": 1569,
      "ish": 1570,
      "nam": 1571,
      "proxy": 1572,
      "Ġobj": 1573,
      "go": 1574,
      "iled": 1575,
      "fp": 1576,
      "adata": 1577,
      "Ġintfunctionmarkerunsigned": 1578,
      "angle": 1579,
      "malloc": 1580,
      "proc": 1581,
      "ict": 1582,
      "Ġio": 1583,
      "pass": 1584,
      "dio": 1585,
      "Ġtest": 1586,
      "ome": 1587,
      "nat": 1588,
      "structvoidfunctionmarker": 1589,
      "raser": 1590,
      "rx": 1591,
      "Ġrtx": 1592,
      "record": 1593,
      "show": 1594,
      "manager": 1595,
      "Ġsub": 1596,
      "onent": 1597,
      "charintfunctionmarker": 1598,
      "wait": 1599,
      "Ġut": 1600,
      "push": 1601,
      "with": 1602,
      "Ġbuffer": 1603,
      "content": 1604,
      "ud": 1605,
      "otal": 1606,
      "Ġenum": 1607,
      "mag": 1608,
      "ise": 1609,
      "Ġgla": 1610,
      "Ġdefine": 1611,
      "inode": 1612,
      "render": 1613,
      "ne": 1614,
      "ctor": 1615,
      "async": 1616,
      "andle": 1617,
      "Ġnm": 1618,
      "tmp": 1619,
      "igh": 1620,
      "delete": 1621,
      "Ġcurrent": 1622,
      "Ġgpointer": 1623,
      "Ġcre": 1624,
      "Ġstdstring": 1625,
      "25": 1626,
      "simple": 1627,
      "Ġdelete": 1628,
      "save": 1629,
      "ializ": 1630,
      "af": 1631,
      "edata": 1632,
      "hdr": 1633,
      "service": 1634,
      "24": 1635,
      "chr": 1636,
      "down": 1637,
      "dec": 1638,
      "timer": 1639,
      "phy": 1640,
      "amp": 1641,
      "screen": 1642,
      "Ġexit": 1643,
      "ename": 1644,
      "Ġgu": 1645,
      "Ġgtktreemodel": 1646,
      "sw": 1647,
      "ource": 1648,
      "Ġbraser": 1649,
      "datat": 1650,
      "typepointermarker": 1651,
      "prev": 1652,
      "range": 1653,
      "Ġwh": 1654,
      "Ġqstring": 1655,
      "symbol": 1656,
      "ence": 1657,
      "enter": 1658,
      "values": 1659,
      "url": 1660,
      "Ġsk": 1661,
      "ill": 1662,
      "cstr": 1663,
      "interface": 1664,
      "Ġpl": 1665,
      "intvoidfunctionmarker": 1666,
      "pg": 1667,
      "lass": 1668,
      "Ġmod": 1669,
      "Ġrt": 1670,
      "pd": 1671,
      "Ġghash": 1672,
      "oot": 1673,
      "Ġmap": 1674,
      "has": 1675,
      "erence": 1676,
      "ension": 1677,
      "lookup": 1678,
      "Ġsla": 1679,
      "Ġacp": 1680,
      "Ġge": 1681,
      "nullvoidfunctionmarker": 1682,
      "Ġfunc": 1683,
      "ption": 1684,
      "Ġintfunctionmarkercharintfunctionmarker": 1685,
      "led": 1686,
      "datavoidfunctionmarker": 1687,
      "Ġintfunctionmarkerret": 1688,
      "Ġwid": 1689,
      "success": 1690,
      "sql": 1691,
      "Ġ16": 1692,
      "Ġip": 1693,
      "section": 1694,
      "Ġintfunctiont": 1695,
      "enode": 1696,
      "Ġmo": 1697,
      "meta": 1698,
      "cursor": 1699,
      "recpointermarker": 1700,
      "valiffail": 1701,
      "gram": 1702,
      "scale": 1703,
      "vis": 1704,
      "Ġintfunctionmarkerq": 1705,
      "reset": 1706,
      "ner": 1707,
      "Ġlast": 1708,
      "root": 1709,
      "exec": 1710,
      "gd": 1711,
      "closu": 1712,
      "Ġtext": 1713,
      "pend": 1714,
      "sponse": 1715,
      "wer": 1716,
      "Ġtreemarker": 1717,
      "sync": 1718,
      "container": 1719,
      "ared": 1720,
      "Ġintfunctionmarkerecerenamespaceecere": 1721,
      "ai": 1722,
      "ader": 1723,
      "Ġfprintfstderr": 1724,
      "the": 1725,
      "Ġaut": 1726,
      "Ġsv": 1727,
      "rel": 1728,
      "constintfunctionmarker": 1729,
      "Ġcr": 1730,
      "adap": 1731,
      "ane": 1732,
      "Ġne": 1733,
      "chunk": 1734,
      "Ġintfunctionmarkerelse": 1735,
      "Ġintfunctionmarkerelseintfunctionmarker": 1736,
      "Ġvoidfunctionmarkerp": 1737,
      "params": 1738,
      "chine": 1739,
      "dict": 1740,
      "self": 1741,
      "Ġac": 1742,
      "lection": 1743,
      "lable": 1744,
      "interpre": 1745,
      "tool": 1746,
      "son": 1747,
      "setpointermarker": 1748,
      "eger": 1749,
      "slot": 1750,
      "Ġme": 1751,
      "lect": 1752,
      "fw": 1753,
      "cope": 1754,
      "timeout": 1755,
      "Ġconfig": 1756,
      "Ġglade": 1757,
      "Ġit": 1758,
      "viewpointermarker": 1759,
      "Ġintfunctionmarkerg": 1760,
      "por": 1761,
      "ire": 1762,
      "lit": 1763,
      "system": 1764,
      "Ġcame": 1765,
      "proto": 1766,
      "fc": 1767,
      "Ġsd": 1768,
      "Ġrb": 1769,
      "Ġoper": 1770,
      "foreach": 1771,
      "poly": 1772,
      "mc": 1773,
      "classpointermarker": 1774,
      "Ġalloc": 1775,
      "Ġvoidfunctionmarkern": 1776,
      "Ġlength": 1777,
      "Ġvoidfunctionmarkernullvoidfunctionmarker": 1778,
      "region": 1779,
      "gi": 1780,
      "Ġeinval": 1781,
      "Ġvoidfunctionmarkerorc": 1782,
      "Ġmemset": 1783,
      "failed": 1784,
      "15": 1785,
      "loop": 1786,
      "Ġintfunctionmarkerr": 1787,
      "trace": 1788,
      "Ġlib": 1789,
      "Ġgreturniffail": 1790,
      "pixel": 1791,
      "Ġgreturnvaliffail": 1792,
      "lush": 1793,
      "sort": 1794,
      "ound": 1795,
      "Ġir": 1796,
      "Ġpointerstructpointermarker": 1797,
      "Ġgobjectpointermarker": 1798,
      "Ġifintmarker": 1799,
      "Ġast": 1800,
      "Ġgam": 1801,
      "draw": 1802,
      "notify": 1803,
      "cry": 1804,
      "dbg": 1805,
      "Ġmsg": 1806,
      "ulong": 1807,
      "Ġld": 1808,
      "attern": 1809,
      "ign": 1810,
      "40": 1811,
      "ift": 1812,
      "task": 1813,
      "pair": 1814,
      "limit": 1815,
      "Ġcode": 1816,
      "Ġerrno": 1817,
      "Ġor": 1818,
      "sintfunctionmarkerintfunctionmarker": 1819,
      "Ġuse": 1820,
      "leanup": 1821,
      "acker": 1822,
      "older": 1823,
      "backend": 1824,
      "Ġab": 1825,
      "pol": 1826,
      "Ġdat": 1827,
      "Ġgvalue": 1828,
      "chain": 1829,
      "sstructpointermarker": 1830,
      "Ġgnm": 1831,
      "Ġarray": 1832,
      "component": 1833,
      "Ġvoidfunctionmarkervoidfunctionmarker": 1834,
      "uni": 1835,
      "saction": 1836,
      "Ġmet": 1837,
      "ute": 1838,
      "ssl": 1839,
      "infotpointermarker": 1840,
      "bitmap": 1841,
      "sto": 1842,
      "Ġreal": 1843,
      "Ġcmd": 1844,
      "serv": 1845,
      "ie": 1846,
      "activ": 1847,
      "pid": 1848,
      "ception": 1849,
      "Ġver": 1850,
      "cpu": 1851,
      "bound": 1852,
      "gc": 1853,
      "Ġvector": 1854,
      "Ġintfunctionmarkern": 1855,
      "Ġkrb": 1856,
      "Ġfir": 1857,
      "Ġintfunctionmarkerunsignedintfunctionmarker": 1858,
      "Ġvi": 1859,
      "ey": 1860,
      "ctpointermarker": 1861,
      "mov": 1862,
      "sel": 1863,
      "pri": 1864,
      "Ġtemp": 1865,
      "bad": 1866,
      "Ġpage": 1867,
      "pyobjectpointermarker": 1868,
      "Ġclo": 1869,
      "oll": 1870,
      "Ġshortmarker": 1871,
      "Ġapr": 1872,
      "Ġpointerg": 1873,
      "cfg": 1874,
      "cancel": 1875,
      "sym": 1876,
      "tv": 1877,
      "Ġet": 1878,
      "Ġvoidfunctionmarkerarg": 1879,
      "svoidfunctionmarkervoidfunctionmarker": 1880,
      "ident": 1881,
      "ank": 1882,
      "second": 1883,
      "Ġintfunctionmarkerp": 1884,
      "location": 1885,
      "Ġvoidfunctionmarkerstructvoidfunctionmarker": 1886,
      "full": 1887,
      "ax": 1888,
      "erec": 1889,
      "Ġevas": 1890,
      "blockpointermarker": 1891,
      "cn": 1892,
      "Ġinput": 1893,
      "Ġcair": 1894,
      "ho": 1895,
      "Ġfd": 1896,
      "ansaction": 1897,
      "Ġcan": 1898,
      "global": 1899,
      "tries": 1900,
      "pect": 1901,
      "prog": 1902,
      "Ġparam": 1903,
      "Ġgstrdup": 1904,
      "Ġintfunctionmarkeri": 1905,
      "Ġgassert": 1906,
      "sible": 1907,
      "Ġgvaluepointermarker": 1908,
      "Ġgi": 1909,
      "Ġvoidfunctionmarkerelse": 1910,
      "sz": 1911,
      "Ġlu": 1912,
      "Ġtim": 1913,
      "Ġgobjectunref": 1914,
      "depth": 1915,
      "Ġvoidfunctionmarkerelsevoidfunctionmarker": 1916,
      "Ġinvalid": 1917,
      "Ġnodepointermarker": 1918,
      "interpret": 1919,
      "Ġmemcpy": 1920,
      "sem": 1921,
      "Ġtarget": 1922,
      "Ġevent": 1923,
      "lator": 1924,
      "13": 1925,
      "lk": 1926,
      "Ġgth": 1927,
      "Ġintfunctionmarkerconstintfunctionmarker": 1928,
      "items": 1929,
      "Ġword": 1930,
      "Ġrequest": 1931,
      "multi": 1932,
      "errstructpointermarker": 1933,
      "sample": 1934,
      "Ġsw": 1935,
      "coord": 1936,
      "track": 1937,
      "variant": 1938,
      "temp": 1939,
      "gp": 1940,
      "dma": 1941,
      "sum": 1942,
      "Ġsu": 1943,
      "tra": 1944,
      "uld": 1945,
      "zer": 1946,
      "pvoidfunctionpointermarker": 1947,
      "sent": 1948,
      "pointermarkern": 1949,
      "scm": 1950,
      "iss": 1951,
      "voidfunctionmarkervoidfunctionmarkervoidfunctionmarkervoidfunctionmarker": 1952,
      "rame": 1953,
      "upointermarker": 1954,
      "none": 1955,
      "urc": 1956,
      "mid": 1957,
      "cominstance": 1958,
      "Ġusb": 1959,
      "Ġparse": 1960,
      "while": 1961,
      "resource": 1962,
      "canvas": 1963,
      "ice": 1964,
      "Ġintfunctionmarkerecere": 1965,
      "mux": 1966,
      "Ġmutex": 1967,
      "100": 1968,
      "driver": 1969,
      "sin": 1970,
      "ask": 1971,
      "only": 1972,
      "Ġprop": 1973,
      "Ġ7": 1974,
      "nullintfunctionmarker": 1975,
      "arm": 1976,
      "Ġtp": 1977,
      "509": 1978,
      "Ġfs": 1979,
      "medi": 1980,
      "Ġvoidfunctionmarkerdata": 1981,
      "fill": 1982,
      "Ġintfunctiontintfunctionpointermarkerintfunctionmarker": 1983,
      "ape": 1984,
      "Ġitem": 1985,
      "board": 1986,
      "step": 1987,
      "Ġpath": 1988,
      "Ġvoidfunctionmarkerintvoidfunctionmarker": 1989,
      "setup": 1990,
      "Ġintfunctionmarkerd": 1991,
      "lig": 1992,
      "Ġopen": 1993,
      "Ġgwy": 1994,
      "domain": 1995,
      "Ġtrans": 1996,
      "Ġport": 1997,
      "Ġper": 1998,
      "quence": 1999,
      "sf": 2000,
      "edge": 2001,
      "Ġgo": 2002,
      "Ġdevice": 2003,
      "pixbuf": 2004,
      "isl": 2005,
      "sock": 2006,
      "vtk": 2007,
      "Ġold": 2008,
      "struction": 2009,
      "pointermarkerrnat": 2010,
      "pointermarkerrmax": 2011,
      "operand": 2012,
      "ultpointermarker": 2013,
      "pointermarkerrmin": 2014,
      "aw": 2015,
      "ith": 2016,
      "Ġfield": 2017,
      "spec": 2018,
      "just": 2019,
      "Ġra": 2020,
      "any": 2021,
      "she": 2022,
      "dest": 2023,
      "clu": 2024,
      "Ġwor": 2025,
      "Ġdir": 2026,
      "connectionpointermarker": 2027,
      "empty": 2028,
      "urm": 2029,
      "Ġgstpad": 2030,
      "Ġoption": 2031,
      "Ġeno": 2032,
      "vb": 2033,
      "feature": 2034,
      "ereg": 2035,
      "Ġintmarkerintmarker": 2036,
      "place": 2037,
      "flow": 2038,
      "Ġglo": 2039,
      "Ġwhile": 2040,
      "voidfunctionpointermarkervoidfunction": 2041,
      "opy": 2042,
      "mac": 2043,
      "parameter": 2044,
      "Ġgerror": 2045,
      "Ġrc": 2046,
      "gine": 2047,
      "interpretcast": 2048,
      "Ġintfunctionmarkerretintfunctionmarker": 2049,
      "Ġoutput": 2050,
      "vid": 2051,
      "eventpointermarker": 2052,
      "Ġintfunctionmarkernullintfunctionmarker": 2053,
      "oid": 2054,
      "pn": 2055,
      "failure": 2056,
      "fer": 2057,
      "Ġpg": 2058,
      "messagepointermarker": 2059,
      "ak": 2060,
      "Ġcreate": 2061,
      "itor": 2062,
      "Ġstructpointermarkern": 2063,
      "bind": 2064,
      "syn": 2065,
      "Ġpack": 2066,
      "release": 2067,
      "Ġcb": 2068,
      "statetpointermarker": 2069,
      "anel": 2070,
      "bg": 2071,
      "mappointermarker": 2072,
      "Ġcomm": 2073,
      "sing": 2074,
      "Ġatom": 2075,
      "dim": 2076,
      "blk": 2077,
      "da": 2078,
      "Ġba": 2079,
      "utf": 2080,
      "registerpointermarker": 2081,
      "stringmarker": 2082,
      "Ġsl": 2083,
      "post": 2084,
      "sens": 2085,
      "encod": 2086,
      "Ġapp": 2087,
      "alist": 2088,
      "Ġck": 2089,
      "att": 2090,
      "itle": 2091,
      "ormal": 2092,
      "uc": 2093,
      "Ġfirst": 2094,
      "lugin": 2095,
      "ppointermarker": 2096,
      "Ġintfunctionmarkerc": 2097,
      "sget": 2098,
      "compare": 2099,
      "stype": 2100,
      "urface": 2101,
      "mail": 2102,
      "Ġpointergcharpointermarker": 2103,
      "project": 2104,
      "player": 2105,
      "Ġto": 2106,
      "Ġhandle": 2107,
      "charfunctionmarkercharfunctionmarker": 2108,
      "exit": 2109,
      "adi": 2110,
      "Ġcharpointermarkerintmarker": 2111,
      "Ġbase": 2112,
      "clientpointermarker": 2113,
      "fmt": 2114,
      "Ġref": 2115,
      "delay": 2116,
      "Ġact": 2117,
      "aint": 2118,
      "02": 2119,
      "Ġentry": 2120,
      "options": 2121,
      "mapp": 2122,
      "program": 2123,
      "snmp": 2124,
      "Ġsa": 2125,
      "eric": 2126,
      "ring": 2127,
      "Ġ25": 2128,
      "indent": 2129,
      "make": 2130,
      "Ġsend": 2131,
      "Ġdict": 2132,
      "basic": 2133,
      "ready": 2134,
      "unsignedpointermarker": 2135,
      "prob": 2136,
      "strlen": 2137,
      "Ġintfunctionp": 2138,
      "framet": 2139,
      "grid": 2140,
      "scription": 2141,
      "Ġgfile": 2142,
      "Ġstream": 2143,
      "tt": 2144,
      "Ġvoidfunctionmarkerd": 2145,
      "Ġunit": 2146,
      "uri": 2147,
      "1000": 2148,
      "switch": 2149,
      "Ġrow": 2150,
      "editor": 2151,
      "fm": 2152,
      "Ġob": 2153,
      "Ġtable": 2154,
      "voidfunctionvoidfunction": 2155,
      "Ġaddr": 2156,
      "Ġdecl": 2157,
      "Ġpyobject": 2158,
      "stmt": 2159,
      "entries": 2160,
      "dpointermarker": 2161,
      "ies": 2162,
      "jo": 2163,
      "pression": 2164,
      "Ġvoidfunctionmarkergpointervoidfunctionmarker": 2165,
      "Ġxlator": 2166,
      "guicontrol": 2167,
      "clas": 2168,
      "Ġmat": 2169,
      "eref": 2170,
      "card": 2171,
      "power": 2172,
      "util": 2173,
      "errorintfunctionmarker": 2174,
      "atal": 2175,
      "resultpointermarker": 2176,
      "inc": 2177,
      "Ġptr": 2178,
      "Ġclose": 2179,
      "finish": 2180,
      "xpointermarker": 2181,
      "ely": 2182,
      "Ġgee": 2183,
      "light": 2184,
      "resh": 2185,
      "over": 2186,
      "classinst": 2187,
      "vol": 2188,
      "leg": 2189,
      "cominstanceintfunctionmarker": 2190,
      "right": 2191,
      "rap": 2192,
      "mpi": 2193,
      "ni": 2194,
      "shift": 2195,
      "Ġwindow": 2196,
      "integer": 2197,
      "sla": 2198,
      "Ġnumber": 2199,
      "interval": 2200,
      "Ġgv": 2201,
      "etime": 2202,
      "ouse": 2203,
      "Ġdbg": 2204,
      "Ġ12": 2205,
      "Ġserver": 2206,
      "Ġstaticpointermarker": 2207,
      "Ġinfo": 2208,
      "las": 2209,
      "pointermarkerrmaxpointermarkerrnat": 2210,
      "heap": 2211,
      "Ġcolor": 2212,
      "dataintfunctionmarker": 2213,
      "spin": 2214,
      "pointermarkerrminpointermarkerrmaxpointermarkerrnat": 2215,
      "Ġim": 2216,
      "freestructpointermarker": 2217,
      "rag": 2218,
      "bb": 2219,
      "Ġcopy": 2220,
      "ui": 2221,
      "Ġintfunctionmarkerecerenamespaceecerecominstanceintfunctionmarker": 2222,
      "Ġput": 2223,
      "Ġtag": 2224,
      "isc": 2225,
      "short": 2226,
      "Ġintfunctioninternal": 2227,
      "tintfunctionmarker": 2228,
      "volu": 2229,
      "kernel": 2230,
      "response": 2231,
      "selected": 2232,
      "Ġyy": 2233,
      "obo": 2234,
      "Ġsig": 2235,
      "intfunctionpointermarkerintfunction": 2236,
      "licy": 2237,
      "shared": 2238,
      "envpointermarker": 2239,
      "Ġpc": 2240,
      "18": 2241,
      "comb": 2242,
      "sizeintfunctionmarker": 2243,
      "hel": 2244,
      "stor": 2245,
      "lx": 2246,
      "uration": 2247,
      "mart": 2248,
      "rup": 2249,
      "Ġhost": 2250,
      "anc": 2251,
      "Ġbrasero": 2252,
      "tm": 2253,
      "Ġformat": 2254,
      "scal": 2255,
      "found": 2256,
      "split": 2257,
      "ii": 2258,
      "known": 2259,
      "devicepointermarker": 2260,
      "lik": 2261,
      "constant": 2262,
      "children": 2263,
      "Ġdw": 2264,
      "strpointermarker": 2265,
      "Ġ9": 2266,
      "pose": 2267,
      "lenintfunctionmarker": 2268,
      "Ġmatch": 2269,
      "seek": 2270,
      "eno": 2271,
      "Ġimage": 2272,
      "gtkwidgetpointermarker": 2273,
      "Ġgdouble": 2274,
      "Ġvm": 2275,
      "crypt": 2276,
      "pointercharpointermarker": 2277,
      "http": 2278,
      "updat": 2279,
      "extension": 2280,
      "progress": 2281,
      "eread": 2282,
      "Ġgpointermarker": 2283,
      "pay": 2284,
      "ops": 2285,
      "Ġucharpointermarker": 2286,
      "listtpointermarker": 2287,
      "reinterpretcast": 2288,
      "files": 2289,
      "hist": 2290,
      "unknown": 2291,
      "fg": 2292,
      "Ġretval": 2293,
      "kevent": 2294,
      "Ġlistpointermarker": 2295,
      "magic": 2296,
      "Ġstructpointermarkernext": 2297,
      "sol": 2298,
      "bucket": 2299,
      "Ġmalloc": 2300,
      "Ġsec": 2301,
      "scope": 2302,
      "Ġcommand": 2303,
      "Ġclass": 2304,
      "clock": 2305,
      "aj": 2306,
      "contact": 2307,
      "Ġvoidfunctionmarkercase": 2308,
      "rd": 2309,
      "Ġghashtable": 2310,
      "Ġwidth": 2311,
      "flush": 2312,
      "Ġcamel": 2313,
      "Ġclient": 2314,
      "Ġintfunctioninternalclassinst": 2315,
      "closure": 2316,
      "stamp": 2317,
      "sper": 2318,
      "pw": 2319,
      "30": 2320,
      "Ġfprintffilepointermarker": 2321,
      "Ġdrm": 2322,
      "pec": 2323,
      "metaobject": 2324,
      "impl": 2325,
      "managerpointermarker": 2326,
      "asc": 2327,
      "ionpointermarker": 2328,
      "Ġsrc": 2329,
      "ined": 2330,
      "vl": 2331,
      "ole": 2332,
      "typemarker": 2333,
      "vp": 2334,
      "builder": 2335,
      "aget": 2336,
      "master": 2337,
      "Ġsql": 2338,
      "Ġsm": 2339,
      "Ġgslist": 2340,
      "Ġof": 2341,
      "xp": 2342,
      "Ġgnc": 2343,
      "alph": 2344,
      "Ġobjectpointermarker": 2345,
      "volume": 2346,
      "Ġfc": 2347,
      "Ġvoidfunctionmarkercasevoidfunctionmarker": 2348,
      "Ġms": 2349,
      "Ġsup": 2350,
      "Ġdy": 2351,
      "body": 2352,
      "insn": 2353,
      "likely": 2354,
      "Ġbe": 2355,
      "Ġshort": 2356,
      "ported": 2357,
      "settings": 2358,
      "cert": 2359,
      "togg": 2360,
      "owner": 2361,
      "Ġfunction": 2362,
      "pointermarkernext": 2363,
      "directory": 2364,
      "endif": 2365,
      "ifier": 2366,
      "iterpointermarker": 2367,
      "ram": 2368,
      "late": 2369,
      "difi": 2370,
      "usb": 2371,
      "sequence": 2372,
      "templ": 2373,
      "cept": 2374,
      "Ġmemory": 2375,
      "Ġintfunctionmarkerec": 2376,
      "Ġxm": 2377,
      "protocol": 2378,
      "marsh": 2379,
      "descript": 2380,
      "actor": 2381,
      "common": 2382,
      "tl": 2383,
      "Ġrec": 2384,
      "du": 2385,
      "Ġgk": 2386,
      "Ġforintmarker": 2387,
      "Ġsock": 2388,
      "Ġgstcap": 2389,
      "Ġsizetpointermarker": 2390,
      "Ġvoidfunctionmarkerc": 2391,
      "Ġsprintf": 2392,
      "Ġmachine": 2393,
      "done": 2394,
      "area": 2395,
      "Ġgx": 2396,
      "antpointermarker": 2397,
      "unused": 2398,
      "pathpointermarker": 2399,
      "segment": 2400,
      "Ġlock": 2401,
      "elementpointermarker": 2402,
      "mote": 2403,
      "etch": 2404,
      "ctxpointermarker": 2405,
      "ffff": 2406,
      "vtbl": 2407,
      "drv": 2408,
      "ablepointermarker": 2409,
      "Ġvoidfunctionmarkergtk": 2410,
      "Ġexp": 2411,
      "unsignedmarker": 2412,
      "Ġsoup": 2413,
      "xn": 2414,
      "Ġnot": 2415,
      "Ġfo": 2416,
      "Ġpkix": 2417,
      "speci": 2418,
      "diff": 2419,
      "disk": 2420,
      "odepointermarker": 2421,
      "Ġter": 2422,
      "Ġstructpointermarkerflags": 2423,
      "ority": 2424,
      "Ġgfs": 2425,
      "raph": 2426,
      "sizetmarker": 2427,
      "structure": 2428,
      "Ġssl": 2429,
      "Ġcm": 2430,
      "Ġpointergerrorpointermarker": 2431,
      "Ġpoint": 2432,
      "clude": 2433,
      "Ġload": 2434,
      "lower": 2435,
      "Ġquery": 2436,
      "prot": 2437,
      "va": 2438,
      "member": 2439,
      "term": 2440,
      "Ġgtktext": 2441,
      "codec": 2442,
      "bs": 2443,
      "Ġcd": 2444,
      "Ġhttp": 2445,
      "fact": 2446,
      "01": 2447,
      "Ġintfunctionmarkererr": 2448,
      "hs": 2449,
      "verse": 2450,
      "prefix": 2451,
      "wx": 2452,
      "stats": 2453,
      "Ġopt": 2454,
      "Ġattr": 2455,
      "orig": 2456,
      "zero": 2457,
      "sis": 2458,
      "Ġstructpointermarkerintmarker": 2459,
      "digit": 2460,
      "marshal": 2461,
      "anch": 2462,
      "Ġspinunlock": 2463,
      "Ġintmarkerarray": 2464,
      "tach": 2465,
      "Ġgc": 2466,
      "demux": 2467,
      "convert": 2468,
      "exception": 2469,
      "dist": 2470,
      "Ġstrlencharpointermarker": 2471,
      "scroll": 2472,
      "Ġbt": 2473,
      "realtmarker": 2474,
      "jut": 2475,
      "collection": 2476,
      "Ġspinlock": 2477,
      "argument": 2478,
      "cover": 2479,
      "specpointermarker": 2480,
      "Ġfix": 2481,
      "errorcode": 2482,
      "boxpointermarker": 2483,
      "itive": 2484,
      "typointermarker": 2485,
      "adjust": 2486,
      "alk": 2487,
      "Ġgp": 2488,
      "Ġlocal": 2489,
      "reference": 2490,
      "eto": 2491,
      "policy": 2492,
      "Ġdisplay": 2493,
      "Ġglobus": 2494,
      "engine": 2495,
      "toggle": 2496,
      "pace": 2497,
      "countpointermarker": 2498,
      "description": 2499,
      "Ġmask": 2500,
      "Ġstructpointermarkerd": 2501,
      "Ġ32": 2502,
      "pdf": 2503,
      "Ġselect": 2504,
      "take": 2505,
      "bject": 2506,
      "detail": 2507,
      "Ġspl": 2508,
      "tuple": 2509,
      "astatepointermarker": 2510,
      "Ġinf": 2511,
      "Ġexpr": 2512,
      "wl": 2513,
      "structpointermarkerdev": 2514,
      "treepointermarker": 2515,
      "wd": 2516,
      "exist": 2517,
      "constmarkerconstmarker": 2518,
      "nodetpointermarker": 2519,
      "js": 2520,
      "mount": 2521,
      "Ġgnut": 2522,
      "gst": 2523,
      "ssh": 2524,
      "Ġwarn": 2525,
      "cpl": 2526,
      "erti": 2527,
      "Ġstaticcast": 2528,
      "ometry": 2529,
      "define": 2530,
      "rate": 2531,
      "Ġbytepointermarker": 2532,
      "Ġintfunctionmarkerf": 2533,
      "Ġcallframet": 2534,
      "Ġfil": 2535,
      "Ġrtxmarker": 2536,
      "modelpointermarker": 2537,
      "Ġmarker": 2538,
      "Ġdefin": 2539,
      "decode": 2540,
      "Ġlink": 2541,
      "Ġfr": 2542,
      "ics": 2543,
      "pending": 2544,
      "14": 2545,
      "Ġelm": 2546,
      "attributes": 2547,
      "Ġtracker": 2548,
      "Ġsymbol": 2549,
      "charvoidfunctionmarker": 2550,
      "Ġenomem": 2551,
      "Ġbuild": 2552,
      "Ġpng": 2553,
      "intfunctionmarkermarkerintfunctionmarker": 2554,
      "archive": 2555,
      "buttonpointermarker": 2556,
      "mary": 2557,
      "guicontrols": 2558,
      "initializ": 2559,
      "cation": 2560,
      "vertex": 2561,
      "disable": 2562,
      "Ġgstring": 2563,
      "ctype": 2564,
      "reinterpretcastintfunctionmarker": 2565,
      "Ġgdkpixbuf": 2566,
      "rep": 2567,
      "enew": 2568,
      "Ġgimple": 2569,
      "Ġintfunctionmarkerlist": 2570,
      "Ġargs": 2571,
      "nr": 2572,
      "802": 2573,
      "strdup": 2574,
      "reply": 2575,
      "enabled": 2576,
      "Ġgdkevent": 2577,
      "Ġno": 2578,
      "Ġsr": 2579,
      "lyph": 2580,
      "adapter": 2581,
      "doublefunctionmarker": 2582,
      "Ġstrn": 2583,
      "generic": 2584,
      "intfunctionmarkerintfunctionmarkerintfunctionmarkerintfunctionmarker": 2585,
      "elempointermarker": 2586,
      "autil": 2587,
      "floatpointermarker": 2588,
      "straint": 2589,
      "Ġfm": 2590,
      "ckey": 2591,
      "Ġxlatortpointermarker": 2592,
      "Ġvoidfunctionpvoidfunctionpointermarker": 2593,
      "Ġot": 2594,
      "Ġbg": 2595,
      "Ġdefinemarker": 2596,
      "gno": 2597,
      "Ġhd": 2598,
      "Ġlongmarker": 2599,
      "Ġproc": 2600,
      "lr": 2601,
      "86": 2602,
      "sink": 2603,
      "ution": 2604,
      "hi": 2605,
      "game": 2606,
      "access": 2607,
      "Ġmc": 2608,
      "template": 2609,
      "mil": 2610,
      "Ġvoidfunctionmarkeri": 2611,
      "Ġchild": 2612,
      "Ġdefined": 2613,
      "Ġdx": 2614,
      "queu": 2615,
      "metadata": 2616,
      "Ġtrace": 2617,
      "counter": 2618,
      "dataintfunctionpointermarker": 2619,
      "fieldpointermarker": 2620,
      "transform": 2621,
      "Ġstack": 2622,
      "operation": 2623,
      "rowser": 2624,
      "Ġconta": 2625,
      "floatmarker": 2626,
      "Ġstructpointermarkerb": 2627,
      "note": 2628,
      "hd": 2629,
      "assign": 2630,
      "apointermarker": 2631,
      "cerror": 2632,
      "Ġok": 2633,
      "tom": 2634,
      "bose": 2635,
      "foc": 2636,
      "cro": 2637,
      "23": 2638,
      "commit": 2639,
      "Ġdl": 2640,
      "Ġwa": 2641,
      "callbackvoidfunctionmarker": 2642,
      "stract": 2643,
      "inform": 2644,
      "profile": 2645,
      "pcm": 2646,
      "pf": 2647,
      "lobject": 2648,
      "devent": 2649,
      "sav": 2650,
      "Ġmessage": 2651,
      "wap": 2652,
      "breakvoidfunctionmarker": 2653,
      "Ġscr": 2654,
      "Ġgtktreeview": 2655,
      "ility": 2656,
      "invo": 2657,
      "Ġgsignal": 2658,
      "Ġstrcmpcharpointermarker": 2659,
      "Ġgstringpointermarker": 2660,
      "alize": 2661,
      "rection": 2662,
      "ndef": 2663,
      "gest": 2664,
      "Ġbr": 2665,
      "resol": 2666,
      "video": 2667,
      "properti": 2668,
      "sq": 2669,
      "Ġcairo": 2670,
      "Ġglobal": 2671,
      "Ġvoidfunctionmarkergc": 2672,
      "wm": 2673,
      "Ġvoidfunctionmarkerbreakvoidfunctionmarker": 2674,
      "iteratorpointermarker": 2675,
      "Ġmx": 2676,
      "Ġli": 2677,
      "Ġintfunctionmarkerb": 2678,
      "Ġvec": 2679,
      "Ġcx": 2680,
      "cle": 2681,
      "Ġrun": 2682,
      "Ġgparam": 2683,
      "account": 2684,
      "Ġisc": 2685,
      "Ġgtype": 2686,
      "ient": 2687,
      "lt": 2688,
      "amer": 2689,
      "intfunctionmarkerintfunctionmarkerreinterpretcastintfunctionmarker": 2690,
      "tile": 2691,
      "goto": 2692,
      "skip": 2693,
      "coder": 2694,
      "Ġbn": 2695,
      "elem": 2696,
      "sha": 2697,
      "obu": 2698,
      "99": 2699,
      "defined": 2700,
      "chip": 2701,
      "modifi": 2702,
      "regs": 2703,
      "mr": 2704,
      "Ġjson": 2705,
      "patch": 2706,
      "creat": 2707,
      "types": 2708,
      "Ġconnection": 2709,
      "keep": 2710,
      "bytepointermarker": 2711,
      "transaction": 2712,
      "choo": 2713,
      "Ġpci": 2714,
      "Ġmb": 2715,
      "22": 2716,
      "cptr": 2717,
      "eth": 2718,
      "Ġpa": 2719,
      "60": 2720,
      "tract": 2721,
      "fixed": 2722,
      "Ġloc": 2723,
      "zone": 2724,
      "imagepointermarker": 2725,
      "Ġchunk": 2726,
      "non": 2727,
      "sourc": 2728,
      "kind": 2729,
      "Ġ20": 2730,
      "boolmarker": 2731,
      "dc": 2732,
      "Ġla": 2733,
      "Ġon": 2734,
      "dump": 2735,
      "Ġintfunctionmarkerx": 2736,
      "restore": 2737,
      "Ġfx": 2738,
      "visible": 2739,
      "points": 2740,
      "Ġseq": 2741,
      "pipe": 2742,
      "Ġpos": 2743,
      "Ġgroup": 2744,
      "Ġva": 2745,
      "gfx": 2746,
      "ri": 2747,
      "Ġacpi": 2748,
      "Ġchange": 2749,
      "pointercharfunctionmarkerpointercharfunctionmarker": 2750,
      "complete": 2751,
      "sessionpointermarker": 2752,
      "combobo": 2753,
      "Ġcontext": 2754,
      "Ġ100": 2755,
      "gid": 2756,
      "pin": 2757,
      "terpointermarker": 2758,
      "Ġnautil": 2759,
      "Ġnetsnmp": 2760,
      "Ġintfunctionmarkert": 2761,
      "cmpcharpointermarker": 2762,
      "retl": 2763,
      "Ġfa": 2764,
      "ground": 2765,
      "Ġunknown": 2766,
      "Ġdump": 2767,
      "Ġgame": 2768,
      "Ġstrcpy": 2769,
      "charmarkercharmarker": 2770,
      "voidfunctionmarkermarkervoidfunctionmarker": 2771,
      "Ġfe": 2772,
      "Ġoperand": 2773,
      "audio": 2774,
      "icle": 2775,
      "namic": 2776,
      "Ġgtktreemodelpointermarker": 2777,
      "andom": 2778,
      "Ġintfunctionmarkerh": 2779,
      "intr": 2780,
      "Ġgw": 2781,
      "ertifi": 2782,
      "hy": 2783,
      "gtktree": 2784,
      "interrup": 2785,
      "Ġctx": 2786,
      "Ġupdate": 2787,
      "dp": 2788,
      "mime": 2789,
      "Ġgintmarker": 2790,
      "scalar": 2791,
      "Ġaction": 2792,
      "cellpointermarker": 2793,
      "Ġgfp": 2794,
      "datastructpointermarker": 2795,
      "Ġulong": 2796,
      "usage": 2797,
      "17": 2798,
      "Ġct": 2799,
      "Ġinsn": 2800,
      "Ġplay": 2801,
      "Ġgptr": 2802,
      "Ġstructpointermarkername": 2803,
      "ipe": 2804,
      "guid": 2805,
      "cho": 2806,
      "Ġdd": 2807,
      "Ġinst": 2808,
      "Ġvoidfunctionmarkere": 2809,
      "structpointermarkerlock": 2810,
      "ror": 2811,
      "ereclas": 2812,
      "database": 2813,
      "quire": 2814,
      "Ġvoidfunctionmarkerconst": 2815,
      "clk": 2816,
      "auto": 2817,
      "Ġvalid": 2818,
      "ereclassec": 2819,
      "pattern": 2820,
      "Ġsignal": 2821,
      "Ġib": 2822,
      "Ġbut": 2823,
      "ffect": 2824,
      "Ġcould": 2825,
      "Ġmodule": 2826,
      "Ġstdvector": 2827,
      "Ġfloatfunctionmarkerfloatfunctionmarker": 2828,
      "Ġintfunctionmarkerrc": 2829,
      "valuemarker": 2830,
      "Ġvoidfunctionmarkert": 2831,
      "Ġoff": 2832,
      "Ġasn": 2833,
      "pab": 2834,
      "Ġintfunctionmarkeriintfunctionmarker": 2835,
      "devic": 2836,
      "keypointermarker": 2837,
      "signature": 2838,
      "Ġmpfr": 2839,
      "contin": 2840,
      "Ġintfunctionmarkerintintfunctionmarkermarker": 2841,
      "Ġauth": 2842,
      "sex": 2843,
      "Ġoct": 2844,
      "fac": 2845,
      "api": 2846,
      "high": 2847,
      "dm": 2848,
      "Ġslapi": 2849,
      "conv": 2850,
      "Ġsearch": 2851,
      "metaobjectintfunctionmarkerintfunctionmarker": 2852,
      "pointerecerenamespaceecere": 2853,
      "ning": 2854,
      "ency": 2855,
      "Ġfre": 2856,
      "alt": 2857,
      "Ġdma": 2858,
      "cach": 2859,
      "np": 2860,
      "datavoidfunctionpointermarker": 2861,
      "Ġintfunctionmarkerifintfunctionmarkerintfunctionmarker": 2862,
      "Ġmake": 2863,
      "snd": 2864,
      "Ġwe": 2865,
      "luster": 2866,
      "Ġsnprintf": 2867,
      "ous": 2868,
      "Ġcharupointermarker": 2869,
      "Ġldap": 2870,
      "hook": 2871,
      "gle": 2872,
      "Ġintfunctionmarkerwhile": 2873,
      "unicode": 2874,
      "Ġchannel": 2875,
      "lication": 2876,
      "pth": 2877,
      "poll": 2878,
      "Ġback": 2879,
      "gname": 2880,
      "Ġgvariant": 2881,
      "drop": 2882,
      "80211": 2883,
      "Ġthread": 2884,
      "web": 2885,
      "Ġuni": 2886,
      "document": 2887,
      "emit": 2888,
      "getpointermarker": 2889,
      "geometry": 2890,
      "Ġlevel": 2891,
      "dt": 2892,
      "handl": 2893,
      "mex": 2894,
      "plan": 2895,
      "bot": 2896,
      "Ġgdbus": 2897,
      "Ġrv": 2898,
      "Ġboolean": 2899,
      "Ġidx": 2900,
      "writestructpointermarker": 2901,
      "Ġque": 2902,
      "cor": 2903,
      "Ġbad": 2904,
      "Ġgfilepointermarker": 2905,
      "pac": 2906,
      "abl": 2907,
      "pointpointermarker": 2908,
      "Ġaddress": 2909,
      "Ġogr": 2910,
      "freq": 2911,
      "etr": 2912,
      "Ġau": 2913,
      "Ġopal": 2914,
      "Ġheader": 2915,
      "Ġcache": 2916,
      "48": 2917,
      "properties": 2918,
      "Ġattribute": 2919,
      "objpointermarker": 2920,
      "title": 2921,
      "nextintfunctionmarker": 2922,
      "ipher": 2923,
      "rev": 2924,
      "Ġas": 2925,
      "Ġgflog": 2926,
      "pen": 2927,
      "Ġmen": 2928,
      "instruction": 2929,
      "Ġjob": 2930,
      "provid": 2931,
      "Ġdst": 2932,
      "funcvoidfunctionpointermarker": 2933,
      "filen": 2934,
      "Ġmid": 2935,
      "Ġnv": 2936,
      "Ġgb": 2937,
      "istr": 2938,
      "compress": 2939,
      "prec": 2940,
      "recv": 2941,
      "Ġparent": 2942,
      "frag": 2943,
      "clip": 2944,
      "Ġvoidfunctionmarkercharvoidfunctionmarker": 2945,
      "Ġframe": 2946,
      "adat": 2947,
      "Ġstructpointermarkerr": 2948,
      "total": 2949,
      "Ġemit": 2950,
      "encoding": 2951,
      "Ġuchar": 2952,
      "dataset": 2953,
      "pixmap": 2954,
      "infot": 2955,
      "payload": 2956,
      "oct": 2957,
      "Ġforeach": 2958,
      "Ġus": 2959,
      "Ġath": 2960,
      "mot": 2961,
      "priority": 2962,
      "Ġbasic": 2963,
      "dst": 2964,
      "Ġintfunctionmarkererrorintfunctionmarker": 2965,
      "Ġheight": 2966,
      "Ġdoc": 2967,
      "tok": 2968,
      "Ġintfunctionmarkerl": 2969,
      "Ġvo": 2970,
      "Ġstructpointermarkerp": 2971,
      "Ġgg": 2972,
      "tmarkerarray": 2973,
      "Ġendl": 2974,
      "band": 2975,
      "deon": 2976,
      "Ġsizeofstruct": 2977,
      "ids": 2978,
      "alias": 2979,
      "pointermarkerset": 2980,
      "Ġintfunctionmarkera": 2981,
      "ward": 2982,
      "lation": 2983,
      "cancellable": 2984,
      "Ġtcl": 2985,
      "Ġvoidfunctionmarkerr": 2986,
      "big": 2987,
      "valpointermarker": 2988,
      "berpointermarker": 2989,
      "kern": 2990,
      "atpointermarker": 2991,
      "Ġtyp": 2992,
      "Ġer": 2993,
      "mw": 2994,
      "chooser": 2995,
      "iteral": 2996,
      "border": 2997,
      "blocks": 2998,
      "Ġelement": 2999,
      "lim": 3000,
      "evas": 3001,
      "fore": 3002,
      "Ġcc": 3003,
      "Ġic": 3004,
      "edintfunctionmarker": 3005,
      "lice": 3006,
      "Ġspe": 3007,
      "Ġpyx": 3008,
      "vir": 3009,
      "43": 3010,
      "08": 3011,
      "descriptor": 3012,
      "adow": 3013,
      "rule": 3014,
      "ener": 3015,
      "Ġstructpointermarkerdata": 3016,
      "Ġnfs": 3017,
      "Ġtotal": 3018,
      "factory": 3019,
      "ignum": 3020,
      "safe": 3021,
      "factor": 3022,
      "Ġcallframetpointermarker": 3023,
      "ailable": 3024,
      "Ġscan": 3025,
      "bd": 3026,
      "desk": 3027,
      "igger": 3028,
      "Ġxt": 3029,
      "mesh": 3030,
      "sser": 3031,
      "bi": 3032,
      "Ġpthread": 3033,
      "Ġvaluepointermarker": 3034,
      "88": 3035,
      "lend": 3036,
      "Ġheap": 3037,
      "Ġtop": 3038,
      "bn": 3039,
      "rac": 3040,
      "folder": 3041,
      "Ġmca": 3042,
      "Ġvoidfunctionmarkerret": 3043,
      "ures": 3044,
      "Ġpart": 3045,
      "Ġpt": 3046,
      "Ġtx": 3047,
      "Ġpid": 3048,
      "Ġdm": 3049,
      "Ġplayer": 3050,
      "mapping": 3051,
      "paramet": 3052,
      "Ġwork": 3053,
      "Ġpointervoidpointermarker": 3054,
      "Ġintfunctioninternalclassinstintfunctionpointermarker": 3055,
      "gory": 3056,
      "namevoidfunctionmarker": 3057,
      "privat": 3058,
      "Ġos": 3059,
      "bj": 3060,
      "21": 3061,
      "hint": 3062,
      "mix": 3063,
      "takepointermarker": 3064,
      "speed": 3065,
      "cred": 3066,
      "gwy": 3067,
      "vtblintfunctionmarker": 3068,
      "npointermarker": 3069,
      "mouse": 3070,
      "comment": 3071,
      "uth": 3072,
      "cryp": 3073,
      "Ġil": 3074,
      "idle": 3075,
      "lip": 3076,
      "ses": 3077,
      "Ġsession": 3078,
      "sist": 3079,
      "supported": 3080,
      "storepointermarker": 3081,
      "typeintfunctionmarker": 3082,
      "tvoidfunctionmarker": 3083,
      "55": 3084,
      "ereclassecerenamespaceecere": 3085,
      "Ġajp": 3086,
      "tim": 3087,
      "inal": 3088,
      "printer": 3089,
      "oom": 3090,
      "asn": 3091,
      "Ġstringpointermarker": 3092,
      "declar": 3093,
      "Ġcleanup": 3094,
      "angu": 3095,
      "Ġintfunctionmarkerresult": 3096,
      "Ġvoidfunctionmarkerorcvar": 3097,
      "Ġrange": 3098,
      "bh": 3099,
      "car": 3100,
      "dialogpointermarker": 3101,
      "ustom": 3102,
      "Ġsource": 3103,
      "Ġifndef": 3104,
      "flagsintfunctionmarker": 3105,
      "actionpointermarker": 3106,
      "Ġsave": 3107,
      "Ġecerenamespaceecere": 3108,
      "Ġdoublemarkerarray": 3109,
      "posit": 3110,
      "Ġbox": 3111,
      "Ġintfunctionmarkerlib": 3112,
      "Ġdirect": 3113,
      "Ġenable": 3114,
      "Ġtokenpointermarker": 3115,
      "ertificate": 3116,
      "rite": 3117,
      "leep": 3118,
      "matrixpointermarker": 3119,
      "urmdb": 3120,
      "Ġexec": 3121,
      "storage": 3122,
      "tostring": 3123,
      "Ġprocess": 3124,
      "tax": 3125,
      "world": 3126,
      "128": 3127,
      "configpointermarker": 3128,
      "machine": 3129,
      "alignment": 3130,
      "pref": 3131,
      "Ġdeverrstructpointermarker": 3132,
      "lp": 3133,
      "Ġuserdata": 3134,
      "mul": 3135,
      "mutexunlock": 3136,
      "cy": 3137,
      "parserpointermarker": 3138,
      "variantpointermarker": 3139,
      "den": 3140,
      "qp": 3141,
      "ear": 3142,
      "busy": 3143,
      "Ġpop": 3144,
      "html": 3145,
      "single": 3146,
      "Ġphy": 3147,
      "Ġifstructpointermarker": 3148,
      "wrap": 3149,
      "pointermarkerpointermarkerpointermarkerpointermarker": 3150,
      "Ġwin": 3151,
      "Ġintfunctionmarkergoto": 3152,
      "errorvoidfunctionmarker": 3153,
      "Ġpe": 3154,
      "sca": 3155,
      "ssize": 3156,
      "walk": 3157,
      "Ġft": 3158,
      "lementpointermarker": 3159,
      "valintfunctionmarker": 3160,
      "rtx": 3161,
      "sheet": 3162,
      "vala": 3163,
      "varpointermarker": 3164,
      "history": 3165,
      "condition": 3166,
      "Ġintfunctionmarkergotointfunctionmarker": 3167,
      "Ġflags": 3168,
      "Ġlin": 3169,
      "Ġprev": 3170,
      "allow": 3171,
      "union": 3172,
      "Ġintfunctionmarkerwhileintfunctionmarker": 3173,
      "Ġgamgi": 3174,
      "strea": 3175,
      "good": 3176,
      "argv": 3177,
      "chedule": 3178,
      "seterror": 3179,
      "reswap": 3180,
      "sche": 3181,
      "Ġvari": 3182,
      "report": 3183,
      "pointermarkerx": 3184,
      "Ġbb": 3185,
      "Ġmpi": 3186,
      "Ġunity": 3187,
      "pushback": 3188,
      "Ġgstbufferpointermarker": 3189,
      "Ġgog": 3190,
      "rows": 3191,
      "sid": 3192,
      "limage": 3193,
      "probe": 3194,
      "virt": 3195,
      "Ġgstpadpointermarker": 3196,
      "ae": 3197,
      "adr": 3198,
      "Ġintfunctionmarkersizeof": 3199,
      "numberof": 3200,
      "nintfunctionmarker": 3201,
      "alg": 3202,
      "Ġgoo": 3203,
      "Ġcannot": 3204,
      "krb": 3205,
      "watch": 3206,
      "constraint": 3207,
      "pip": 3208,
      "Ġstructpointermarkertype": 3209,
      "div": 3210,
      "ha": 3211,
      "peer": 3212,
      "compar": 3213,
      "smart": 3214,
      "markerget": 3215,
      "Ġsocket": 3216,
      "acter": 3217,
      "closureswap": 3218,
      "rectangle": 3219,
      "ga": 3220,
      "Ġthe": 3221,
      "decref": 3222,
      "Ġafr": 3223,
      "ctxtpointermarker": 3224,
      "Ġwrit": 3225,
      "Ġintfunctionmarkererrintfunctionmarker": 3226,
      "Ġfreecharpointermarker": 3227,
      "click": 3228,
      "famil": 3229,
      "Ġtry": 3230,
      "Ġconnect": 3231,
      "Ġnr": 3232,
      "lines": 3233,
      "Ġinter": 3234,
      "names": 3235,
      "getdata": 3236,
      "Ġoc": 3237,
      "uccess": 3238,
      "Ġgcallback": 3239,
      "idpointermarker": 3240,
      "nameintfunctionmarker": 3241,
      "present": 3242,
      "Ġintfunctionmarkerm": 3243,
      "focus": 3244,
      "Ġsigned": 3245,
      "six": 3246,
      "eee": 3247,
      "Ġintfunctionmarkerdb": 3248,
      "family": 3249,
      "letion": 3250,
      "Ġsizeofcharmarkerarray": 3251,
      "Ġversion": 3252,
      "grouppointermarker": 3253,
      "Ġnss": 3254,
      "peg": 3255,
      "Ġexpect": 3256,
      "Ġgstbuffer": 3257,
      "Ġdest": 3258,
      "256": 3259,
      "feat": 3260,
      "alo": 3261,
      "pintfunctionmarker": 3262,
      "readstructpointermarker": 3263,
      "nod": 3264,
      "messag": 3265,
      "aintfunctionmarkerintfunctionmarker": 3266,
      "Ġintfunctionmarkere": 3267,
      "Ġshow": 3268,
      "ending": 3269,
      "tpointermarkerintmarker": 3270,
      "77": 3271,
      "intfunctionmarkerintfunctionmarkeri": 3272,
      "Ġmodel": 3273,
      "Ġecere": 3274,
      "clust": 3275,
      "binding": 3276,
      "idmarker": 3277,
      "selector": 3278,
      "handlepointermarker": 3279,
      "wn": 3280,
      "Ġclear": 3281,
      "Ġvoidfunctionmarkerorcprogram": 3282,
      "Ġbgav": 3283,
      "slo": 3284,
      "mu": 3285,
      "structpointermarkerstructpointermarker": 3286,
      "getstring": 3287,
      "90": 3288,
      "normal": 3289,
      "listelempointermarker": 3290,
      "pv": 3291,
      "Ġevasobject": 3292,
      "Ġmutexunlock": 3293,
      "Ġgda": 3294,
      "gon": 3295,
      "Ġloop": 3296,
      "eline": 3297,
      "Ġcontain": 3298,
      "Ġgraph": 3299,
      "Ġlint": 3300,
      "wo": 3301,
      "Ġedge": 3302,
      "idvoidfunctionmarker": 3303,
      "basepointermarker": 3304,
      "fatal": 3305,
      "atype": 3306,
      "Ġvoidfunctionmarkerl": 3307,
      "cx": 3308,
      "ypointermarker": 3309,
      "Ġremove": 3310,
      "amet": 3311,
      "Ġsuccess": 3312,
      "Ġzend": 3313,
      "popup": 3314,
      "Ġvis": 3315,
      "Ġnautilus": 3316,
      "getvalue": 3317,
      "Ġcput": 3318,
      "getname": 3319,
      "vectorpointermarker": 3320,
      "paramvalues": 3321,
      "cleanup": 3322,
      "cret": 3323,
      "Ġbtr": 3324,
      "Ġtimet": 3325,
      "caps": 3326,
      "join": 3327,
      "statement": 3328,
      "network": 3329,
      "stand": 3330,
      "Ġintfunctionmarkerintintfunctionmarkerintfunctionmarker": 3331,
      "Ġpang": 3332,
      "Ġamd": 3333,
      "anim": 3334,
      "asetpointermarker": 3335,
      "Ġgsimple": 3336,
      "Ġghashtablepointermarker": 3337,
      "gnome": 3338,
      "Ġdbu": 3339,
      "continue": 3340,
      "Ġstructpointermarkerv": 3341,
      "combobox": 3342,
      "Ġdc": 3343,
      "glyph": 3344,
      "Ġrp": 3345,
      "ped": 3346,
      "Ġdraw": 3347,
      "dirty": 3348,
      "Ġcell": 3349,
      "remote": 3350,
      "ene": 3351,
      "constiterator": 3352,
      "Ġstructpointermarkerm": 3353,
      "fout": 3354,
      "Ġstructpointermarkert": 3355,
      "entity": 3356,
      "audi": 3357,
      "Ġxmlnode": 3358,
      "sstruct": 3359,
      "construct": 3360,
      "Ġgstbase": 3361,
      "texture": 3362,
      "browser": 3363,
      "coe": 3364,
      "stm": 3365,
      "methodid": 3366,
      "Ġrx": 3367,
      "delet": 3368,
      "Ġview": 3369,
      "ision": 3370,
      "Ġgstelement": 3371,
      "ended": 3372,
      "anguage": 3373,
      "aren": 3374,
      "direction": 3375,
      "Ġgstdebug": 3376,
      "Ġsizeofstructpointermarker": 3377,
      "Ġparser": 3378,
      "mgr": 3379,
      "now": 3380,
      "sourcepointermarker": 3381,
      "Ġpacket": 3382,
      "vpointermarker": 3383,
      "side": 3384,
      "fetch": 3385,
      "star": 3386,
      "Ġxmp": 3387,
      "information": 3388,
      "Ġhid": 3389,
      "localtpointermarker": 3390,
      "expect": 3391,
      "pointermarkeri": 3392,
      "Ġgstcapspointermarker": 3393,
      "edvoidfunctionmarker": 3394,
      "Ġstructpointermarkerc": 3395,
      "umentpointermarker": 3396,
      "bc": 3397,
      "Ġmulti": 3398,
      "nextvoidfunctionmarker": 3399,
      "Ġhas": 3400,
      "channels": 3401,
      "68": 3402,
      "odev": 3403,
      "resize": 3404,
      "Ġposition": 3405,
      "dostreammarker": 3406,
      "spac": 3407,
      "aintfunctionpointermarkerintfunctionmarker": 3408,
      "typevoidfunctionmarker": 3409,
      "Ġfilter": 3410,
      "andler": 3411,
      "oriz": 3412,
      "Ġstructpointermarkers": 3413,
      "peek": 3414,
      "Ġanjut": 3415,
      "Ġeinalist": 3416,
      "framepointermarker": 3417,
      "Ġcms": 3418,
      "Ġgvariantpointermarker": 3419,
      "Ġintfunctionmarkerfor": 3420,
      "listintfunctionmarker": 3421,
      "Ġskip": 3422,
      "Ġnon": 3423,
      "Ġui": 3424,
      "Ġtask": 3425,
      "containerpointermarker": 3426,
      "atedata": 3427,
      "Ġstructpointermarkertx": 3428,
      "anag": 3429,
      "verify": 3430,
      "encode": 3431,
      "ctxt": 3432,
      "Ġgeg": 3433,
      "alpha": 3434,
      "Ġproperty": 3435,
      "Ġdt": 3436,
      "way": 3437,
      "sio": 3438,
      "day": 3439,
      "Ġsym": 3440,
      "axis": 3441,
      "Ġstructpointermarkerh": 3442,
      "Ġlabel": 3443,
      "thisintfunctionmarker": 3444,
      "Ġintfunctionmarkerrcintfunctionmarker": 3445,
      "04": 3446,
      "Ġmail": 3447,
      "Ġxmms": 3448,
      "dbus": 3449,
      "fit": 3450,
      "Ġstructpointermarkeri": 3451,
      "stdout": 3452,
      "Ġgap": 3453,
      "delta": 3454,
      "Ġintmarkerpointermarker": 3455,
      "mult": 3456,
      "opcode": 3457,
      "Ġdcm": 3458,
      "Ġqt": 3459,
      "Ġstderr": 3460,
      "oth": 3461,
      "mutexlock": 3462,
      "Ġrtl": 3463,
      "aly": 3464,
      "Ġslot": 3465,
      "runtime": 3466,
      "Ġiss": 3467,
      "Ġ1000": 3468,
      "valueintfunctionmarker": 3469,
      "verbose": 3470,
      "emon": 3471,
      "hex": 3472,
      "Ġix": 3473,
      "Ġcore": 3474,
      "pointermarkerp": 3475,
      "Ġpdf": 3476,
      "binary": 3477,
      "Ġroot": 3478,
      "Ġvoidfunctionmarkerconstvoidfunctionmarker": 3479,
      "Ġdvb": 3480,
      "Ġmd": 3481,
      "oi": 3482,
      "lem": 3483,
      "fields": 3484,
      "Ġom": 3485,
      "endl": 3486,
      "cook": 3487,
      "Ġdiff": 3488,
      "front": 3489,
      "Ġirq": 3490,
      "monitor": 3491,
      "vv": 3492,
      "fast": 3493,
      "Ġmark": 3494,
      "cost": 3495,
      "Ġifcharpointermarker": 3496,
      "Ġshe": 3497,
      "Ġcor": 3498,
      "Ġcomple": 3499,
      "ume": 3500,
      "cerrorerror": 3501,
      "Ġcolumn": 3502,
      "mk": 3503,
      "curr": 3504,
      "background": 3505,
      "Ġseg": 3506,
      "writer": 3507,
      "ten": 3508,
      "funcvoidfunctionmarker": 3509,
      "Ġvoidfunctionmarkergcclosureswap": 3510,
      "Ġgsimpleasync": 3511,
      "Ġsane": 3512,
      "propec": 3513,
      "Ġbfd": 3514,
      "Ġgdata": 3515,
      "shadow": 3516,
      "Ġgtklist": 3517,
      "mpt": 3518,
      "Ġfn": 3519,
      "tect": 3520,
      "Ġorig": 3521,
      "Ġmatrix": 3522,
      "Ġunable": 3523,
      "swap": 3524,
      "uv": 3525,
      "Ġstrerror": 3526,
      "sizevoidfunctionmarker": 3527,
      "Ġstrchr": 3528,
      "qui": 3529,
      "infomarker": 3530,
      "weight": 3531,
      "trypointermarker": 3532,
      "acc": 3533,
      "Ġprintk": 3534,
      "ima": 3535,
      "Ġvoidfunctionmarkers": 3536,
      "chars": 3537,
      "Ġraw": 3538,
      "Ġspinunlockirq": 3539,
      "imer": 3540,
      "Ġgretl": 3541,
      "lout": 3542,
      "keys": 3543,
      "Ġargument": 3544,
      "descpointermarker": 3545,
      "Ġenummarker": 3546,
      "merge": 3547,
      "Ġgststructure": 3548,
      "pointermarkerrminpointermarkerrmaxpointermarkerrnatpointermarkerrminpointermarkerrmaxpointermarkerrnat": 3549,
      "Ġeina": 3550,
      "Ġfilename": 3551,
      "logerror": 3552,
      "etext": 3553,
      "quir": 3554,
      "ste": 3555,
      "paint": 3556,
      "reader": 3557,
      "creen": 3558,
      "Ġmain": 3559,
      "isvalid": 3560,
      "remov": 3561,
      "Ġblk": 3562,
      "Ġedict": 3563,
      "hashtable": 3564,
      "Ġsq": 3565,
      "Ġbutton": 3566,
      "replace": 3567,
      "spar": 3568,
      "Ġstructpointermarkerrx": 3569,
      "33": 3570,
      "iltin": 3571,
      "edat": 3572,
      "omethod": 3573,
      "Ġajstr": 3574,
      "Ġplugin": 3575,
      "otype": 3576,
      "isempty": 3577,
      "Ġtre": 3578,
      "Ġnemo": 3579,
      "vmethodid": 3580,
      "termin": 3581,
      "Ġsyn": 3582,
      "pages": 3583,
      "propecerenamespaceecere": 3584,
      "Ġdel": 3585,
      "Ġgtktreepathpointermarker": 3586,
      "fpointermarker": 3587,
      "ffix": 3588,
      "Ġgfpkernel": 3589,
      "Ġintfunctionmarkerrintfunctionmarker": 3590,
      "vr": 3591,
      "chk": 3592,
      "bufsize": 3593,
      "gpointermarker": 3594,
      "Ġmr": 3595,
      "bufpointermarker": 3596,
      "vs": 3597,
      "mn": 3598,
      "Ġthrow": 3599,
      "Ġgsignalconnect": 3600,
      "Ġgintpointermarker": 3601,
      "Ġsys": 3602,
      "Ġpn": 3603,
      "initstructpointermarker": 3604,
      "Ġsndso": 3605,
      "bio": 3606,
      "Ġbitmap": 3607,
      "915": 3608,
      "uff": 3609,
      "objtpointermarker": 3610,
      "Ġvoidfunctionmarkersizeof": 3611,
      "sth": 3612,
      "floatfunctionpointermarker": 3613,
      "strict": 3614,
      "Ġeb": 3615,
      "ture": 3616,
      "tocpu": 3617,
      "vc": 3618,
      "scsi": 3619,
      "idata": 3620,
      "Ġxfs": 3621,
      "zz": 3622,
      "Ġintfunctionmarkerqmetaobjectintfunctionmarkerintfunctionmarker": 3623,
      "luastatepointermarker": 3624,
      "ummy": 3625,
      "Ġgcancellable": 3626,
      "Ġhave": 3627,
      "handlerpointermarker": 3628,
      "Ġvoidfunctionmarkerf": 3629,
      "iface": 3630,
      "completion": 3631,
      "omp": 3632,
      "wind": 3633,
      "guiwindow": 3634,
      "nodes": 3635,
      "Ġecore": 3636,
      "19": 3637,
      "quot": 3638,
      "Ġhead": 3639,
      "colum": 3640,
      "ah": 3641,
      "Ġmust": 3642,
      "Ġstructpointermarkerdev": 3643,
      "Ġnodetpointermarker": 3644,
      "ortpointermarker": 3645,
      "Ġns": 3646,
      "Ġnil": 3647,
      "attach": 3648,
      "Ġfin": 3649,
      "rece": 3650,
      "Ġfont": 3651,
      "sint": 3652,
      "latile": 3653,
      "Ġvoidfunctionmarkerself": 3654,
      "ov": 3655,
      "intfunctionmarkerintfunctionaintfunctionpointermarkerintfunctionmarker": 3656,
      "keyintfunctionmarker": 3657,
      "prepar": 3658,
      "Ġblockpointermarker": 3659,
      "Ġcant": 3660,
      "pub": 3661,
      "Ġintfunctionmarkerk": 3662,
      "transfer": 3663,
      "Ġwidget": 3664,
      "etree": 3665,
      "datatpointermarker": 3666,
      "json": 3667,
      "Ġmm": 3668,
      "allocation": 3669,
      "desktop": 3670,
      "tor": 3671,
      "limap": 3672,
      "Ġwait": 3673,
      "Ġgbooleanmarker": 3674,
      "Ġical": 3675,
      "ater": 3676,
      "Ġreq": 3677,
      "imum": 3678,
      "longmarker": 3679,
      "Ġpd": 3680,
      "Ġneed": 3681,
      "serial": 3682,
      "aux": 3683,
      "chart": 3684,
      "med": 3685,
      "prom": 3686,
      "Ġ24": 3687,
      "Ġesl": 3688,
      "Ġqueue": 3689,
      "nl": 3690,
      "nvoidfunctionmarker": 3691,
      "Ġmutexlock": 3692,
      "utdown": 3693,
      "Ġvoidfunctionmarkerretvoidfunctionmarker": 3694,
      "Ġ05": 3695,
      "ernal": 3696,
      "Ġmove": 3697,
      "Ġstore": 3698,
      "vars": 3699,
      "Ġcmp": 3700,
      "Ġbin": 3701,
      "cut": 3702,
      "Ġce": 3703,
      "meth": 3704,
      "surface": 3705,
      "Ġcallback": 3706,
      "gobject": 3707,
      "pointermarkername": 3708,
      "Ġnetdev": 3709,
      "Ġcfg": 3710,
      "Ġintfunctionmarkerget": 3711,
      "reshold": 3712,
      "65": 3713,
      "tcp": 3714,
      "Ġcla": 3715,
      "Ġintfunctionmarkeris": 3716,
      "ative": 3717,
      "Ġpm": 3718,
      "Ġgcr": 3719,
      "dbpointermarker": 3720,
      "neg": 3721,
      "olk": 3722,
      "portpointermarker": 3723,
      "idev": 3724,
      "Ġintfunctionmarkerresultintfunctionmarker": 3725,
      "chartpointermarker": 3726,
      "Ġstructpointermarkerl": 3727,
      "flagsvoidfunctionmarker": 3728,
      "identifier": 3729,
      "keyword": 3730,
      "finished": 3731,
      "83": 3732,
      "Ġgno": 3733,
      "sbegin": 3734,
      "Ġfp": 3735,
      "stable": 3736,
      "Ġgvfs": 3737,
      "ze": 3738,
      "Ġkfreestructpointermarker": 3739,
      "worker": 3740,
      "accept": 3741,
      "rp": 3742,
      "listget": 3743,
      "Ġradeon": 3744,
      "packetpointermarker": 3745,
      "Ġpanel": 3746,
      "help": 3747,
      "gap": 3748,
      "uma": 3749,
      "timestamp": 3750,
      "ushback": 3751,
      "hid": 3752,
      "datum": 3753,
      "org": 3754,
      "Ġcont": 3755,
      "rv": 3756,
      "linepointermarker": 3757,
      "exprpointermarker": 3758,
      "Ġgtktreeselection": 3759,
      "Ġconf": 3760,
      "Ġstop": 3761,
      "Ġcy": 3762,
      "oft": 3763,
      "relation": 3764,
      "cid": 3765,
      "Ġul": 3766,
      "Ġieee": 3767,
      "locale": 3768,
      "round": 3769,
      "acl": 3770,
      "erator": 3771,
      "headerpointermarker": 3772,
      "separ": 3773,
      "Ġwm": 3774,
      "des": 3775,
      "brid": 3776,
      "loader": 3777,
      "jor": 3778,
      "Ġintfunctionmarkersizet": 3779,
      "Ġgtkwindow": 3780,
      "Ġmlx": 3781,
      "Ġstrdup": 3782,
      "coll": 3783,
      "ived": 3784,
      "Ġstringmarker": 3785,
      "xid": 3786,
      "privatedata": 3787,
      "disconnect": 3788,
      "Ġopj": 3789,
      "Ġgdkpixbufpointermarker": 3790,
      "dic": 3791,
      "need": 3792,
      "Ġgedit": 3793,
      "Ġrect": 3794,
      "sive": 3795,
      "Ġedicttpointermarker": 3796,
      "timet": 3797,
      "charset": 3798,
      "Ġsca": 3799,
      "scape": 3800,
      "ino": 3801,
      "channelpointermarker": 3802,
      "sensitive": 3803,
      "bufintfunctionmarker": 3804,
      "lpointermarker": 3805,
      "Ġxmlcharpointermarker": 3806,
      "other": 3807,
      "Ġgegl": 3808,
      "Ġdns": 3809,
      "refcount": 3810,
      "settext": 3811,
      "Ġvert": 3812,
      "Ġcal": 3813,
      "Ġfz": 3814,
      "Ġgstrdupprintf": 3815,
      "provider": 3816,
      "Ġaw": 3817,
      "Ġhw": 3818,
      "Ġ15": 3819,
      "elm": 3820,
      "renderer": 3821,
      "sdp": 3822,
      "Ġvide": 3823,
      "Ġcert": 3824,
      "dimen": 3825,
      "ressed": 3826,
      "Ġss": 3827,
      "iod": 3828,
      "tre": 3829,
      "yy": 3830,
      "eq": 3831,
      "nb": 3832,
      "Ġmonomethod": 3833,
      "Ġcpu": 3834,
      "Ġsf": 3835,
      "Ġexpression": 3836,
      "gx": 3837,
      "Ġgtktoggle": 3838,
      "Ġmi": 3839,
      "Ġgtktreeiter": 3840,
      "Ġipmi": 3841,
      "Ġgwarning": 3842,
      "Ġappend": 3843,
      "Ġvt": 3844,
      "Ġxmlnodepointermarker": 3845,
      "Ġgnome": 3846,
      "sect": 3847,
      "87": 3848,
      "fifo": 3849,
      "Ġifh": 3850,
      "Ġpp": 3851,
      "abort": 3852,
      "Ġsqlite": 3853,
      "Ġcontrol": 3854,
      "Ġrender": 3855,
      "gnore": 3856,
      "Ġauto": 3857,
      "dock": 3858,
      "Ġmethod": 3859,
      "dimension": 3860,
      "builderpointermarker": 3861,
      "interrupt": 3862,
      "Ġmpr": 3863,
      "application": 3864,
      "Ġgstrtp": 3865,
      "Ġintfunctionmarkerecereclassecerenamespaceecere": 3866,
      "lan": 3867,
      "mg": 3868,
      "34": 3869,
      "urb": 3870,
      "typet": 3871,
      "Ġinstruction": 3872,
      "Ġdoublefunctionmarker": 3873,
      "Ġlongpointermarker": 3874,
      "pobject": 3875,
      "trie": 3876,
      "Ġswig": 3877,
      "ric": 3878,
      "Ġflm": 3879,
      "sset": 3880,
      "Ġcond": 3881,
      "Ġspinlockirq": 3882,
      "Ġpass": 3883,
      "susp": 3884,
      "cachepointermarker": 3885,
      "super": 3886,
      "war": 3887,
      "odetpointermarker": 3888,
      "entrytpointermarker": 3889,
      "staticcast": 3890,
      "pat": 3891,
      "Ġvoidfunctionmarkercallbackvoidfunctionmarker": 3892,
      "queuepointermarker": 3893,
      "Ġempty": 3894,
      "sole": 3895,
      "zalloc": 3896,
      "Ġinteger": 3897,
      "Ġintfunctionpintfunctionpointermarker": 3898,
      "Ġsum": 3899,
      "menuitem": 3900,
      "000000": 3901,
      "Ġvoidfunctionmarkertp": 3902,
      "Ġcs": 3903,
      "edi": 3904,
      "pointermarkertype": 3905,
      "Ġintfunctionmarkergit": 3906,
      "allo": 3907,
      "odo": 3908,
      "Ġgnutls": 3909,
      "Ġtimeout": 3910,
      "Ġintfunctionmarkerforintfunctionmarker": 3911,
      "structintfunctionmarkermarker": 3912,
      "endor": 3913,
      "rot": 3914,
      "Ġgfi": 3915,
      "Ġdf": 3916,
      "Ġpi": 3917,
      "messaget": 3918,
      "oute": 3919,
      "loglog": 3920,
      "atomic": 3921,
      "Ġgucharpointermarker": 3922,
      "Ġintfunctiondataintfunctionpointermarker": 3923,
      "Ġlp": 3924,
      "Ġmenu": 3925,
      "tracker": 3926,
      "Ġover": 3927,
      "trun": 3928,
      "Ġgss": 3929,
      "press": 3930,
      "kill": 3931,
      "Ġreset": 3932,
      "Ġace": 3933,
      "ventpointermarker": 3934,
      "pository": 3935,
      "enumber": 3936,
      "boot": 3937,
      "Ġseek": 3938,
      "lack": 3939,
      "category": 3940,
      "Ġsort": 3941,
      "Ġfput": 3942,
      "Ġ255": 3943,
      "Ġarchive": 3944,
      "Ġmt": 3945,
      "abs": 3946,
      "arker": 3947,
      "pixpointermarker": 3948,
      "camer": 3949,
      "Ġgio": 3950,
      "vmethodidecerenamespaceecere": 3951,
      "nienvpointermarker": 3952,
      "zip": 3953,
      "Ġtok": 3954,
      "94": 3955,
      "pooltpointermarker": 3956,
      "Ġconstant": 3957,
      "apply": 3958,
      "password": 3959,
      "Ġcairotpointermarker": 3960,
      "ark": 3961,
      "gettype": 3962,
      "Ġgkm": 3963,
      "cols": 3964,
      "bp": 3965,
      "Ġlex": 3966,
      "Ġdim": 3967,
      "sensor": 3968,
      "Ġvoidfunctionmarkerev": 3969,
      "tsp": 3970,
      "Ġglistpointermarkerdata": 3971,
      "cintfunctionmarker": 3972,
      "registr": 3973,
      "Ġnl": 3974,
      "oframe": 3975,
      "edatapointermarker": 3976,
      "Ġvoidfunctionmarkererr": 3977,
      "cluster": 3978,
      "Ġnc": 3979,
      "rs": 3980,
      "voidfunctionvoidfunctionvoidfunctionpointermarker": 3981,
      "Ġgasync": 3982,
      "itpointermarker": 3983,
      "Ġstructpointermarkerf": 3984,
      "gy": 3985,
      "Ġgmt": 3986,
      "gdk": 3987,
      "objectvoidfunctionmarker": 3988,
      "luid": 3989,
      "cached": 3990,
      "abstract": 3991,
      "Ġintfunctionmarkerisl": 3992,
      "Ġgamg": 3993,
      "gre": 3994,
      "Ġscsi": 3995,
      "macro": 3996,
      "Ġstructpointermarkerstate": 3997,
      "querypointermarker": 3998,
      "cout": 3999,
      "abled": 4000,
      "Ġboolpointermarker": 4001,
      "Ġscreen": 4002,
      "expand": 4003,
      "media": 4004,
      "erial": 4005,
      "gh": 4006,
      "slist": 4007,
      "glo": 4008,
      "notebook": 4009,
      "pointervoidfunctionmarkermarker": 4010,
      "erequest": 4011,
      "Ġeio": 4012,
      "Ġqlist": 4013,
      "namespace": 4014,
      "Ġaccess": 4015,
      "Ġtab": 4016,
      "ialize": 4017,
      "allback": 4018,
      "Ġcurr": 4019,
      "msgtpointermarker": 4020,
      "tran": 4021,
      "pet": 4022,
      "mpeg": 4023,
      "Ġvoidfunctionmarkerendif": 4024,
      "Ġsdl": 4025,
      "ln": 4026,
      "ingintfunctionmarker": 4027,
      "dataintfunctionmarkerintfunctionmarker": 4028,
      "Ġintfunctionmarkerv": 4029,
      "structintfunctionpointermarker": 4030,
      "Ġbytes": 4031,
      "ldap": 4032,
      "Ġactiv": 4033,
      "gam": 4034,
      "irc": 4035,
      "enull": 4036,
      "skb": 4037,
      "blob": 4038,
      "ws": 4039,
      "plot": 4040,
      "Ġcf": 4041,
      "Ġhb": 4042,
      "pthread": 4043,
      "Ġintfunctionmarkerswitch": 4044,
      "Ġfloatfunction": 4045,
      "outer": 4046,
      "sure": 4047,
      "ewid": 4048,
      "Ġplan": 4049,
      "Ġstrcase": 4050,
      "Ġallocate": 4051,
      "lobjectpointermarker": 4052,
      "Ġstmt": 4053,
      "Ġvoidfunctionmarkerendifvoidfunctionmarker": 4054,
      "stage": 4055,
      "floatfunctionmarkermarker": 4056,
      "Ġparameter": 4057,
      "Ġsoap": 4058,
      "contexttpointermarker": 4059,
      "stride": 4060,
      "Ġintfunctionmarkerbase": 4061,
      "freet": 4062,
      "foreachentry": 4063,
      "gpio": 4064,
      "trigger": 4065,
      "calc": 4066,
      "Ġgtksource": 4067,
      "voidfunctionvoidfunctionpointermarker": 4068,
      "dx": 4069,
      "coding": 4070,
      "bottom": 4071,
      "Ġtrack": 4072,
      "propertypointermarker": 4073,
      "listvoidfunctionmarker": 4074,
      "Ġrecord": 4075,
      "drag": 4076,
      "parameters": 4077,
      "statet": 4078,
      "Ġbus": 4079,
      "pointervoidfunctionmarkervoidfunctionmarker": 4080,
      "qt": 4081,
      "Ġunlikely": 4082,
      "Ġjack": 4083,
      "enodepointermarker": 4084,
      "rary": 4085,
      "eremove": 4086,
      "Ġabort": 4087,
      "pointermarkert": 4088,
      "Ġtreecode": 4089,
      "strcmp": 4090,
      "pci": 4091,
      "allocate": 4092,
      "Ġleave": 4093,
      "Ġgluster": 4094,
      "Ġql": 4095,
      "legal": 4096,
      "mx": 4097,
      "Ġvoidfunctionmarkerb": 4098,
      "nic": 4099,
      "Ġunionpointermarker": 4100,
      "crement": 4101,
      "ulate": 4102,
      "activate": 4103,
      "cookie": 4104,
      "dns": 4105,
      "Ġpush": 4106,
      "Ġomp": 4107,
      "gotoerror": 4108,
      "intfunctionmarkerintfunctionmarkerecere": 4109,
      "complex": 4110,
      "Ġchain": 4111,
      "edn": 4112,
      "png": 4113,
      "Ġbasicblock": 4114,
      "Ġintfunctionmarkerdefault": 4115,
      "getobject": 4116,
      "Ġsockaddr": 4117,
      "Ġfreestructpointermarker": 4118,
      "dispatch": 4119,
      "nil": 4120,
      "colo": 4121,
      "fon": 4122,
      "printk": 4123,
      "finalize": 4124,
      "panel": 4125,
      "rm": 4126,
      "Ġtm": 4127,
      "ness": 4128,
      "Ġvoidfunctionmarkerargs": 4129,
      "slurmdb": 4130,
      "cipher": 4131,
      "Ġfclose": 4132,
      "gnum": 4133,
      "Ġhgotoerror": 4134,
      "tkey": 4135,
      "Ġii": 4136,
      "Ġ256": 4137,
      "ormat": 4138,
      "Ġgvalueset": 4139,
      "gard": 4140,
      "ple": 4141,
      "Ġdbusmessage": 4142,
      "Ġbound": 4143,
      "upper": 4144,
      "columns": 4145,
      "oci": 4146,
      "Ġintfunctionmarkersintfunctionmarker": 4147,
      "Ġacl": 4148,
      "byname": 4149,
      "codeintfunctionmarker": 4150,
      "comman": 4151,
      "pointermarkerdata": 4152,
      "extent": 4153,
      "itr": 4154,
      "Ġifi": 4155,
      "endi": 4156,
      "Ġgtktreeiterpointermarker": 4157,
      "35": 4158,
      "cent": 4159,
      "pvoidfunctionpointermarkervoidfunctionmarker": 4160,
      "Ġvstop": 4161,
      "Ġvoidfunctionfuncvoidfunctionpointermarker": 4162,
      "44": 4163,
      "lopt": 4164,
      "definemarker": 4165,
      "regstructpointermarker": 4166,
      "allocated": 4167,
      "glistpointermarker": 4168,
      "Ġvoidfunctionmarkerselfvoidfunctionmarkervoidfunctionmarker": 4169,
      "intfunctionintfunctionpointermarker": 4170,
      "after": 4171,
      "Ġstructpointermarkernum": 4172,
      "Ġdoublepointermarkerintmarker": 4173,
      "vf": 4174,
      "errors": 4175,
      "sembl": 4176,
      "Ġxexp": 4177,
      "depend": 4178,
      "specifi": 4179,
      "msub": 4180,
      "freeintfunctionmarkerintfunctionmarker": 4181,
      "locked": 4182,
      "Ġproto": 4183,
      "atorpointermarker": 4184,
      "Ġintfunctionmarkerswitchintfunctionmarker": 4185,
      "compile": 4186,
      "mpar": 4187,
      "Ġstructpointermarkeru": 4188,
      "odec": 4189,
      "spushback": 4190,
      "privstructpointermarker": 4191,
      "200": 4192,
      "Ġicon": 4193,
      "center": 4194,
      "valuetype": 4195,
      "Ġgtkentry": 4196,
      "Ġenv": 4197,
      "Ġvoidfunctionmarkerunsigned": 4198,
      "Ġgoocanvas": 4199,
      "Ġgconf": 4200,
      "scli": 4201,
      "leaf": 4202,
      "70": 4203,
      "clause": 4204,
      "Ġdh": 4205,
      "36": 4206,
      "undo": 4207,
      "ointfunctionmarker": 4208,
      "adius": 4209,
      "privvoidfunctionmarkervoidfunctionmarker": 4210,
      "gba": 4211,
      "Ġutf": 4212,
      "Ġxdr": 4213,
      "Ġlookup": 4214,
      "nerpointermarker": 4215,
      "got": 4216,
      "validate": 4217,
      "Ġintfunctionmarkers": 4218,
      "instr": 4219,
      "Ġgcry": 4220,
      "Ġvoidfunctiondatavoidfunctionpointermarker": 4221,
      "Ġspinunlockirqrestore": 4222,
      "hal": 4223,
      "Ġxmlsec": 4224,
      "Ġfw": 4225,
      "blen": 4226,
      "Ġright": 4227,
      "elp": 4228,
      "reenodepointermarker": 4229,
      "Ġintfunctionmarkerctx": 4230,
      "spell": 4231,
      "poolpointermarker": 4232,
      "eres": 4233,
      "Ġcontainer": 4234,
      "itemtpointermarker": 4235,
      "actorpointermarker": 4236,
      "xmlnodepointermarker": 4237,
      "kerror": 4238,
      "copyvoidfunctionmarker": 4239,
      "Ġvoidfunctionmarkerfree": 4240,
      "Ġatomic": 4241,
      "idintfunctionmarker": 4242,
      "Ġcpp": 4243,
      "ucharpointermarker": 4244,
      "tbl": 4245,
      "Ġinternal": 4246,
      "Ġcap": 4247,
      "its": 4248,
      "setvalue": 4249,
      "serve": 4250,
      "blocksize": 4251,
      "recordpointermarker": 4252,
      "shape": 4253,
      "bon": 4254,
      "resp": 4255,
      "sat": 4256,
      "execut": 4257,
      "collect": 4258,
      "score": 4259,
      "import": 4260,
      "svg": 4261,
      "ination": 4262,
      "getnext": 4263,
      "perm": 4264,
      "ification": 4265,
      "Ġsupport": 4266,
      "margin": 4267,
      "Ġaf": 4268,
      "ody": 4269,
      "mission": 4270,
      "ingle": 4271,
      "Ġstructpointermarkermax": 4272,
      "Ġvoidfunctionmarkerinput": 4273,
      "realtmarkerrealtmarker": 4274,
      "pkt": 4275,
      "imal": 4276,
      "voidfunctionmarkervoidfunctionmarkervoidfunctionmarkervoidfunctionmarkervoidfunctionmarkervoidfunctionmarker": 4277,
      "Ġgstobject": 4278,
      "Ġlt": 4279,
      "Ġvoidfunctionmarkergcclosureswapdata": 4280,
      "Ġoid": 4281,
      "bitsintfunctionmarkerunsigned": 4282,
      "expected": 4283,
      "Ġtuple": 4284,
      "Ġgkey": 4285,
      "white": 4286,
      "Ġpixel": 4287,
      "Ġmpz": 4288,
      "rectpointermarker": 4289,
      "setr": 4290,
      "aa": 4291,
      "Ġbfa": 4292,
      "Ġmpeg": 4293,
      "plain": 4294,
      "Ġgener": 4295,
      "dicate": 4296,
      "xm": 4297,
      "Ġintfunctionmarkerdefaultintfunctionmarker": 4298,
      "regex": 4299,
      "Ġterm": 4300,
      "norm": 4301,
      "Ġsign": 4302,
      "certificate": 4303,
      "Ġuerrorcode": 4304,
      "owrite": 4305,
      "intpointermarkerintpointermarker": 4306,
      "datatype": 4307,
      "origin": 4308,
      "setintfunctionmarker": 4309,
      "expression": 4310,
      "interppointermarker": 4311,
      "31": 4312,
      "transport": 4313,
      "Ġvalist": 4314,
      "elistpointermarker": 4315,
      "include": 4316,
      "Ġgparamspecpointermarker": 4317,
      "Ġstyle": 4318,
      "shortmarker": 4319,
      "reenode": 4320,
      "Ġvoidfunctionmarkerfor": 4321,
      "inser": 4322,
      "anager": 4323,
      "Ġnd": 4324,
      "definit": 4325,
      "ample": 4326,
      "Ġvoidfunctionmarkerwhile": 4327,
      "character": 4328,
      "adv": 4329,
      "Ġident": 4330,
      "Ġnt": 4331,
      "documentpointermarker": 4332,
      "vious": 4333,
      "columnpointermarker": 4334,
      "conver": 4335,
      "Ġprocname": 4336,
      "acp": 4337,
      "xfer": 4338,
      "Ġslurm": 4339,
      "viron": 4340,
      "76": 4341,
      "Ġmysql": 4342,
      "lain": 4343,
      "Ġvoidfunctiong": 4344,
      "Ġtransaction": 4345,
      "Ġostreammarker": 4346,
      "literal": 4347,
      "Ġunicode": 4348,
      "Ġintpointermarkerintmarker": 4349,
      "96": 4350,
      "paramvaluesvoidfunctionmarkermarker": 4351,
      "graphic": 4352,
      "paramspointermarker": 4353,
      "byt": 4354,
      "rpc": 4355,
      "Ġinsert": 4356,
      "acy": 4357,
      "Ġgm": 4358,
      "Ġdfb": 4359,
      "intmarkerarray": 4360,
      "ascii": 4361,
      "Ġvoidfunctionvoidfunctionvoidfunction": 4362,
      "login": 4363,
      "demuxpointermarker": 4364,
      "Ġvariable": 4365,
      "Ġdevdbg": 4366,
      "xc": 4367,
      "xffff": 4368,
      "Ġmag": 4369,
      "dom": 4370,
      "Ġmai": 4371,
      "Ġuintmarker": 4372,
      "ally": 4373,
      "Ġegg": 4374,
      "Ġdicttpointermarker": 4375,
      "combo": 4376,
      "bv": 4377,
      "Ġvoidfunctionmarkersvoidfunctionmarker": 4378,
      "Ġvoidfunctionmarkersizeofvoidfunctionmarkervoidfunctionmarker": 4379,
      "srcpointermarker": 4380,
      "Ġsetting": 4381,
      "entic": 4382,
      "Ġnmsetting": 4383,
      "Ġpref": 4384,
      "vect": 4385,
      "initial": 4386,
      "56": 4387,
      "Ġtiff": 4388,
      "tags": 4389,
      "spi": 4390,
      "Ġbx": 4391,
      "race": 4392,
      "eregist": 4393,
      "edr": 4394,
      "Ġvoidfunctionmarkerinputchr": 4395,
      "lg": 4396,
      "sparql": 4397,
      "wake": 4398,
      "unpack": 4399,
      "isplay": 4400,
      "Ġhist": 4401,
      "Ġpf": 4402,
      "shot": 4403,
      "Ġgdal": 4404,
      "tocpustructpointermarker": 4405,
      "realloc": 4406,
      "datetime": 4407,
      "Ġvaluemarker": 4408,
      "buffersize": 4409,
      "usec": 4410,
      "Ġresponse": 4411,
      "Ġvoidfunctioncmd": 4412,
      "userdata": 4413,
      "Ġ64": 4414,
      "Ġcout": 4415,
      "force": 4416,
      "fy": 4417,
      "intvoidfunctionmarkermarker": 4418,
      "Ġgstringappend": 4419,
      "Ġintfunctionmarkerdataintfunctionmarker": 4420,
      "progra": 4421,
      "crypto": 4422,
      "endpoint": 4423,
      "cbvoidfunctionmarker": 4424,
      "branch": 4425,
      "Ġcputole": 4426,
      "Ġvp": 4427,
      "etable": 4428,
      "Ġvoidfunctionmarkerpointervoidfunctionmarker": 4429,
      "gtkwidget": 4430,
      "Ġevasobjectpointermarker": 4431,
      "der": 4432,
      "Ġintfunctionmarkeruint": 4433,
      "Ġrequire": 4434,
      "Ġintfunctionmarkerj": 4435,
      "racker": 4436,
      "Ġprintkkern": 4437,
      "iterate": 4438,
      "enot": 4439,
      "Ġgstelementpointermarker": 4440,
      "Ġvoidfunctionmarkergf": 4441,
      "Ġbooleanmarker": 4442,
      "mis": 4443,
      "methodec": 4444,
      "eta": 4445,
      "idxintfunctionmarker": 4446,
      "Ġurl": 4447,
      "Ġcoord": 4448,
      "charfunctionpointermarker": 4449,
      "Ġsb": 4450,
      "Ġuid": 4451,
      "Ġintfunctionmarkerecerepointerecerenamespaceecere": 4452,
      "wq": 4453,
      "capab": 4454,
      "Ġscale": 4455,
      "xpr": 4456,
      "Ġcam": 4457,
      "Ġclutteractor": 4458,
      "Ġactive": 4459,
      "sound": 4460,
      "inate": 4461,
      "Ġvoidfunctionmarkerdb": 4462,
      "Ġvoidfunctioncb": 4463,
      "once": 4464,
      "Ġjo": 4465,
      "sptr": 4466,
      "separator": 4467,
      "Ġpixpointermarker": 4468,
      "Ġggob": 4469,
      "Ġclock": 4470,
      "countintfunctionmarker": 4471,
      "filterpointermarker": 4472,
      "checkout": 4473,
      "pointermarkerg": 4474,
      "Ġignore": 4475,
      "statu": 4476,
      "adjustment": 4477,
      "Ġsndpcm": 4478,
      "Ġscope": 4479,
      "custom": 4480,
      "Ġintfunctionmarkerout": 4481,
      "Ġfill": 4482,
      "Ġgfx": 4483,
      "commandevent": 4484,
      "Ġgtkwidgetset": 4485,
      "Ġgptrarraypointermarker": 4486,
      "repo": 4487,
      "palet": 4488,
      "Ġgck": 4489,
      "mf": 4490,
      "Ġeof": 4491,
      "alen": 4492,
      "equal": 4493,
      "Ġgfreegcharpointermarker": 4494,
      "privatetpointermarker": 4495,
      "blue": 4496,
      "Ġclgit": 4497,
      "nom": 4498,
      "Ġgstvide": 4499,
      "Ġvoidfunctionex": 4500,
      "geom": 4501,
      "Ġbignum": 4502,
      "Ġldn": 4503,
      "orith": 4504,
      "getint": 4505,
      "Ġssh": 4506,
      "Ġintfunctionmarkersizetintfunctionmarker": 4507,
      "inv": 4508,
      "resintfunctionmarker": 4509,
      "available": 4510,
      "extr": 4511,
      "rendererpointermarker": 4512,
      "listintmarker": 4513,
      "Ġintfunctionmarkercintfunctionmarker": 4514,
      "modified": 4515,
      "miss": 4516,
      "Ġtile": 4517,
      "kl": 4518,
      "Ġgptrarray": 4519,
      "lendar": 4520,
      "sas": 4521,
      "26": 4522,
      "analy": 4523,
      "Ġcut": 4524,
      "tvsec": 4525,
      "adio": 4526,
      "Ġgig": 4527,
      "obuf": 4528,
      "Ġvoidfunctionmarkerivoidfunctionmarker": 4529,
      "cg": 4530,
      "extra": 4531,
      "Ġproject": 4532,
      "closurevoidfunctionmarker": 4533,
      "Ġda": 4534,
      "Ġeconfig": 4535,
      "Ġstrcat": 4536,
      "Ġall": 4537,
      "Ġsge": 4538,
      "Ġreport": 4539,
      "Ġfb": 4540,
      "repository": 4541,
      "ach": 4542,
      "argvoidfunctionpointermarker": 4543,
      "Ġscmobj": 4544,
      "Ġbnx": 4545,
      "bytearray": 4546,
      "subst": 4547,
      "Ġfprint": 4548,
      "Ġspace": 4549,
      "verti": 4550,
      "Ġpango": 4551,
      "ssy": 4552,
      "Ġpointervoidfunctionmarkerif": 4553,
      "fft": 4554,
      "special": 4555,
      "diag": 4556,
      "Ġgtktreemodelget": 4557,
      "Ġsystem": 4558,
      "span": 4559,
      "Ġcard": 4560,
      "Ġunsignedarker": 4561,
      "getsize": 4562,
      "contextmarker": 4563,
      "Ġunlock": 4564,
      "Ġgrl": 4565,
      "shutdown": 4566,
      "rgb": 4567,
      "97": 4568,
      "ches": 4569,
      "truevoidfunctionmarker": 4570,
      "nn": 4571,
      "Ġnetdevice": 4572,
      "share": 4573,
      "Ġintfunctionintfunction": 4574,
      "Ġconvert": 4575,
      "ef": 4576,
      "stdstring": 4577,
      "Ġgtkcell": 4578,
      "Ġdiv": 4579,
      "Ġhpdf": 4580,
      "Ġintfunctionmarkerstr": 4581,
      "hl": 4582,
      "quirk": 4583,
      "Ġ02": 4584,
      "38": 4585,
      "Ġintfunctionmarkercmp": 4586,
      "Ġvoidfunctionmarkerx": 4587,
      "Ġhgotoerrorh": 4588,
      "serverpointermarker": 4589,
      "shell": 4590,
      "could": 4591,
      "listhead": 4592,
      "km": 4593,
      "rq": 4594,
      "invoke": 4595,
      "Ġfli": 4596,
      "Ġone": 4597,
      "msy": 4598,
      "Ġpattern": 4599,
      "charpointermarkerintmarker": 4600,
      "Ġgmp": 4601,
      "filetpointermarker": 4602,
      "dead": 4603,
      "jit": 4604,
      "arr": 4605,
      "cop": 4606,
      "sizepointermarker": 4607,
      "infostructpointermarker": 4608,
      "Ġtt": 4609,
      "elements": 4610,
      "descr": 4611,
      "destruct": 4612,
      "Ġstdstringmarker": 4613,
      "tip": 4614,
      "sim": 4615,
      "rtp": 4616,
      "finet": 4617,
      "saved": 4618,
      "arena": 4619,
      "erenamespaceed": 4620,
      "Ġfaile": 4621,
      "Ġecal": 4622,
      "Ġinclude": 4623,
      "Ġsheet": 4624,
      "ourc": 4625,
      "28": 4626,
      "floatfunction": 4627,
      "declaration": 4628,
      "Ġvoidfunctionvoidfunction": 4629,
      "Ġworld": 4630,
      "curity": 4631,
      "produ": 4632,
      "connpointermarker": 4633,
      "standard": 4634,
      "crt": 4635,
      "nss": 4636,
      "Ġvs": 4637,
      "Ġalign": 4638,
      "aded": 4639,
      "sx": 4640,
      "Ġgnew": 4641,
      "hide": 4642,
      "Ġstructpointermarkerid": 4643,
      "implpointermarker": 4644,
      "buffertpointermarker": 4645,
      "Ġatk": 4646,
      "obe": 4647,
      "exml": 4648,
      "Ġrece": 4649,
      "dirpointermarker": 4650,
      "Ġupdat": 4651,
      "jobpointermarker": 4652,
      "Ġstdendl": 4653,
      "small": 4654,
      "ientation": 4655,
      "loatfunctionmarker": 4656,
      "arge": 4657,
      "operator": 4658,
      "Ġvalu": 4659,
      "ich": 4660,
      "Ġstep": 4661,
      "Ġpyerr": 4662,
      "unmap": 4663,
      "instpointermarker": 4664,
      "vd": 4665,
      "ffffff": 4666,
      "proces": 4667,
      "Ġintfunctionmarkersizeofintfunctionmarkerintfunctionmarker": 4668,
      "datasetpointermarker": 4669,
      "Ġlow": 4670,
      "Ġbl": 4671,
      "umb": 4672,
      "sevent": 4673,
      "ups": 4674,
      "offsetintfunctionmarker": 4675,
      "vision": 4676,
      "sempty": 4677,
      "Ġte": 4678,
      "Ġhtml": 4679,
      "Ġcursor": 4680,
      "Ġmeta": 4681,
      "Ġgtktreepath": 4682,
      "aser": 4683,
      "Ġgstdebugobject": 4684,
      "voice": 4685,
      "unlikely": 4686,
      "charfunctionmarkermarker": 4687,
      "Ġqof": 4688,
      "distance": 4689,
      "Ġstdostreammarker": 4690,
      "intfunctionmarkerintfunctionmarkerd": 4691,
      "methodecerenamespaceecere": 4692,
      "Ġgsi": 4693,
      "Ġnumberpointermarker": 4694,
      "Ġgetcode": 4695,
      "apr": 4696,
      "pan": 4697,
      "gettext": 4698,
      "Ġisns": 4699,
      "unix": 4700,
      "ential": 4701,
      "ool": 4702,
      "Ġgtklabel": 4703,
      "agent": 4704,
      "iler": 4705,
      "dit": 4706,
      "ted": 4707,
      "Ġvoidfunctionmarkertruevoidfunctionmarker": 4708,
      "orderpointermarker": 4709,
      "sector": 4710,
      "controller": 4711,
      "Ġintfunctionmarkery": 4712,
      "limagepointermarker": 4713,
      "have": 4714,
      "Ġspinlockirqsave": 4715,
      "lict": 4716,
      "objects": 4717,
      "Ġtimer": 4718,
      "otovoidfunctionmarker": 4719,
      "phase": 4720,
      "ignore": 4721,
      "Ġvoidfunctionmarkergotovoidfunctionmarker": 4722,
      "ities": 4723,
      "Ġgnutl": 4724,
      "setstructpointermarker": 4725,
      "03": 4726,
      "sibl": 4727,
      "Ġisltakepointermarker": 4728,
      "less": 4729,
      "rell": 4730,
      "prim": 4731,
      "readerpointermarker": 4732,
      "Ġass": 4733,
      "dataget": 4734,
      "Ġguintmarker": 4735,
      "Ġcar": 4736,
      "graphics": 4737,
      "Ġtot": 4738,
      "layoutpointermarker": 4739,
      "Ġfull": 4740,
      "ctrans": 4741,
      "markup": 4742,
      "ulator": 4743,
      "bf": 4744,
      "decoder": 4745,
      "digest": 4746,
      "Ġfailedn": 4747,
      "Ġ1024": 4748,
      "Ġsample": 4749,
      "boxintfunctionmarkerintfunctionmarker": 4750,
      "Ġcontent": 4751,
      "ctive": 4752,
      "connected": 4753,
      "Ġdynamic": 4754,
      "major": 4755,
      "Ġbind": 4756,
      "Ġpri": 4757,
      "tol": 4758,
      "Ġgcancellablepointermarker": 4759,
      "unregister": 4760,
      "ero": 4761,
      "oublemarker": 4762,
      "Ġvoidfunctionmarkerm": 4763,
      "Ġvoidfunctionmarkerifvoidfunctionmarkervoidfunctionmarker": 4764,
      "details": 4765,
      "atompointermarker": 4766,
      "Ġtreetype": 4767,
      "infop": 4768,
      "pmarker": 4769,
      "toolbar": 4770,
      "Ġpoly": 4771,
      "Ġvoidfunctionmarkerdatavoidfunctionmarker": 4772,
      "Ġvoidfunctionmarkerwhilevoidfunctionmarker": 4773,
      "Ġintfunctionmarkerflagsintfunctionmarker": 4774,
      "Ġbf": 4775,
      "erow": 4776,
      "1024": 4777,
      "rack": 4778,
      "dot": 4779,
      "Ġgobjectref": 4780,
      "Ġnb": 4781,
      "264": 4782,
      "iov": 4783,
      "Ġsizeofstructvariable": 4784,
      "Ġforint": 4785,
      "strings": 4786,
      "Ġvoidfunctionmarkerpvoidfunctionmarkervoidfunctionmarker": 4787,
      "Ġdeverrstructpointermarkerdev": 4788,
      "ports": 4789,
      "Ġstructpointermarkersize": 4790,
      "extract": 4791,
      "forward": 4792,
      "refresh": 4793,
      "ock": 4794,
      "fileintfunctionmarker": 4795,
      "samp": 4796,
      "recur": 4797,
      "console": 4798,
      "builtin": 4799,
      "addrt": 4800,
      "Ġlm": 4801,
      "extensionintfunctionmarker": 4802,
      "Ġdom": 4803,
      "Ġmv": 4804,
      "external": 4805,
      "funcintfunctionmarker": 4806,
      "Ġarker": 4807,
      "Ġbtrfs": 4808,
      "gw": 4809,
      "stateintfunctionmarker": 4810,
      "Ġelf": 4811,
      "Ġedit": 4812,
      "stylepointermarker": 4813,
      "objectmarker": 4814,
      "ptrt": 4815,
      "Ġintfunctionmarkerpintfunctionmarker": 4816,
      "atio": 4817,
      "Ġindent": 4818,
      "nv": 4819,
      "ider": 4820,
      "Ġvoidfunctionmarkerforvoidfunctionmarker": 4821,
      "hp": 4822,
      "xmlnode": 4823,
      "Ġcplerror": 4824,
      "Ġscrip": 4825,
      "Ġmutexunlockstructpointermarker": 4826,
      "stackpointermarker": 4827,
      "Ġintfunctionmarkeru": 4828,
      "Ġpointercharpointermarkerintmarker": 4829,
      "ging": 4830,
      "confi": 4831,
      "identity": 4832,
      "Ġextr": 4833,
      "backendpointermarker": 4834,
      "Ġoo": 4835,
      "ins": 4836,
      "Ġvoidfunctionmarkersig": 4837,
      "Ġcalloc": 4838,
      "spath": 4839,
      "Ġgtktogglebutton": 4840,
      "Ġiv": 4841,
      "Ġdirectory": 4842,
      "rl": 4843,
      "zoom": 4844,
      "Ġtd": 4845,
      "ade": 4846,
      "hard": 4847,
      "Ġgstrtsp": 4848,
      "Ġorte": 4849,
      "entr": 4850,
      "Ġgeneric": 4851,
      "Ġsmall": 4852,
      "precision": 4853,
      "ipv": 4854,
      "Ġstructpointermarkerlen": 4855,
      "grab": 4856,
      "falsevoidfunctionmarker": 4857,
      "Ġvoidfunctionmarkerk": 4858,
      "Ġlistforeachentry": 4859,
      "Ġunitpointermarker": 4860,
      "countpointermarkerr": 4861,
      "anjut": 4862,
      "Ġproxy": 4863,
      "compute": 4864,
      "bgav": 4865,
      "argintfunctionmarker": 4866,
      "Ġexist": 4867,
      "datad": 4868,
      "checked": 4869,
      "ize": 4870,
      "listt": 4871,
      "attrs": 4872,
      "Ġbig": 4873,
      "listmarker": 4874,
      "settingspointermarker": 4875,
      "threads": 4876,
      "pluginpointermarker": 4877,
      "come": 4878,
      "tick": 4879,
      "Ġgtr": 4880,
      "Ġphp": 4881,
      "dget": 4882,
      "initialized": 4883,
      "countpointermarkerrcountpointermarkerr": 4884,
      "Ġsz": 4885,
      "Ġredis": 4886,
      "logger": 4887,
      "numeric": 4888,
      "lv": 4889,
      "helper": 4890,
      "Ġintfunctioninternalclassinstintfunctionpointermarkerintfunctionmarker": 4891,
      "curl": 4892,
      "Ġmidgard": 4893,
      "pointermarkerm": 4894,
      "setstring": 4895,
      "scre": 4896,
      "Ġstrerrorerrno": 4897,
      "licit": 4898,
      "suffix": 4899,
      "Ġgup": 4900,
      "infointfunctionmarkerintfunctionmarker": 4901,
      "Ġstrstr": 4902,
      "theme": 4903,
      "Ġintel": 4904,
      "mallocsizeof": 4905,
      "Ġftt": 4906,
      "streamtpointermarker": 4907,
      "before": 4908,
      "latform": 4909,
      "Ġdialog": 4910,
      "handlemarker": 4911,
      "mad": 4912,
      "intel": 4913,
      "Ġfra": 4914,
      "argspointermarker": 4915,
      "exists": 4916,
      "Ġdepth": 4917,
      "bw": 4918,
      "Ġbegin": 4919,
      "Ġsprintfcharmarkerarray": 4920,
      "Ġclutteractorpointermarker": 4921,
      "Ġresource": 4922,
      "Ġwxstring": 4923,
      "Ġps": 4924,
      "ced": 4925,
      "minor": 4926,
      "jump": 4927,
      "cst": 4928,
      "Ġintfunctioninternalclassinstintfunctionpointermarkerintfunctionmarkervtblintfunctionmarker": 4929,
      "pas": 4930,
      "Ġvtkid": 4931,
      "strip": 4932,
      "package": 4933,
      "contents": 4934,
      "gm": 4935,
      "menupointermarker": 4936,
      "signale": 4937,
      "unique": 4938,
      "Ġintfunctionmarkerqmetaobjectintfunctionmarkerintfunctionmarkercall": 4939,
      "indexpointermarker": 4940,
      "anget": 4941,
      "slave": 4942,
      "Ġorder": 4943,
      "licate": 4944,
      "iffi": 4945,
      "Ġgrid": 4946,
      "stri": 4947,
      "palette": 4948,
      "Ġintfunctionmarkerto": 4949,
      "spr": 4950,
      "Ġprefix": 4951,
      "rr": 4952,
      "instanc": 4953,
      "acces": 4954,
      "reserv": 4955,
      "Ġgsf": 4956,
      "Ġbio": 4957,
      "Ġsection": 4958,
      "sep": 4959,
      "infon": 4960,
      "Ġtreepointermarker": 4961,
      "redis": 4962,
      "Ġregion": 4963,
      "Ġvertex": 4964,
      "install": 4965,
      "evasobjectpointermarker": 4966,
      "drvdatastructpointermarker": 4967,
      "encoder": 4968,
      "nh": 4969,
      "freecharpointermarker": 4970,
      "partition": 4971,
      "erences": 4972,
      "Ġgdl": 4973,
      "lace": 4974,
      "andid": 4975,
      "Ġvoidfunctionmarkerout": 4976,
      "Ġspline": 4977,
      "ftpointermarker": 4978,
      "cntl": 4979,
      "Ġompi": 4980,
      "virtual": 4981,
      "Ġgtkwidgetshow": 4982,
      "falseintfunctionmarker": 4983,
      "Ġclgitpass": 4984,
      "fold": 4985,
      "scrol": 4986,
      "Ġfluid": 4987,
      "Ġintfunctionstructintfunctionpointermarker": 4988,
      "csv": 4989,
      "imp": 4990,
      "Ġmay": 4991,
      "bm": 4992,
      "ship": 4993,
      "Ġmw": 4994,
      "funcvoid": 4995,
      "Ġdbusg": 4996,
      "syntax": 4997,
      "Ġrl": 4998,
      "intmarkerintmarkerintmarker": 4999,
      "Ġfatal": 5000,
      "pdev": 5001,
      "decrefpyobjectpointermarker": 5002,
      "27": 5003,
      "Ġlimit": 5004,
      "Ġag": 5005,
      "funcintfunctionpointermarker": 5006,
      "Ġrule": 5007,
      "pse": 5008,
      "configuration": 5009,
      "instancepointermarker": 5010,
      "running": 5011,
      "ein": 5012,
      "Ġdist": 5013,
      "stmtpointermarker": 5014,
      "sqlite": 5015,
      "dw": 5016,
      "Ġstrncmp": 5017,
      "ofs": 5018,
      "saf": 5019,
      "Ġxf": 5020,
      "Ġvoidfunctionmarkeru": 5021,
      "Ġlocation": 5022,
      "Ġsav": 5023,
      "cv": 5024,
      "gad": 5025,
      "Ġmk": 5026,
      "charupointermarker": 5027,
      "na": 5028,
      "ati": 5029,
      "Ġten": 5030,
      "library": 5031,
      "Ġipm": 5032,
      "basicblockpointermarker": 5033,
      "aintfunctionpointermarker": 5034,
      "paramvalue": 5035,
      "zon": 5036,
      "enext": 5037,
      "parms": 5038,
      "trueintfunctionmarker": 5039,
      "commandpointermarker": 5040,
      "statestructpointermarker": 5041,
      "material": 5042,
      "general": 5043,
      "secret": 5044,
      "Ġetable": 5045,
      "lenvoidfunctionmarker": 5046,
      "fdintfunctionmarker": 5047,
      "curve": 5048,
      "Ġbi": 5049,
      "listener": 5050,
      "iser": 5051,
      "scannerpointermarker": 5052,
      "endian": 5053,
      "Ġssizet": 5054,
      "sess": 5055,
      "pintfunctionpointermarker": 5056,
      "Ġpost": 5057,
      "Ġvoidfunctionmarkerunsignedvoidfunctionmarker": 5058,
      "itorpointermarker": 5059,
      "Ġgladewidget": 5060,
      "inner": 5061,
      "connector": 5062,
      "cq": 5063,
      "erevent": 5064,
      "Ġnone": 5065,
      "Ġocfs": 5066,
      "ube": 5067,
      "agg": 5068,
      "initialize": 5069,
      "Ġdocument": 5070,
      "Ġaccount": 5071,
      "Ġart": 5072,
      "jpeg": 5073,
      "Ġintm": 5074,
      "Ġintfunctionmarkerlong": 5075,
      "pict": 5076,
      "Ġxsh": 5077,
      "Ġsimple": 5078,
      "quired": 5079,
      "arity": 5080,
      "chec": 5081,
      "filechooser": 5082,
      "Ġiscsi": 5083,
      "fragment": 5084,
      "mpz": 5085,
      "displaypointermarker": 5086,
      "Ġgene": 5087,
      "Ġbody": 5088,
      "xintfunctionmarker": 5089,
      "Ġstdout": 5090,
      "Ġprog": 5091,
      "asser": 5092,
      "memcpy": 5093,
      "marshalfuncvoid": 5094,
      "associ": 5095,
      "tem": 5096,
      "statevoidfunctionmarker": 5097,
      "xd": 5098,
      "Ġ60": 5099,
      "Ġsol": 5100,
      "getc": 5101,
      "Ġalready": 5102,
      "Ġrd": 5103,
      "Ġai": 5104,
      "throw": 5105,
      "nameintfunctionpointermarker": 5106,
      "Ġgdkeventbuttonpointermarker": 5107,
      "atr": 5108,
      "calling": 5109,
      "Ġtermin": 5110,
      "traverse": 5111,
      "ression": 5112,
      "unch": 5113,
      "endintfunctionmarker": 5114,
      "socketpointermarker": 5115,
      "Ġhy": 5116,
      "isnull": 5117,
      "argintfunctionpointermarker": 5118,
      "antlr": 5119,
      "Ġlua": 5120,
      "Ġfuse": 5121,
      "plane": 5122,
      "gpu": 5123,
      "Ġsvn": 5124,
      "tle": 5125,
      "comput": 5126,
      "prepend": 5127,
      "Ġpointervoidfunctionmarkerifpointervoidfunctionmarker": 5128,
      "attrib": 5129,
      "Ġdyn": 5130,
      "Ġfound": 5131,
      "elink": 5132,
      "Ġwl": 5133,
      "ocket": 5134,
      "grp": 5135,
      "features": 5136,
      "quare": 5137,
      "ia": 5138,
      "Ġencode": 5139,
      "Ġshared": 5140,
      "cannot": 5141,
      "Ġclgitpassgit": 5142,
      "Ġenodev": 5143,
      "Ġgerrorpointermarkermessage": 5144,
      "Ġdht": 5145,
      "infointfunctionmarker": 5146,
      "Ġuae": 5147,
      "valuepeek": 5148,
      "slotpointermarker": 5149,
      "Ġhandler": 5150,
      "Ġintfunctionf": 5151,
      "privpointermarker": 5152,
      "Ġvoidfunctionmarkerparamvaluesvoidfunctionmarkermarker": 5153,
      "statemarker": 5154,
      "mixer": 5155,
      "defvoidfunctionmarker": 5156,
      "quark": 5157,
      "bounds": 5158,
      "uset": 5159,
      "curren": 5160,
      "pow": 5161,
      "Ġglusterd": 5162,
      "qstring": 5163,
      "Ġdec": 5164,
      "Ġvoidfunctionmarkervoidfunctionmarkervoidfunctionmarkervoidfunctionmarker": 5165,
      "tun": 5166,
      "tabl": 5167,
      "jp": 5168,
      "cial": 5169,
      "Ġpair": 5170,
      "Ġdestroy": 5171,
      "handlervoidfunctionmarker": 5172,
      "Ġargv": 5173,
      "namepointermarker": 5174,
      "Ġsync": 5175,
      "Ġmiss": 5176,
      "Ġnulltree": 5177,
      "Ġfolder": 5178,
      "Ġsplit": 5179,
      "clone": 5180,
      "posintfunctionmarker": 5181,
      "ens": 5182,
      "preview": 5183,
      "sched": 5184,
      "Ġrelation": 5185,
      "weak": 5186,
      "Ġreturnpointermarker": 5187,
      "Ġspec": 5188,
      "Ġsecond": 5189,
      "Ġpq": 5190,
      "boundary": 5191,
      "tou": 5192,
      "sogs": 5193,
      "Ġvoidfunctionmarkervoidfunctionmarkervoidfunctionmarkerprint": 5194,
      "Ġfolk": 5195,
      "scp": 5196,
      "adding": 5197,
      "intfunctionmarkerintfunctionmarkerp": 5198,
      "fileintfunctionmarkerintfunctionmarker": 5199,
      "generate": 5200,
      "Ġoctstr": 5201,
      "Ġstructpointermarkerstatus": 5202,
      "Ġintfunctionmarkerunsignedintfunctionmarkermarker": 5203,
      "Ġglobu": 5204,
      "Ġdecode": 5205,
      "Ġfori": 5206,
      "duration": 5207,
      "umber": 5208,
      "role": 5209,
      "Ġshortpointermarker": 5210,
      "setvoidfunctionmarker": 5211,
      "Ġgsteventpointermarker": 5212,
      "floatfunctionmarkerfloatfunctionmarkerfloatfunctionmarkerfloatfunctionmarker": 5213,
      "entryintfunctionmarker": 5214,
      "tabpointermarker": 5215,
      "visual": 5216,
      "lon": 5217,
      "Ġchan": 5218,
      "paramvaluesvoidfunctionmarker": 5219,
      "tc": 5220,
      "sta": 5221,
      "dynamic": 5222,
      "pointerstructpointermarker": 5223,
      "Ġgstcaps": 5224,
      "cursorpointermarker": 5225,
      "covery": 5226,
      "listen": 5227,
      "Ġdisable": 5228,
      "dh": 5229,
      "parsepointermarker": 5230,
      "unable": 5231,
      "modulepointermarker": 5232,
      "Ġgststructurepointermarker": 5233,
      "kb": 5234,
      "sinkpointermarker": 5235,
      "Ġsuper": 5236,
      "Ġll": 5237,
      "Ġselection": 5238,
      "Ġzz": 5239,
      "definition": 5240,
      "Ġgtkcontainer": 5241,
      "tokenpointermarker": 5242,
      "Ġsens": 5243,
      "Ġxmlchar": 5244,
      "tial": 5245,
      "Ġexception": 5246,
      "buffered": 5247,
      "chat": 5248,
      "Ġiwl": 5249,
      "Ġvolatile": 5250,
      "scanf": 5251,
      "baset": 5252,
      "pb": 5253,
      "cvoidfunctionmarker": 5254,
      "funct": 5255,
      "detect": 5256,
      "variabl": 5257,
      "typed": 5258,
      "doublepointermarkerdoublepointermarker": 5259,
      "Ġvoidfunctioncallback": 5260,
      "ctionpointermarker": 5261,
      "remo": 5262,
      "Ġprot": 5263,
      "Ġche": 5264,
      "erase": 5265,
      "Ġtg": 5266,
      "Ġstructpointermarkerx": 5267,
      "listadd": 5268,
      "intern": 5269,
      "assembl": 5270,
      "etrans": 5271,
      "Ġvoidfunctionmarkerargscopyvoidfunctionmarker": 5272,
      "configure": 5273,
      "tty": 5274,
      "ceed": 5275,
      "complet": 5276,
      "colour": 5277,
      "lags": 5278,
      "valuet": 5279,
      "Ġmobjtpointermarker": 5280,
      "Ġapol": 5281,
      "presentation": 5282,
      "strerror": 5283,
      "fork": 5284,
      "Ġpad": 5285,
      "stest": 5286,
      "Ġhigh": 5287,
      "adaptor": 5288,
      "pagepointermarker": 5289,
      "Ġstructpointermarkercharpointermarker": 5290,
      "coderpointermarker": 5291,
      "Ġpat": 5292,
      "idevice": 5293,
      "blank": 5294,
      "Ġguchar": 5295,
      "Ġstructpointermarkerhw": 5296,
      "Ġcharfunction": 5297,
      "ifs": 5298,
      "crequest": 5299,
      "Ġhtt": 5300,
      "shm": 5301,
      "math": 5302,
      "filemarker": 5303,
      "indexintfunctionmarker": 5304,
      "Ġvoidfunctionmarkersvoidfunctionmarkervoidfunctionmarker": 5305,
      "countvoidfunctionmarker": 5306,
      "Ġere": 5307,
      "Ġhome": 5308,
      "ereference": 5309,
      "arse": 5310,
      "Ġinterface": 5311,
      "Ġ30": 5312,
      "Ġreply": 5313,
      "Ġvoidfunctionmarkergobject": 5314,
      "clean": 5315,
      "Ġdevic": 5316,
      "aque": 5317,
      "uuid": 5318,
      "pyobject": 5319,
      "porary": 5320,
      "sintfunctionpointermarker": 5321,
      "Ġintfunctionaintfunctionpointermarker": 5322,
      "ingpointermarker": 5323,
      "ppend": 5324,
      "cair": 5325,
      "Ġinode": 5326,
      "plug": 5327,
      "Ġ11": 5328,
      "Ġstp": 5329,
      "opts": 5330,
      "Ġfixed": 5331,
      "vvoidfunctionmarker": 5332,
      "Ġsel": 5333,
      "stock": 5334,
      "Ġlogerror": 5335,
      "pacity": 5336,
      "clist": 5337,
      "getn": 5338,
      "ism": 5339,
      "Ġvoidfunctionmarkerorcprogramadd": 5340,
      "groups": 5341,
      "Ġvoidfunctionmarkerfalsevoidfunctionmarker": 5342,
      "xintfunctionmarkerintfunctionmarker": 5343,
      "Ġintfunctionmarkertointfunctionmarker": 5344,
      "compressptrmarker": 5345,
      "getcurrent": 5346,
      "argvoidfunctionmarker": 5347,
      "our": 5348,
      "alpointermarker": 5349,
      "faul": 5350,
      "inet": 5351,
      "Ġgstclock": 5352,
      "defpointermarker": 5353,
      "colorpointermarker": 5354,
      "ctime": 5355,
      "ioctl": 5356,
      "pout": 5357,
      "commandeventmarker": 5358,
      "Ġrate": 5359,
      "painter": 5360,
      "Ġsha": 5361,
      "ctionary": 5362,
      "Ġtc": 5363,
      "ular": 5364,
      "Ġhdr": 5365,
      "Ġnotify": 5366,
      "Ġfv": 5367,
      "Ġallow": 5368,
      "Ġintfunctionmarkerfalseintfunctionmarker": 5369,
      "iscsi": 5370,
      "Ġglu": 5371,
      "wrapper": 5372,
      "ru": 5373,
      "ern": 5374,
      "ssrc": 5375,
      "Ġcurl": 5376,
      "Ġplayerpointermarker": 5377,
      "annot": 5378,
      "concat": 5379,
      "failedintfunctionmarker": 5380,
      "prepare": 5381,
      "sizetpointermarker": 5382,
      "Ġrelease": 5383,
      "pic": 5384,
      "Ġuaeu": 5385,
      "person": 5386,
      "Ġstructpointermarkerbase": 5387,
      "lent": 5388,
      "crc": 5389,
      "Ġgobjectset": 5390,
      "plus": 5391,
      "Ġoperator": 5392,
      "rn": 5393,
      "Ġatoi": 5394,
      "Ġtty": 5395,
      "Ġarch": 5396,
      "added": 5397,
      "answer": 5398,
      "stub": 5399,
      "checksum": 5400,
      "mware": 5401,
      "may": 5402,
      "vendor": 5403,
      "Ġnetif": 5404,
      "mak": 5405,
      "calloc": 5406,
      "headertpointermarker": 5407,
      "erm": 5408,
      "Ġdelta": 5409,
      "leave": 5410,
      "ulk": 5411,
      "Ġax": 5412,
      "Ġhton": 5413,
      "substr": 5414,
      "ptrvoidfunctionpointermarker": 5415,
      "anti": 5416,
      "parm": 5417,
      "netdev": 5418,
      "nodeintfunctionmarker": 5419,
      "asl": 5420,
      "crit": 5421,
      "Ġdbusmessagepointermarker": 5422,
      "colors": 5423,
      "bookmark": 5424,
      "Ġ128": 5425,
      "stb": 5426,
      "plat": 5427,
      "tribut": 5428,
      "Ġpool": 5429,
      "Ġgstevent": 5430,
      "onentpointermarker": 5431,
      "security": 5432,
      "events": 5433,
      "addres": 5434,
      "oformat": 5435,
      "78": 5436,
      "Ġvirt": 5437,
      "Ġintfunctionmarkertrueintfunctionmarker": 5438,
      "scache": 5439,
      "propecerenamespaceecereguiwindow": 5440,
      "reason": 5441,
      "snprintf": 5442,
      "menuitempointermarker": 5443,
      "parset": 5444,
      "ogg": 5445,
      "Ġintfunctionmarkernintfunctionmarker": 5446,
      "pgs": 5447,
      "quency": 5448,
      "compo": 5449,
      "particle": 5450,
      "Ġgdoublepointermarker": 5451,
      "Ġhex": 5452,
      "avail": 5453,
      "basicblock": 5454,
      "Ġmallocsizeof": 5455,
      "spectr": 5456,
      "ping": 5457,
      "gnut": 5458,
      "peat": 5459,
      "spinlock": 5460,
      "Ġintfunctionmarkerecerevmethodidecerenamespaceecere": 5461,
      "refs": 5462,
      "calendar": 5463,
      "Ġdup": 5464,
      "Ġsg": 5465,
      "namevoidfunctionpointermarker": 5466,
      "Ġvect": 5467,
      "Ġweb": 5468,
      "ajp": 5469,
      "gets": 5470,
      "overlay": 5471,
      "Ġllistelempointermarker": 5472,
      "coeff": 5473,
      "hit": 5474,
      "parentclass": 5475,
      "Ġvoidfunctionmarkerguint": 5476,
      "home": 5477,
      "255": 5478,
      "qla": 5479,
      "hread": 5480,
      "Ġpag": 5481,
      "Ġvoidfunctionmarkerfw": 5482,
      "globus": 5483,
      "soap": 5484,
      "uchar": 5485,
      "rier": 5486,
      "Ġintfunctionmarkerthisintfunctionmarker": 5487,
      "rypt": 5488,
      "Ġ40": 5489,
      "Ġvoidfunctionmarkerpvoidfunctionmarker": 5490,
      "Ġjim": 5491,
      "moduletpointermarker": 5492,
      "Ġvoidfunctionmarkerorcvard": 5493,
      "bdd": 5494,
      "ough": 5495,
      "Ġenter": 5496,
      "statust": 5497,
      "isltakepointermarker": 5498,
      "eregister": 5499,
      "rain": 5500,
      "Ġgeetree": 5501,
      "snap": 5502,
      "pvoidfunctionmarker": 5503,
      "voidfunctionpointermarkervoidfunctionmarkervoidvoidfunctionmarker": 5504,
      "Ġcharmarkerarrayintmarker": 5505,
      "proxypointermarker": 5506,
      "Ġlayout": 5507,
      "scur": 5508,
      "period": 5509,
      "sglobal": 5510,
      "hold": 5511,
      "Ġdwar": 5512,
      "Ġevd": 5513,
      "Ġvoidfunctionmarkererrvoidfunctionmarker": 5514,
      "Ġrel": 5515,
      "Ġgtkcombobox": 5516,
      "Ġintfunctionmarkerlibcerrorerror": 5517,
      "loaded": 5518,
      "again": 5519,
      "final": 5520,
      "editorpointermarker": 5521,
      "maining": 5522,
      "00000000": 5523,
      "funsigned": 5524,
      "freeintfunctionmarkerintfunction": 5525,
      "Ġrn": 5526,
      "handletpointermarker": 5527,
      "backup": 5528,
      "Ġutil": 5529,
      "pause": 5530,
      "Ġllistpointermarker": 5531,
      "Ġplatform": 5532,
      "Ġxmm": 5533,
      "creature": 5534,
      "pairpointermarker": 5535,
      "strue": 5536,
      "frames": 5537,
      "buflen": 5538,
      "Ġfrom": 5539,
      "fio": 5540,
      "ftp": 5541,
      "Ġreceive": 5542,
      "flo": 5543,
      "Ġstructpointermarkerlast": 5544,
      "modify": 5545,
      "Ġctrl": 5546,
      "Ġvoidfunctionmarkerflagsvoidfunctionmarker": 5547,
      "Ġmis": 5548,
      "words": 5549,
      "servicepointermarker": 5550,
      "Ġvoidfunctionmarkerinputchrvoidfunctionmarker": 5551,
      "ited": 5552,
      "destination": 5553,
      "Ġgdldock": 5554,
      "statusvoidfunctionmarker": 5555,
      "fop": 5556,
      "Ġglistpointermarkernext": 5557,
      "erpointermarkerpriv": 5558,
      "Ġvoidfunctionmarkernvoidfunctionmarker": 5559,
      "heal": 5560,
      "Ġverbose": 5561,
      "Ġgsttag": 5562,
      "Ġcoun": 5563,
      "okenpointermarker": 5564,
      "Ġusage": 5565,
      "datan": 5566,
      "infovoidfunctionmarker": 5567,
      "aff": 5568,
      "bank": 5569,
      "algorith": 5570,
      "urfacepointermarker": 5571,
      "adient": 5572,
      "Ġrs": 5573,
      "attributepointermarker": 5574,
      "threshold": 5575,
      "ctxvoidfunctionpointermarker": 5576,
      "exchange": 5577,
      "Ġwith": 5578,
      "Ġnmdevice": 5579,
      "toint": 5580,
      "green": 5581,
      "42": 5582,
      "mplement": 5583,
      "sequ": 5584,
      "Ġmedi": 5585,
      "Ġvoidfunctionmarkerregister": 5586,
      "Ġdesc": 5587,
      "fromstring": 5588,
      "deleted": 5589,
      "wi": 5590,
      "alle": 5591,
      "img": 5592,
      "animation": 5593,
      "Ġunused": 5594,
      "reco": 5595,
      "Ġep": 5596,
      "Ġsnmp": 5597,
      "Ġalph": 5598,
      "grow": 5599,
      "product": 5600,
      "intfunctionmarkerintfunctionmarkerb": 5601,
      "Ġforce": 5602,
      "Ġthisget": 5603,
      "vironment": 5604,
      "Ġintfunctionmarkerintfunctionmarkerint": 5605,
      "Ġgsimpleasyncresult": 5606,
      "gbe": 5607,
      "voidpointervoidfunctionmarker": 5608,
      "Ġmpd": 5609,
      "wb": 5610,
      "Ġfsogs": 5611,
      "encrypt": 5612,
      "bookpointermarker": 5613,
      "pointermarkery": 5614,
      "symbolpointermarker": 5615,
      "800": 5616,
      "Ġmer": 5617,
      "cationpointermarker": 5618,
      "ofstructpointermarker": 5619,
      "Ġianjut": 5620,
      "Ġdp": 5621,
      "rnd": 5622,
      "0000000": 5623,
      "sib": 5624,
      "mapped": 5625,
      "Ġprofile": 5626,
      "andidate": 5627,
      "eb": 5628,
      "95": 5629,
      "prequest": 5630,
      "Ġgsimpleasyncresultpointermarker": 5631,
      "strans": 5632,
      "itiv": 5633,
      "Ġaudio": 5634,
      "tot": 5635,
      "sistent": 5636,
      "resume": 5637,
      "headintfunctionmarker": 5638,
      "Ġsequence": 5639,
      "Ġtcp": 5640,
      "registry": 5641,
      "ctree": 5642,
      "arrow": 5643,
      "Ġstrncpy": 5644,
      "fh": 5645,
      "Ġpointervoidfunctionmarkerreturn": 5646,
      "Ġfinish": 5647,
      "eh": 5648,
      "Ġtrac": 5649,
      "Ġintfunctionmarkerstructintfunctionmarkermarker": 5650,
      "export": 5651,
      "mono": 5652,
      "bout": 5653,
      "istat": 5654,
      "pq": 5655,
      "intfunctionmarkerintfunctionmarkern": 5656,
      "Ġzero": 5657,
      "Ġintfunctionmarkermode": 5658,
      "sclient": 5659,
      "izer": 5660,
      "Ġmemcmp": 5661,
      "quit": 5662,
      "confpointermarker": 5663,
      "Ġswap": 5664,
      "errmsg": 5665,
      "nk": 5666,
      "cdr": 5667,
      "indi": 5668,
      "Ġgtkliststore": 5669,
      "listintfunctionpointermarker": 5670,
      "px": 5671,
      "pointerintfunctionmarker": 5672,
      "Ġrh": 5673,
      "scap": 5674,
      "datal": 5675,
      "eeded": 5676,
      "cnic": 5677,
      "orientation": 5678,
      "commod": 5679,
      "Ġintfunctionmarkerqmetaobjectintfunctionmarkerintfunctionmarkercallintfunctionmarkermarker": 5680,
      "metadat": 5681,
      "Ġsegment": 5682,
      "suint": 5683,
      "oframework": 5684,
      "Ġintfunctiontintfunctionpointermarker": 5685,
      "Ġunion": 5686,
      "Ġta": 5687,
      "Ġvoidfunctionself": 5688,
      "Ġxmlse": 5689,
      "idt": 5690,
      "Ġvoidfunctionmarkerva": 5691,
      "flash": 5692,
      "strlencharpointermarker": 5693,
      "ison": 5694,
      "hostname": 5695,
      "Ġgamgid": 5696,
      "je": 5697,
      "ende": 5698,
      "writereg": 5699,
      "wra": 5700,
      "Ġcatch": 5701,
      "urnal": 5702,
      "language": 5703,
      "Ġgparamspec": 5704,
      "amethod": 5705,
      "fire": 5706,
      "amode": 5707,
      "Ġvoidfunctionmarkergcclosurevoidfunctionmarker": 5708,
      "rend": 5709,
      "quad": 5710,
      "fintfunctionmarker": 5711,
      "Ġflush": 5712,
      "slapi": 5713,
      "alized": 5714,
      "eek": 5715,
      "conversion": 5716,
      "Ġpys": 5717,
      "sibling": 5718,
      "pur": 5719,
      "Ġjpeg": 5720,
      "ptrvoidfunctionmarker": 5721,
      "Ġcrm": 5722,
      "Ġflobjectpointermarker": 5723,
      "sume": 5724,
      "increment": 5725,
      "clicked": 5726,
      "prompt": 5727,
      "doublemarkerdoublemarker": 5728,
      "primary": 5729,
      "scount": 5730,
      "sett": 5731,
      "Ġtrackersparql": 5732,
      "Ġgsize": 5733,
      "lotpointermarker": 5734,
      "lockintfunctionmarker": 5735,
      "Ġcamelf": 5736,
      "arc": 5737,
      "ware": 5738,
      "debu": 5739,
      "sassert": 5740,
      "Ġexo": 5741,
      "Ġgwydata": 5742,
      "seed": 5743,
      "kt": 5744,
      "catalog": 5745,
      "Ġstructpointermarkeris": 5746,
      "Ġerrmsg": 5747,
      "utable": 5748,
      "Ġgobjectclass": 5749,
      "Ġatt": 5750,
      "Ġvoidfunctionexvoidfunctionpointermarkervoidfunctionmarker": 5751,
      "66": 5752,
      "Ġair": 5753,
      "Ġpointervoidfunctionmarkerreturnpointervoidfunctionmarker": 5754,
      "Ġllist": 5755,
      "Ġudisk": 5756,
      "tassert": 5757,
      "velo": 5758,
      "Ġnote": 5759,
      "Ġsetup": 5760,
      "going": 5761,
      "cons": 5762,
      "Ġfailure": 5763,
      "Ġfopen": 5764,
      "polygon": 5765,
      "Ġfclosefilepointermarker": 5766,
      "usr": 5767,
      "bal": 5768,
      "Ġmxf": 5769,
      "sedit": 5770,
      "Ġtool": 5771,
      "mv": 5772,
      "sets": 5773,
      "szintfunctionmarker": 5774,
      "dif": 5775,
      "Ġintfunctionmarkerctxintfunctionmarkerintfunctionmarker": 5776,
      "llistpointermarker": 5777,
      "Ġvoidfunctiongmarshalfuncvoid": 5778,
      "resourc": 5779,
      "llistelempointermarker": 5780,
      "timi": 5781,
      "requestpointermarker": 5782,
      "dataintmarker": 5783,
      "71": 5784,
      "gdi": 5785,
      "iq": 5786,
      "Ġself": 5787,
      "native": 5788,
      "effect": 5789,
      "Ġprivate": 5790,
      "Ġexpand": 5791,
      "Ġintfunctionmarkerlenintfunctionmarker": 5792,
      "pli": 5793,
      "Ġmg": 5794,
      "gslistpointermarker": 5795,
      "devintfunctionmarker": 5796,
      "75": 5797,
      "Ġintfunctionmarkerbuf": 5798,
      "Ġvoidfunctionmarkerregistervoidfunctionmarker": 5799,
      "gedata": 5800,
      "componentpointermarker": 5801,
      "undefined": 5802,
      "Ġsndsoc": 5803,
      "Ġmutexlockstructpointermarker": 5804,
      "omat": 5805,
      "Ġspr": 5806,
      "scen": 5807,
      "wordmarker": 5808,
      "spacepointermarker": 5809,
      "Ġvoidfunctionmarkerorcvart": 5810,
      "wide": 5811,
      "Ġgnodepointermarker": 5812,
      "yn": 5813,
      "pot": 5814,
      "untime": 5815,
      "verpointermarker": 5816,
      "Ġcrypt": 5817,
      "Ġflac": 5818,
      "Ġgarray": 5819,
      "Ġvoidfunctionmarkerslurmdb": 5820,
      "Ġsmart": 5821,
      "gnuc": 5822,
      "printfstructpointermarker": 5823,
      "Ġmonoclasspointermarker": 5824,
      "clipboard": 5825,
      "coree": 5826,
      "Ġbon": 5827,
      "Ġcommon": 5828,
      "Ġdriver": 5829,
      "getclass": 5830,
      "hz": 5831,
      "look": 5832,
      "Ġadap": 5833,
      "pointermarkers": 5834,
      "blem": 5835,
      "thon": 5836,
      "accountpointermarker": 5837,
      "xa": 5838,
      "unic": 5839,
      "accum": 5840,
      "kcs": 5841,
      "boxed": 5842,
      "devintfunctionmarkerintfunctionmarker": 5843,
      "Ġintfunctionmarkerw": 5844,
      "Ġitempointermarker": 5845,
      "pointermarkeris": 5846,
      "valuevoidfunctionmarker": 5847,
      "pointermarkerpointermarkerpointermarkerpointermarkerpointermarkerpointermarkerpointermarkerpointermarker": 5848,
      "obuff": 5849,
      "Ġreturnnull": 5850,
      "arb": 5851,
      "dialogdatapointermarker": 5852,
      "05": 5853,
      "statementpointermarker": 5854,
      "Ġur": 5855,
      "Ġdatum": 5856,
      "lexer": 5857,
      "Ġts": 5858,
      "Ġallocation": 5859,
      "Ġdown": 5860,
      "stime": 5861,
      "functionvoidfunctionmarker": 5862,
      "requal": 5863,
      "Ġgprint": 5864,
      "getdrvdatastructpointermarker": 5865,
      "gv": 5866,
      "Ġbdd": 5867,
      "errore": 5868,
      "92": 5869,
      "fv": 5870,
      "mol": 5871,
      "htt": 5872,
      "ait": 5873,
      "Ġequal": 5874,
      "Ġcharu": 5875,
      "die": 5876,
      "sorted": 5877,
      "Ġintfunctionmarkerresintfunctionmarker": 5878,
      "verr": 5879,
      "named": 5880,
      "freelist": 5881,
      "intfunctionmarkerintfunctionmarkeraintfunctionmarkerintfunctionmarker": 5882,
      "Ġacc": 5883,
      "xe": 5884,
      "xmp": 5885,
      "ating": 5886,
      "stmode": 5887,
      "summary": 5888,
      "600": 5889,
      "month": 5890,
      "Ġpropid": 5891,
      "Ġintfunctionmarkerdouble": 5892,
      "Ġarraysize": 5893,
      "tabletpointermarker": 5894,
      "Ġgxdevice": 5895,
      "unitpointermarker": 5896,
      "written": 5897,
      "Ġscript": 5898,
      "Ġsis": 5899,
      "midi": 5900,
      "Ġmov": 5901,
      "odevice": 5902,
      "pkix": 5903,
      "assertintfunctionmarkerintfunctionmarker": 5904,
      "Ġgupnp": 5905,
      "ations": 5906,
      "Ġisspace": 5907,
      "pie": 5908,
      "Ġsnprintfcharmarkerarray": 5909,
      "Ġrest": 5910,
      "metamethod": 5911,
      "Ġgasyncresultpointermarker": 5912,
      "jnienvpointermarker": 5913,
      "putstructpointermarker": 5914,
      "Ġintfunctionmarkerendif": 5915,
      "egist": 5916,
      "ioc": 5917,
      "Ġintfunctionmarkerendifintfunctionmarker": 5918,
      "valtpointermarker": 5919,
      "Ġintpointermarkerintpointermarker": 5920,
      "datar": 5921,
      "outof": 5922,
      "Ġasc": 5923,
      "Ġpin": 5924,
      "shash": 5925,
      "melement": 5926,
      "Ġmak": 5927,
      "Ġgfarm": 5928,
      "45": 5929,
      "tour": 5930,
      "Ġfloatfunctionmarkerfloat": 5931,
      "Ġae": 5932,
      "levelpointermarker": 5933,
      "handlers": 5934,
      "Ġrtp": 5935,
      "Ġdate": 5936,
      "Ġgtkcm": 5937,
      "execute": 5938,
      "Ġbc": 5939,
      "rex": 5940,
      "Ġgtkbox": 5941,
      "ippet": 5942,
      "Ġwn": 5943,
      "Ġxfree": 5944,
      "Ġintfunctionmarkermax": 5945,
      "Ġfsoframework": 5946,
      "conftpointermarker": 5947,
      "conflict": 5948,
      "reverse": 5949,
      "Ġdrop": 5950,
      "keeppointermarker": 5951,
      "ptrpointermarker": 5952,
      "variablepointermarker": 5953,
      "overflow": 5954,
      "initi": 5955,
      "driv": 5956,
      "Ġgif": 5957,
      "devstructpointermarker": 5958,
      "Ġoperation": 5959,
      "fontpointermarker": 5960,
      "Ġintfunctionmarkerhash": 5961,
      "Ġgtktreeselectionpointermarker": 5962,
      "Ġmf": 5963,
      "Ġopcode": 5964,
      "Ġstructpointermarkertm": 5965,
      "Ġintfunctionmarkerqstring": 5966,
      "servic": 5967,
      "1394": 5968,
      "motion": 5969,
      "Ġpointercharfunctionmarkerdefine": 5970,
      "Ġpointercharfunctionmarkerdefinepointercharfunctionmarker": 5971,
      "layerpointermarker": 5972,
      "obase": 5973,
      "Ġperror": 5974,
      "ors": 5975,
      "errcode": 5976,
      "itemp": 5977,
      "sizetype": 5978,
      "newvoidfunctionmarker": 5979,
      "pick": 5980,
      "indentmarker": 5981,
      "capture": 5982,
      "commodity": 5983,
      "wlock": 5984,
      "Ġpth": 5985,
      "lengthintfunctionmarker": 5986,
      "enone": 5987,
      "lap": 5988,
      "contextvoidfunctionmarker": 5989,
      "Ġcat": 5990,
      "lis": 5991,
      "unlink": 5992,
      "Ġgdebug": 5993,
      "previous": 5994,
      "Ġrequestrecpointermarker": 5995,
      "adj": 5996,
      "voidfunctionmarkervoidfunctionmarkervoidfunctionmarkermarker": 5997,
      "edlist": 5998,
      "Ġprotocol": 5999,
      "bitsstructpointermarker": 6000,
      "itype": 6001,
      "Ġprerr": 6002,
      "cam": 6003,
      "choice": 6004,
      "startintfunctionmarker": 6005,
      "cycle": 6006,
      "Ġstructpointermarkerin": 6007,
      "support": 6008,
      "suspend": 6009,
      "Ġpow": 6010,
      "rbis": 6011,
      "rellm": 6012,
      "Ġgtkwidgetget": 6013,
      "Ġcg": 6014,
      "Ġintfunctionmarkerfl": 6015,
      "playlist": 6016,
      "Ġstructpointermarkerport": 6017,
      "dispose": 6018,
      "descriptorpointermarker": 6019,
      "Ġsafe": 6020,
      "linear": 6021,
      "missing": 6022,
      "gnucunused": 6023,
      "Ġeinalistpointermarker": 6024,
      "msgs": 6025,
      "egr": 6026,
      "Ġgmime": 6027,
      "Ġdig": 6028,
      "poption": 6029,
      "tvusec": 6030,
      "unset": 6031,
      "ender": 6032,
      "editable": 6033,
      "volta": 6034,
      "foutput": 6035,
      "quote": 6036,
      "doublemarkerarray": 6037,
      "Ġimg": 6038,
      "gain": 6039,
      "iso": 6040,
      "signalemit": 6041,
      "Ġcnt": 6042,
      "lish": 6043,
      "markerintmarker": 6044,
      "Ġservice": 6045,
      "ason": 6046,
      "random": 6047,
      "Ġds": 6048,
      "Ġqla": 6049,
      "Ġenet": 6050,
      "Ġgerrorfree": 6051,
      "Ġcogl": 6052,
      "Ġtw": 6053,
      "udp": 6054,
      "Ġpipe": 6055,
      "Ġstrchrcharpointermarker": 6056,
      "Ġmu": 6057,
      "black": 6058,
      "uest": 6059,
      "vals": 6060,
      "Ġcreature": 6061,
      "lose": 6062,
      "Ġintfunctionmarkermp": 6063,
      "listpointermarkernext": 6064,
      "Ġvideo": 6065,
      "attrpointermarker": 6066,
      "Ġpower": 6067,
      "Ġintfunctionmarkerin": 6068,
      "illegal": 6069,
      "offsetintfunctionmarkerintfunctionmarker": 6070,
      "keyvoidfunctionmarker": 6071,
      "Ġvoidfunctionmarkerselfvoidfunctionmarkervoidfunctionmarkerprivvoidfunctionmarkervoidfunctionmarker": 6072,
      "Ġgstflow": 6073,
      "Ġmemsetstructpointermarker": 6074,
      "wire": 6075,
      "Ġintfunctionmarkerch": 6076,
      "Ġintfunctiond": 6077,
      "Ġintfunctionmarkerdo": 6078,
      "gem": 6079,
      "viewer": 6080,
      "Ġslapip": 6081,
      "Ġpending": 6082,
      "nextintfunctionpointermarker": 6083,
      "resolve": 6084,
      "Ġifg": 6085,
      "Ġfsm": 6086,
      "Ġml": 6087,
      "contains": 6088,
      "Ġhs": 6089,
      "scheme": 6090,
      "Ġkzalloc": 6091,
      "icmp": 6092,
      "pathintfunctionmarker": 6093,
      "legacy": 6094,
      "Ġstructpointermarkerre": 6095,
      "Ġmult": 6096,
      "pu": 6097,
      "intfunctionmarkerintfunctionmarkernintfunctionmarker": 6098,
      "Ġnod": 6099,
      "Ġstructpointermarkerphy": 6100,
      "Ġtail": 6101,
      "Ġbd": 6102,
      "ffree": 6103,
      "Ġinstance": 6104,
      "ather": 6105,
      "Ġgdome": 6106,
      "noerror": 6107,
      "headers": 6108,
      "svoidfunctionpointermarker": 6109,
      "subject": 6110,
      "Ġintfunctioncmp": 6111,
      "Ġgetmode": 6112,
      "schema": 6113,
      "structvoidfunctionmarkermarker": 6114,
      "Ġstructpointermarkervalue": 6115,
      "Ġboard": 6116,
      "Ġgladewidgetpointermarker": 6117,
      "simage": 6118,
      "trac": 6119,
      "scc": 6120,
      "widthintfunctionmarker": 6121,
      "intfunctionmarkerintfunctionmarkerthisintfunctionmarker": 6122,
      "Ġvpn": 6123,
      "structpointermarkerd": 6124,
      "lenum": 6125,
      "Ġebook": 6126,
      "Ġiserrstructpointermarker": 6127,
      "Ġmn": 6128,
      "funcptr": 6129,
      "Ġintfunctionmarkerarray": 6130,
      "Ġsscanf": 6131,
      "methodinvo": 6132,
      "iend": 6133,
      "zvalpointermarker": 6134,
      "logdebug": 6135,
      "Ġargc": 6136,
      "Ġextract": 6137,
      "Ġvoidfunctionmarkergtkwidget": 6138,
      "checker": 6139,
      "Ġpas": 6140,
      "slt": 6141,
      "requesttpointermarker": 6142,
      "imat": 6143,
      "ug": 6144,
      "Ġglistfree": 6145,
      "Ġvoidfunctionmarkervoidfunctionmarkervoidfunctionmarkerprintline": 6146,
      "allocator": 6147,
      "Ġskb": 6148,
      "Ġremote": 6149,
      "Ġaim": 6150,
      "Ġintfunctionmarkerlongintfunctionmarker": 6151,
      "story": 6152,
      "Ġparams": 6153,
      "disabled": 6154,
      "generator": 6155,
      "Ġintfunctionmarkernew": 6156,
      "Ġstdlist": 6157,
      "Ġprintfn": 6158,
      "Ġnto": 6159,
      "ollow": 6160,
      "udo": 6161,
      "Ġghashtablelookup": 6162,
      "fprintf": 6163,
      "interp": 6164,
      "Ġneg": 6165,
      "logical": 6166,
      "rom": 6167,
      "modelindex": 6168,
      "Ġgvalueget": 6169,
      "datasize": 6170,
      "scanner": 6171,
      "41": 6172,
      "lm": 6173,
      "entrystructpointermarker": 6174,
      "jack": 6175,
      "typename": 6176,
      "Ġgtkdialog": 6177,
      "sserver": 6178,
      "iobject": 6179,
      "Ġvoidfunctionmarkerlist": 6180,
      "xmlcharpointermarker": 6181,
      "cos": 6182,
      "imetype": 6183,
      "xffffffff": 6184,
      "Ġintfunctionmarkerstaticcast": 6185,
      "Ġhi": 6186,
      "Ġkind": 6187,
      "arti": 6188,
      "Ġvoidfunctioncc": 6189,
      "treemarker": 6190,
      "scb": 6191,
      "units": 6192,
      "Ġpay": 6193,
      "invokemetamethod": 6194,
      "obit": 6195,
      "ottom": 6196,
      "algo": 6197,
      "istic": 6198,
      "seen": 6199,
      "nodevoidfunctionmarker": 6200,
      "Ġretvalue": 6201,
      "asyn": 6202,
      "nan": 6203,
      "defaultvoidfunctionmarker": 6204,
      "fid": 6205,
      "Ġinitialize": 6206,
      "Ġvoidfunctionmarkerfuncvoidfunctionmarker": 6207,
      "deleg": 6208,
      "pyex": 6209,
      "feed": 6210,
      "picture": 6211,
      "outf": 6212,
      "wordpointermarker": 6213,
      "Ġxmt": 6214,
      "prefs": 6215,
      "Ġshift": 6216,
      "Ġpagesize": 6217,
      "imm": 6218,
      "segmentpointermarker": 6219,
      "Ġtransform": 6220,
      "Ġnuma": 6221,
      "seqpointermarker": 6222,
      "guicontrolsbutton": 6223,
      "uper": 6224,
      "irect": 6225,
      "gnew": 6226,
      "Ġintfunctionmarkerbaseintfunctionmarker": 6227,
      "created": 6228,
      "uto": 6229,
      "scene": 6230,
      "aligned": 6231,
      "fds": 6232,
      "otpointermarker": 6233,
      "pointercharfunctionmarkermarker": 6234,
      "odomain": 6235,
      "Ġtclo": 6236,
      "Ġform": 6237,
      "anchor": 6238,
      "expi": 6239,
      "bud": 6240,
      "connectiontpointermarker": 6241,
      "spect": 6242,
      "eneric": 6243,
      "compressed": 6244,
      "Ġwxt": 6245,
      "fdvoidfunctionmarker": 6246,
      "sge": 6247,
      "Ġbest": 6248,
      "Ġdisk": 6249,
      "Ġvx": 6250,
      "arrayintmarker": 6251,
      "dele": 6252,
      "Ġgdas": 6253,
      "sexp": 6254,
      "metric": 6255,
      "ym": 6256,
      "errorinvalid": 6257,
      "username": 6258,
      "iname": 6259,
      "bpointermarker": 6260,
      "spline": 6261,
      "Ġsecret": 6262,
      "closed": 6263,
      "Ġpointermarkerintfunctionmarker": 6264,
      "Ġfeat": 6265,
      "Ġmailimap": 6266,
      "wt": 6267,
      "udio": 6268,
      "raid": 6269,
      "daemon": 6270,
      "addresspointermarker": 6271,
      "iconview": 6272,
      "sentry": 6273,
      "devicestructpointermarker": 6274,
      "egtk": 6275,
      "refpointermarker": 6276,
      "dialo": 6277,
      "road": 6278,
      "intfunctionpointermarkerintfunctionmarkerstructintfunctionmarker": 6279,
      "Ġdnsr": 6280,
      "Ġtimestamp": 6281,
      "Ġstructvariabl": 6282,
      "contr": 6283,
      "elt": 6284,
      "bitmask": 6285,
      "itch": 6286,
      "iternext": 6287,
      "albu": 6288,
      "Ġintfunctionmarkerpy": 6289,
      "Ġcloseintmarker": 6290,
      "fname": 6291,
      "lev": 6292,
      "Ġfeature": 6293,
      "Ġpub": 6294,
      "Ġvoidfunctionmarkerw": 6295,
      "regmap": 6296,
      "xpath": 6297,
      "coming": 6298,
      "accel": 6299,
      "latin": 6300,
      "Ġslap": 6301,
      "Ġ50": 6302,
      "aram": 6303,
      "Ġbugon": 6304,
      "beg": 6305,
      "cerr": 6306,
      "Ġind": 6307,
      "Ġscmsub": 6308,
      "txt": 6309,
      "valist": 6310,
      "Ġgui": 6311,
      "Ġstructpointermarkerop": 6312,
      "extended": 6313,
      "quali": 6314,
      "sprintf": 6315,
      "icast": 6316,
      "frontend": 6317,
      "Ġbucket": 6318,
      "sical": 6319,
      "tableintmarker": 6320,
      "iopointermarker": 6321,
      "conntpointermarker": 6322,
      "Ġintfunctionmarkerstaticcastintfunctionmarkerintfunctionmarker": 6323,
      "iconpointermarker": 6324,
      "cms": 6325,
      "rtl": 6326,
      "uintmarker": 6327,
      "regexp": 6328,
      "uler": 6329,
      "37": 6330,
      "Ġvoidfunctionmarkerlong": 6331,
      "Ġvoidfunctionmarkervoidfunctionmarkervoidfunctionmarkerprintlinevoidfunctionmarkervoidfunctionmarkervoidfunctionmarkervoidfunctionmarkervoidfunctionmarkervoidfunctionmarker": 6332,
      "funcvoidfunctionpointermarkervoidfunctionmarker": 6333,
      "ctxvoidfunctionmarker": 6334,
      "freevoidfunctionmarkervoidfunctionmarker": 6335,
      "his": 6336,
      "Ġ08": 6337,
      "intfunctionmarkerintfunctionmarkerl": 6338,
      "Ġwnck": 6339,
      "intfunctionmarkerintfunctionmarkeriintfunctionmarker": 6340,
      "Ġdprintk": 6341,
      "Ġeval": 6342,
      "Ġcast": 6343,
      "Ġgtktextbuffer": 6344,
      "cmet": 6345,
      "mitk": 6346,
      "Ġgpio": 6347,
      "Ġgslistpointermarkerdata": 6348,
      "authentic": 6349,
      "Ġnp": 6350,
      "anced": 6351,
      "cobject": 6352,
      "streams": 6353,
      "Ġtri": 6354,
      "binpointermarker": 6355,
      "Ġvoidfunctionmarkera": 6356,
      "pts": 6357,
      "frequency": 6358,
      "polar": 6359,
      "cbk": 6360,
      "nick": 6361,
      "jiffi": 6362,
      "fileinfo": 6363,
      "Ġfloatfunctionmarkerif": 6364,
      "ssuccess": 6365,
      "optionspointermarker": 6366,
      "Ġwb": 6367,
      "rargs": 6368,
      "sext": 6369,
      "Ġexif": 6370,
      "eval": 6371,
      "rank": 6372,
      "Ġtestbit": 6373,
      "vg": 6374,
      "engin": 6375,
      "alert": 6376,
      "ngine": 6377,
      "Ġwarnon": 6378,
      "Ġgmain": 6379,
      "Ġvaend": 6380,
      "orb": 6381,
      "datare": 6382,
      "renc": 6383,
      "Ġspi": 6384,
      "operationpointermarker": 6385,
      "Ġasync": 6386,
      "nodemarker": 6387,
      "Ġajfalse": 6388,
      "ecur": 6389,
      "buffers": 6390,
      "queued": 6391,
      "Ġintfunctionmarkertmp": 6392,
      "Ġrot": 6393,
      "smartdatapointermarker": 6394,
      "xattr": 6395,
      "ofont": 6396,
      "Ġcontainerofstructpointermarker": 6397,
      "mip": 6398,
      "Ġscmsubrargs": 6399,
      "Ġconstraint": 6400,
      "Ġmac": 6401,
      "Ġvoidfunctionmarkermy": 6402,
      "Ġluint": 6403,
      "Ġstructpointermarkerirq": 6404,
      "admin": 6405,
      "srr": 6406,
      "resultvoidfunctionmarker": 6407,
      "Ġvoidfunctionmarkergfarm": 6408,
      "qr": 6409,
      "Ġcharacter": 6410,
      "pagesize": 6411,
      "Ġcu": 6412,
      "raster": 6413,
      "mic": 6414,
      "vlan": 6415,
      "gnc": 6416,
      "srml": 6417,
      "statusintfunctionmarker": 6418,
      "sense": 6419,
      "Ġerrcode": 6420,
      "Ġverify": 6421,
      "xxn": 6422,
      "adopt": 6423,
      "props": 6424,
      "submit": 6425,
      "Ġpointervoidfunctionmarkervoidpointervoidfunctionmarker": 6426,
      "spinbutton": 6427,
      "Ġintfunctionc": 6428,
      "initedvoidfunctionmarker": 6429,
      "Ġpriv": 6430,
      "Ġvoidfunctionmarkerh": 6431,
      "components": 6432,
      "spectrum": 6433,
      "ptrintfunctionmarker": 6434,
      "dicator": 6435,
      "ense": 6436,
      "Ġvoidfunctionmarkerintvoidfunctionmarkermarker": 6437,
      "setcurrent": 6438,
      "bitstreampointermarker": 6439,
      "Ġwchartpointermarker": 6440,
      "Ġintfunctionmarkerhintfunctionmarker": 6441,
      "instructionpointermarker": 6442,
      "Ġstrcasecmp": 6443,
      "Ġvoidfunctionmarkero": 6444,
      "buftpointermarker": 6445,
      "Ġcontact": 6446,
      "ivoidfunctionmarker": 6447,
      "cassert": 6448,
      "Ġcompare": 6449,
      "uit": 6450,
      "idtpointermarker": 6451,
      "Ġcryp": 6452,
      "moved": 6453,
      "uu": 6454,
      "ecant": 6455,
      "removed": 6456,
      "getproperty": 6457,
      "serializ": 6458,
      "Ġextension": 6459,
      "Ġluastatepointermarker": 6460,
      "classtpointermarker": 6461,
      "writerpointermarker": 6462,
      "live": 6463,
      "redraw": 6464,
      "Ġmagic": 6465,
      "lickey": 6466,
      "Ġasm": 6467,
      "php": 6468,
      "Ġpoll": 6469,
      "idat": 6470,
      "Ġidentifier": 6471,
      "tw": 6472,
      "stext": 6473,
      "Ġspinunlockirqrestorestructpointermarker": 6474,
      "intfunctionmarkerintfunctionmarkernextintfunctionmarker": 6475,
      "marshaldatavoidfunctionmarker": 6476,
      "tod": 6477,
      "trow": 6478,
      "lockvoidfunctionmarker": 6479,
      "Ġgle": 6480,
      "Ġgdi": 6481,
      "incref": 6482,
      "modifier": 6483,
      "inline": 6484,
      "getparent": 6485,
      "hour": 6486,
      "Ġafinet": 6487,
      "wave": 6488,
      "lstructpointermarker": 6489,
      "holder": 6490,
      "Ġcn": 6491,
      "Ġibus": 6492,
      "valuetpointermarker": 6493,
      "apon": 6494,
      "Ġphoto": 6495,
      "oke": 6496,
      "argc": 6497,
      "mq": 6498,
      "Ġhp": 6499,
      "orizont": 6500,
      "Ġgnmex": 6501,
      "projectpointermarker": 6502,
      "protect": 6503,
      "itu": 6504,
      "enomem": 6505,
      "hc": 6506,
      "Ġtv": 6507,
      "boxe": 6508,
      "Ġbrcm": 6509,
      "ork": 6510,
      "lio": 6511,
      "lop": 6512,
      "Ġgtkaction": 6513,
      "Ġ14": 6514,
      "stab": 6515,
      "boxintfunctionmarker": 6516,
      "wakeup": 6517,
      "namestructpointermarker": 6518,
      "Ġfmt": 6519,
      "Ġgthfile": 6520,
      "strcase": 6521,
      "Ġstructpointermarkerw": 6522,
      "Ġextradata": 6523,
      "Ġorc": 6524,
      "prun": 6525,
      "Ġvb": 6526,
      "pkcs": 6527,
      "listcellpointermarker": 6528,
      "hton": 6529,
      "Ġintfunctionmarkeriintfunctionmarkermarker": 6530,
      "asserth": 6531,
      "getstructpointermarker": 6532,
      "nfs": 6533,
      "Ġrpointermarker": 6534,
      "inkpointermarker": 6535,
      "referencepointermarker": 6536,
      "Ġprogress": 6537,
      "tcl": 6538,
      "scrollbar": 6539,
      "listiter": 6540,
      "Ġpointerdoublepointermarker": 6541,
      "staticpointermarker": 6542,
      "amd": 6543,
      "ys": 6544,
      "Ġnn": 6545,
      "Ġlang": 6546,
      "512": 6547,
      "Ġstructpointermarkermode": 6548,
      "saddr": 6549,
      "Ġvoidfunctionmarkergcclosureswapdatavoidfunctionmarkermarker": 6550,
      "Ġgts": 6551,
      "mptr": 6552,
      "gradient": 6553,
      "Ġlistdel": 6554,
      "Ġbinary": 6555,
      "states": 6556,
      "Ġttl": 6557,
      "abel": 6558,
      "Ġtdb": 6559,
      "sclear": 6560,
      "spinunlock": 6561,
      "Ġgdadat": 6562,
      "Ġsound": 6563,
      "tyn": 6564,
      "handled": 6565,
      "Ġvoidfunctionmarkermarshaldatavoidfunctionmarker": 6566,
      "capacity": 6567,
      "retry": 6568,
      "Ġexplain": 6569,
      "Ġaren": 6570,
      "continueintfunctionmarker": 6571,
      "inval": 6572,
      "isk": 6573,
      "Ġwi": 6574,
      "82": 6575,
      "Ġvastart": 6576,
      "Ġdbustype": 6577,
      "pred": 6578,
      "Ġintfunctionmarkervalueintfunctionmarker": 6579,
      "Ġintfunctionmarkerretvalintfunctionmarker": 6580,
      "Ġprogram": 6581,
      "parampointermarker": 6582,
      "debugvoidfunctionmarker": 6583,
      "omit": 6584,
      "collectionpointermarker": 6585,
      "npos": 6586,
      "cmode": 6587,
      "Ġvoidfunctionp": 6588,
      "Ġstrncmpcharpointermarker": 6589,
      "half": 6590,
      "Ġdelay": 6591,
      "Ġresol": 6592,
      "eresult": 6593,
      "cdata": 6594,
      "Ġvsi": 6595,
      "Ġdomain": 6596,
      "Ġenoent": 6597,
      "hashtablepointermarker": 6598,
      "functionintfunctionmarker": 6599,
      "imet": 6600,
      "Ġgwen": 6601,
      "strn": 6602,
      "notfound": 6603,
      "errorstring": 6604,
      "funcpointermarker": 6605,
      "Ġbuflen": 6606,
      "interfacepointermarker": 6607,
      "coordinate": 6608,
      "Ġdatabase": 6609,
      "Ġvtkinformation": 6610,
      "Ġclick": 6611,
      "glob": 6612,
      "Ġvoidfunctionmarkerrc": 6613,
      "voltage": 6614,
      "Ġff": 6615,
      "Ġfft": 6616,
      "Ġvoidfunctionmarkerpinitedvoidfunctionmarker": 6617,
      "logy": 6618,
      "Ġckr": 6619,
      "Ġintfunctionmarkertypeintfunctionmarker": 6620,
      "Ġdummy": 6621,
      "utton": 6622,
      "Ġpan": 6623,
      "fromp": 6624,
      "linemarker": 6625,
      "Ġajpstr": 6626,
      "reground": 6627,
      "Ġecerenamespaceecerecominstance": 6628,
      "volatile": 6629,
      "listappend": 6630,
      "capability": 6631,
      "Ġifintfunctionmarker": 6632,
      "Ġintfunctionctx": 6633,
      "Ġmesh": 6634,
      "Ġcancel": 6635,
      "kobj": 6636,
      "prod": 6637,
      "Ġintfunctionmarkercodeintfunctionmarker": 6638,
      "lentry": 6639,
      "Ġsizeo": 6640,
      "Ġcharmarkerintmarker": 6641,
      "Ġgiggle": 6642,
      "Ġtor": 6643,
      "Ġavailable": 6644,
      "Ġreplace": 6645,
      "fileget": 6646,
      "oss": 6647,
      "waiting": 6648,
      "idstructpointermarker": 6649,
      "Ġstructpointermarkera": 6650,
      "quality": 6651,
      "Ġvoidfunctionmarkererrorvoidfunctionmarker": 6652,
      "inpointermarker": 6653,
      "fsp": 6654,
      "predicate": 6655,
      "indexvoidfunctionmarker": 6656,
      "year": 6657,
      "ategory": 6658,
      "Ġcamelimap": 6659,
      "Ġgel": 6660,
      "Ġrealloc": 6661,
      "drive": 6662,
      "webapp": 6663,
      "addrintfunctionmarker": 6664,
      "gnot": 6665,
      "dexml": 6666,
      "Ġdumpfile": 6667,
      "Ġnetdevprivstructpointermarker": 6668,
      "textpointermarker": 6669,
      "Ġtl": 6670,
      "dyn": 6671,
      "smarker": 6672,
      "flate": 6673,
      "bx": 6674,
      "Ġbar": 6675,
      "staticmetaobjectintfunctionmarkerintfunctionmarker": 6676,
      "Ġintfunctionmarkerqassertintfunctionmarkerintfunctionmarker": 6677,
      "staticmetaobjectintfunctionmarkerintfunctionmarkercast": 6678,
      "Ġintfunctionmarkerqassertintfunctionmarkerintfunctionmarkerstaticmetaobjectintfunctionmarkerintfunctionmarkercast": 6679,
      "Ġday": 6680,
      "Ġbufsize": 6681,
      "Ġintfunctionmarkeroutintfunctionmarker": 6682,
      "Ġlpf": 6683,
      "readonly": 6684,
      "authoriz": 6685,
      "gnomegnome": 6686,
      "allowed": 6687,
      "gray": 6688,
      "enet": 6689,
      "checkoutgnomegnome": 6690,
      "Ġextradatacheckoutgnomegnome": 6691,
      "Ġextradatacheckoutgnomegnomeboxe": 6692,
      "charpointermarkercharpointermarker": 6693,
      "Ġwritel": 6694,
      "stmarker": 6695,
      "ized": 6696,
      "vsb": 6697,
      "martyn": 6698,
      "Ġiio": 6699,
      "rackersr": 6700,
      "Ġhomemartyn": 6701,
      "Ġlistadd": 6702,
      "adopted": 6703,
      "gfs": 6704,
      "oburn": 6705,
      "ncase": 6706,
      "ertpointermarker": 6707,
      "asm": 6708,
      "csit": 6709,
      "lee": 6710,
      "parameterpointermarker": 6711,
      "lag": 6712,
      "btree": 6713,
      "initstruct": 6714,
      "vers": 6715,
      "under": 6716,
      "Ġata": 6717,
      "Ġefault": 6718,
      "shader": 6719,
      "Ġslurmdb": 6720,
      "Ġintfunctionmarkerbool": 6721,
      "Ġxlatort": 6722,
      "fli": 6723,
      "Ġgstaudi": 6724,
      "colormap": 6725,
      "Ġsusp": 6726,
      "pointermarkerw": 6727,
      "topointer": 6728,
      "senabled": 6729,
      "mpd": 6730,
      "Ġclk": 6731,
      "coords": 6732,
      "gnode": 6733,
      "Ġgnet": 6734,
      "ipointermarker": 6735,
      "platform": 6736,
      "Ġfflush": 6737,
      "Ġnem": 6738,
      "eof": 6739,
      "sence": 6740,
      "mysql": 6741,
      "Ġgclear": 6742,
      "Ġintfunctionmarkerxintfunctionmarker": 6743,
      "interpol": 6744,
      "nto": 6745,
      "Ġstructpointermarkeraddr": 6746,
      "nomial": 6747,
      "sampler": 6748,
      "idual": 6749,
      "partpointermarker": 6750,
      "Ġwas": 6751,
      "rtc": 6752,
      "jiffies": 6753,
      "xxx": 6754,
      "lang": 6755,
      "intintfunctionmarker": 6756,
      "Ġvaarg": 6757,
      "td": 6758,
      "Ġby": 6759,
      "Ġstatement": 6760,
      "Ġtpbase": 6761,
      "Ġspeed": 6762,
      "Ġintfunctionmarkercontinueintfunctionmarker": 6763,
      "Ġpcidev": 6764,
      "oppointermarker": 6765,
      "cput": 6766,
      "funcs": 6767,
      "mca": 6768,
      "utils": 6769,
      "Ġstdcout": 6770,
      "sibility": 6771,
      "Ġvoidfunctionmarkersignal": 6772,
      "Ġpv": 6773,
      "intfunctionmarkerintfunctionmarkerr": 6774,
      "Ġtemplate": 6775,
      "pgsql": 6776,
      "Ġaud": 6777,
      "attack": 6778,
      "Ġvoidfunctionmarkerget": 6779,
      "destroynotify": 6780,
      "Ġtypepointermarker": 6781,
      "guicontrolsedit": 6782,
      "Ġintfunctionmarkerfloat": 6783,
      "Ġrand": 6784,
      "omode": 6785,
      "photo": 6786,
      "Ġsingle": 6787,
      "opaque": 6788,
      "Ġmember": 6789,
      "detach": 6790,
      "Ġgsb": 6791,
      "Ġgtkwidgetsetsensitive": 6792,
      "batch": 6793,
      "Ġcharmarkerif": 6794,
      "regionpointermarker": 6795,
      "terminal": 6796,
      "Ġnvkm": 6797,
      "logerr": 6798,
      "orph": 6799,
      "urfac": 6800,
      "Ġtem": 6801,
      "ighb": 6802,
      "orizontal": 6803,
      "octet": 6804,
      "Ġleft": 6805,
      "interpreter": 6806,
      "Ġtb": 6807,
      "Ġwrong": 6808,
      "Ġvoidfunctionmarkeruint": 6809,
      "Ġintfunctioncallback": 6810,
      "maskvoidfunctionmarker": 6811,
      "Ġpydecrefpyobjectpointermarker": 6812,
      "signals": 6813,
      "Ġother": 6814,
      "air": 6815,
      "Ġintmarkerintmarkerintmarker": 6816,
      "shar": 6817,
      "valued": 6818,
      "setproperty": 6819,
      "remaining": 6820,
      "ctiv": 6821,
      "listitem": 6822,
      "messagebox": 6823,
      "Ġgitdiff": 6824,
      "invokemetamethodintfunctionmarker": 6825,
      "Ġnetwork": 6826,
      "filetype": 6827,
      "kv": 6828,
      "more": 6829,
      "voidfunctionmarkervoidfunctionmarkernextvoidfunctionmarker": 6830,
      "voidfunctionmarkervoidfunctionmarkernvoidfunctionmarker": 6831,
      "objectvv": 6832,
      "Ġthist": 6833,
      "Ġzx": 6834,
      "Ġgimp": 6835,
      "modem": 6836,
      "intfunctionpointermarkerintfunctionmarkernextintfunctionmarker": 6837,
      "Ġioctl": 6838,
      "Ġmonomethodpointermarker": 6839,
      "Ġjnienvpointermarker": 6840,
      "treewidget": 6841,
      "Ġamitk": 6842,
      "odr": 6843,
      "quant": 6844,
      "quick": 6845,
      "canvaspointermarker": 6846,
      "adjustmentpointermarker": 6847,
      "voidfunctionmarkervoidfunctionmarkersizeof": 6848,
      "phandle": 6849,
      "enumerator": 6850,
      "Ġub": 6851,
      "Ġvoidfunctionmarkerdefaultvoidfunctionmarker": 6852,
      "tpointermarkern": 6853,
      "compiler": 6854,
      "Ġinstructionpointermarker": 6855,
      "hashlib": 6856,
      "elim": 6857,
      "freed": 6858,
      "decimal": 6859,
      "etag": 6860,
      "Ġbraseroburn": 6861,
      "imag": 6862,
      "datalen": 6863,
      "fresh": 6864,
      "voidfunctionmarkermarkervoidfunctionmarkerdatavoidfunctionmarker": 6865,
      "Ġxmmsv": 6866,
      "ifintfunctionmarkerintfunctionmarker": 6867,
      "Ġsvg": 6868,
      "Ġcamelimapx": 6869,
      "hr": 6870,
      "getchar": 6871,
      "datamarker": 6872,
      "tables": 6873,
      "samples": 6874,
      "stdostreammarker": 6875,
      "Ġvoidfunctionmarkerevent": 6876,
      "Ġgstrcmp": 6877,
      "ings": 6878,
      "Ġotf": 6879,
      "Ġintfunctionmarkerkeyintfunctionmarker": 6880,
      "compound": 6881,
      "statevoidfunctionmarkervoidfunctionmarker": 6882,
      "limb": 6883,
      "Ġgstmpeg": 6884,
      "Ġ13": 6885,
      "toplevel": 6886,
      "Ġrealpointermarker": 6887,
      "pointermarkerb": 6888,
      "Ġgstm": 6889,
      "settpointermarker": 6890,
      "memset": 6891,
      "Ġcharfunctionmarkerif": 6892,
      "rand": 6893,
      "Ġrgb": 6894,
      "Ġinet": 6895,
      "solute": 6896,
      "Ġsprintfcharpointermarker": 6897,
      "cross": 6898,
      "lash": 6899,
      "intfunctionmarkerintfunctionmarkermarker": 6900,
      "Ġadv": 6901,
      "delayed": 6902,
      "stp": 6903,
      "seconds": 6904,
      "Ġiterator": 6905,
      "Ġfabs": 6906,
      "pane": 6907,
      "Ġtix": 6908,
      "Ġcomplete": 6909,
      "vn": 6910,
      "quiv": 6911,
      "xmarker": 6912,
      "ereclass": 6913,
      "simp": 6914,
      "Ġgtkresponse": 6915,
      "pll": 6916,
      "geo": 6917,
      "idr": 6918,
      "gfarm": 6919,
      "Ġpkixpl": 6920,
      "Ġnormal": 6921,
      "72": 6922,
      "download": 6923,
      "ingn": 6924,
      "Ġdetect": 6925,
      "bulk": 6926,
      "Ġpointerpointermarker": 6927,
      "erange": 6928,
      "Ġdxf": 6929,
      "Ġber": 6930,
      "thr": 6931,
      "winpointermarker": 6932,
      "blend": 6933,
      "Ġrad": 6934,
      "Ġtenm": 6935,
      "csr": 6936,
      "Ġrecv": 6937,
      "Ġpx": 6938,
      "sheetpointermarker": 6939,
      "ereal": 6940,
      "ostreammarker": 6941,
      "Ġmmap": 6942,
      "Ġomap": 6943,
      "Ġdie": 6944,
      "evt": 6945,
      "Ġgtktreeviewget": 6946,
      "listnodepointermarker": 6947,
      "Ġunsignedpointermarkerintmarker": 6948,
      "Ġofft": 6949,
      "leav": 6950,
      "Ġfputs": 6951,
      "Ġmath": 6952,
      "Ġloctpointermarker": 6953,
      "rentry": 6954,
      "sizeofstruct": 6955,
      "egisterpointermarker": 6956,
      "disp": 6957,
      "fxintmarker": 6958,
      "07": 6959,
      "ea": 6960,
      "Ġord": 6961,
      "Ġesource": 6962,
      "spawn": 6963,
      "hb": 6964,
      "slen": 6965,
      "Ġintfunctionmarkero": 6966,
      "Ġvoidfunctionmarkerrvoidfunctionmarker": 6967,
      "bstructpointermarker": 6968,
      "bitsintfunction": 6969,
      "Ġcouldnt": 6970,
      "Ġvtkindentmarker": 6971,
      "txn": 6972,
      "Ġfdtpointermarker": 6973,
      "cclient": 6974,
      "Ġgtknotebook": 6975,
      "matches": 6976,
      "Ġgarraypointermarker": 6977,
      "audit": 6978,
      "taskpointermarker": 6979,
      "Ġkill": 6980,
      "Ġibu": 6981,
      "mexec": 6982,
      "algorithm": 6983,
      "screenpointermarker": 6984,
      "Ġqlcnic": 6985,
      "informationpointermarker": 6986,
      "Ġti": 6987,
      "idatapointermarker": 6988,
      "Ġrtxpointermarker": 6989,
      "reserved": 6990,
      "gerpointermarker": 6991,
      "tagpointermarker": 6992,
      "Ġase": 6993,
      "aname": 6994,
      "Ġsecitempointermarker": 6995,
      "Ġman": 6996,
      "delt": 6997,
      "vfs": 6998,
      "intfunctionmarkerintfunctionmarkerget": 6999,
      "Ġconstmarkerget": 7000,
      "triangle": 7001,
      "baser": 7002,
      "Ġcrypto": 7003,
      "ned": 7004,
      "Ġgele": 7005,
      "gint": 7006,
      "arow": 7007,
      "Ġafrlocaltpointermarker": 7008,
      "Ġuc": 7009,
      "Ġvoidfunctionmarkerin": 7010,
      "Ġvoidfunctionmarkerlongvoidfunctionmarker": 7011,
      "restart": 7012,
      "grou": 7013,
      "translate": 7014,
      "Ġvoidfunctionmarkerset": 7015,
      "Ġnbytes": 7016,
      "Ġdsp": 7017,
      "launch": 7018,
      "processor": 7019,
      "alive": 7020,
      "Ġgoa": 7021,
      "Ġpeer": 7022,
      "defaul": 7023,
      "Ġdot": 7024,
      "returniffail": 7025,
      "chainup": 7026,
      "Ġcerr": 7027,
      "Ġconstruct": 7028,
      "entryintfunctionpointermarker": 7029,
      "actions": 7030,
      "jav": 7031,
      "scmobj": 7032,
      "Ġglib": 7033,
      "Ġnf": 7034,
      "firm": 7035,
      "Ġloff": 7036,
      "Ġereport": 7037,
      "sized": 7038,
      "infoget": 7039,
      "dle": 7040,
      "marray": 7041,
      "concurrent": 7042,
      "doublefunctionmarkerdoublefunctionmarker": 7043,
      "eturn": 7044,
      "Ġgeo": 7045,
      "actual": 7046,
      "statusmarker": 7047,
      "Ġsndsocd": 7048,
      "Ġci": 7049,
      "compos": 7050,
      "Ġvoidfunctionselfvoidfunctionpointermarkervoidfunctionmarker": 7051,
      "ved": 7052,
      "inary": 7053,
      "81": 7054,
      "fz": 7055,
      "fvoidfunctionmarker": 7056,
      "Ġrsvg": 7057,
      "xyz": 7058,
      "converter": 7059,
      "ural": 7060,
      "istatus": 7061,
      "omb": 7062,
      "compression": 7063,
      "emplate": 7064,
      "edialog": 7065,
      "Ġcharmarkerifcharmarker": 7066,
      "tpointermarkernext": 7067,
      "Ġcomponent": 7068,
      "erecord": 7069,
      "temporary": 7070,
      "Ġrfb": 7071,
      "sco": 7072,
      "Ġqpol": 7073,
      "don": 7074,
      "Ġpointervoidfunctionmarkerpthread": 7075,
      "idobj": 7076,
      "ither": 7077,
      "delement": 7078,
      "Ġfreq": 7079,
      "partial": 7080,
      "loglevel": 7081,
      "floatfunctionpointermarkerfloatfunctionmarker": 7082,
      "instrpointermarker": 7083,
      "Ġ31": 7084,
      "tools": 7085,
      "10000": 7086,
      "Ġintfunctionmarkerfn": 7087,
      "mappend": 7088,
      "octstrpointermarker": 7089,
      "adruple": 7090,
      "structmarker": 7091,
      "ssub": 7092,
      "Ġgsignalemit": 7093,
      "voidfunctionmarkervoidfunctionmarkerdatavoidfunctionmarker": 7094,
      "realpointermarker": 7095,
      "Ġgbooleanpointermarker": 7096,
      "85": 7097,
      "Ġchamp": 7098,
      "Ġgdm": 7099,
      "refcnt": 7100,
      "btl": 7101,
      "Ġpol": 7102,
      "Ġua": 7103,
      "Ġconnman": 7104,
      "Ġgladexml": 7105,
      "Ġbw": 7106,
      "Ġvoidfunctionargvoidfunctionpointermarker": 7107,
      "Ġkw": 7108,
      "Ġskbuff": 7109,
      "Ġcharpointermarkeri": 7110,
      "filesystem": 7111,
      "valuate": 7112,
      "Ġmemsetstructvariable": 7113,
      "contour": 7114,
      "Ġintfunctioncb": 7115,
      "Ġnorm": 7116,
      "getprivate": 7117,
      "scall": 7118,
      "Ġgtkfilechooser": 7119,
      "spre": 7120,
      "voidvoidfunctionmarkervoidfunctionmarker": 7121,
      "voidfunctionmarkervoidfunctionmarkerl": 7122,
      "started": 7123,
      "canon": 7124,
      "vertical": 7125,
      "alter": 7126,
      "pls": 7127,
      "sectionpointermarker": 7128,
      "buddy": 7129,
      "xmlsec": 7130,
      "Ġvolume": 7131,
      "linkpointermarker": 7132,
      "xl": 7133,
      "Ġschedule": 7134,
      "Ġwant": 7135,
      "Ġmonodomain": 7136,
      "bitsintfunctionpointermarker": 7137,
      "Ġstrcasecmpcharpointermarker": 7138,
      "Ġgra": 7139,
      "pler": 7140,
      "infointmarker": 7141,
      "bitmappointermarker": 7142,
      "guicontrolsdata": 7143,
      "stere": 7144,
      "Ġrpcsv": 7145,
      "aset": 7146,
      "sdl": 7147,
      "Ġvoidfunctionmarkeroption": 7148,
      "mevent": 7149,
      "handleintfunctionmarker": 7150,
      "setactive": 7151,
      "uintpointermarker": 7152,
      "vintfunctionmarker": 7153,
      "Ġthiss": 7154,
      "Ġod": 7155,
      "stk": 7156,
      "Ġintfunctionr": 7157,
      "ethread": 7158,
      "Ġstructpointermarkeroffset": 7159,
      "retval": 7160,
      "Ġintfunctionmarkerein": 7161,
      "obuffer": 7162,
      "Ġvoidfunctionmarkertypevoidfunctionmarker": 7163,
      "Ġhard": 7164,
      "Ġvoidfunctionoutput": 7165,
      "Ġ200": 7166,
      "Ġixgb": 7167,
      "Ġgobjectgetdata": 7168,
      "ewidth": 7169,
      "Ġsche": 7170,
      "voidfunctionmarkervoidfunctionmarkerp": 7171,
      "Ġtitle": 7172,
      "tached": 7173,
      "formatpointermarker": 7174,
      "stick": 7175,
      "startvoidfunctionmarker": 7176,
      "Ġmrpt": 7177,
      "Ġintfunctionmarkerqmetaobjectintfunctionmarkerintfunctionmarkerinvokemetamethodintfunctionmarker": 7178,
      "Ġqmetaobject": 7179,
      "Ġcoin": 7180,
      "Ġefx": 7181,
      "Ġiscr": 7182,
      "Ġoperands": 7183,
      "ssi": 7184,
      "adapterpointermarker": 7185,
      "Ġinterval": 7186,
      "getactive": 7187,
      "Ġextradatacheckoutgnomegnomeboxessrc": 7188,
      "cw": 7189,
      "Ġstar": 7190,
      "Ġiff": 7191,
      "usion": 7192,
      "evasobject": 7193,
      "Ġintfunctionmarkercountintfunctionmarker": 7194,
      "dlg": 7195,
      "freevoidfunctionmarker": 7196,
      "Ġintfunctionmarkerifintfunctionmarkerintfunction": 7197,
      "Ġitr": 7198,
      "Ġintfunctionmarkercallback": 7199,
      "sip": 7200,
      "vpn": 7201,
      "Ġcv": 7202,
      "Ġcached": 7203,
      "organ": 7204,
      "Ġrep": 7205,
      "treeview": 7206,
      "illa": 7207,
      "colorspace": 7208,
      "enginepointermarker": 7209,
      "overr": 7210,
      "elszintfunctionmarker": 7211,
      "itude": 7212,
      "setbit": 7213,
      "bridge": 7214,
      "wmwindowpointermarker": 7215,
      "eword": 7216,
      "cpkcs": 7217,
      "structpointermarkeri": 7218,
      "bytesvoidfunctionmarker": 7219,
      "cifi": 7220,
      "ewrite": 7221,
      "profilepointermarker": 7222,
      "ount": 7223,
      "filesize": 7224,
      "Ġworker": 7225,
      "Ġterminal": 7226,
      "occur": 7227,
      "idget": 7228,
      "constr": 7229,
      "namelen": 7230,
      "sintmarkerintmarker": 7231,
      "Ġgvfsjob": 7232,
      "best": 7233,
      "misc": 7234,
      "Ġsched": 7235,
      "Ġxlog": 7236,
      "Ġgeehash": 7237,
      "resolution": 7238,
      "Ġuv": 7239,
      "messages": 7240,
      "Ġfloatmarkerarray": 7241,
      "Ġbfdpointermarker": 7242,
      "rangepointermarker": 7243,
      "comboboxpointermarker": 7244,
      "ppkey": 7245,
      "Ġaprpooltpointermarker": 7246,
      "hidden": 7247,
      "Ġmic": 7248,
      "intfunctionpointermarkerintfunctionmarkervoidintfunctionmarker": 7249,
      "Ġassign": 7250,
      "Ġuuid": 7251,
      "devintfunctionpointermarker": 7252,
      "linec": 7253,
      "piece": 7254,
      "paramvaluesvoidfunctionpointermarker": 7255,
      "loper": 7256,
      "ful": 7257,
      "hot": 7258,
      "wxcommandeventmarker": 7259,
      "stringcharpointermarker": 7260,
      "Ġexpressionpointermarker": 7261,
      "Ġspinlockirqsavestructpointermarker": 7262,
      "numberpointermarker": 7263,
      "Ġlisthead": 7264,
      "rest": 7265,
      "olate": 7266,
      "cptrmarker": 7267,
      "opal": 7268,
      "Ġbuiltin": 7269,
      "bid": 7270,
      "Ġchunktpointermarker": 7271,
      "Ġcalc": 7272,
      "Ġgtkwidgetdestroy": 7273,
      "Ġpointerunsignedpointermarker": 7274,
      "recent": 7275,
      "hing": 7276,
      "tempt": 7277,
      "Ġgfileinfopointermarker": 7278,
      "strdupcharpointermarker": 7279,
      "writeregstructpointermarker": 7280,
      "posix": 7281,
      "Ġdbug": 7282,
      "Ġomni": 7283,
      "Ġaccept": 7284,
      "Ġrandom": 7285,
      "Ġreturnintmarker": 7286,
      "proj": 7287,
      "Ġrf": 7288,
      "mle": 7289,
      "screate": 7290,
      "900": 7291,
      "sconst": 7292,
      "voidfunctionmarkervoidfunctionmarkern": 7293,
      "Ġsem": 7294,
      "ead": 7295,
      "Ġstructpointermarkercur": 7296,
      "Ġdirpointermarker": 7297,
      "errorintfunctionmarkerintfunctionmarker": 7298,
      "oublepointermarker": 7299,
      "hci": 7300,
      "Ġstructpointermarkerbuf": 7301,
      "Ġfro": 7302,
      "rosk": 7303,
      "freeintfunctionmarker": 7304,
      "dbl": 7305,
      "Ġsat": 7306,
      "itter": 7307,
      "controlpointermarker": 7308,
      "Ġislbasic": 7309,
      "Ġseekset": 7310,
      "rsp": 7311,
      "stringvoidfunctionmarker": 7312,
      "abedit": 7313,
      "unload": 7314,
      "Ġgbyte": 7315,
      "Ġstructpointermarkerstart": 7316,
      "lockstructpointermarker": 7317,
      "ctxmarker": 7318,
      "tex": 7319,
      "Ġgststate": 7320,
      "intfunctionpointermarkerintfunctionmarkerconstintfunctionmarker": 7321,
      "Ġvr": 7322,
      "bufvoidfunctionmarker": 7323,
      "portvoidfunctionmarker": 7324,
      "Ġvtkdata": 7325,
      "posvoidfunctionmarker": 7326,
      "Ġerrorptr": 7327,
      "Ġmerge": 7328,
      "avi": 7329,
      "maker": 7330,
      "gstringpointermarker": 7331,
      "Ġintfunctionmarkersh": 7332,
      "Ġlayer": 7333,
      "Ġring": 7334,
      "Ġrpc": 7335,
      "pres": 7336,
      "hashpointermarker": 7337,
      "configtpointermarker": 7338,
      "parts": 7339,
      "Ġcounter": 7340,
      "Ġianjuta": 7341,
      "Ġlat": 7342,
      "communic": 7343,
      "Ġvoidfunctionmarkeror": 7344,
      "firmware": 7345,
      "mmap": 7346,
      "Ġdirection": 7347,
      "environment": 7348,
      "listiterator": 7349,
      "Ġreinterpretcast": 7350,
      "ipc": 7351,
      "Ġintfunctionmarkernext": 7352,
      "Ġvoidfunctionmarkeris": 7353,
      "freevoidfunctionmarkervoidfunction": 7354,
      "Ġdyncast": 7355,
      "reserve": 7356,
      "vorbis": 7357,
      "Ġstringtypointermarker": 7358,
      "toc": 7359,
      "Ġgconst": 7360,
      "namet": 7361,
      "edgepointermarker": 7362,
      "Ġintfunctionmarkerst": 7363,
      "intfunctionmarkerintfunctionmarkerh": 7364,
      "Ġstatementpointermarker": 7365,
      "xform": 7366,
      "Ġgseterror": 7367,
      "ories": 7368,
      "Ġbasicblockpointermarker": 7369,
      "Ġgamgidlistpointermarker": 7370,
      "cmdvoidfunctionmarker": 7371,
      "schedule": 7372,
      "Ġvoidfunctionmarkerguintvoidfunctionmarker": 7373,
      "Ġgdasql": 7374,
      "jmp": 7375,
      "Ġimp": 7376,
      "Ġintfunctionmarkeraj": 7377,
      "uck": 7378,
      "Ġstructpointermarkere": 7379,
      "intfunctionmarkerintfunctionmarkerstructintfunctionmarker": 7380,
      "Ġstrdupcharpointermarker": 7381,
      "Ġuerrorcodemarker": 7382,
      "Ġbackend": 7383,
      "Ġspecify": 7384,
      "ummary": 7385,
      "readint": 7386,
      "dbgstructpointermarker": 7387,
      "Ġsqrt": 7388,
      "Ġintr": 7389,
      "Ġder": 7390,
      "Ġgtkliststorepointermarker": 7391,
      "transition": 7392,
      "Ġlistforeachentrystructpointermarker": 7393,
      "Ġshell": 7394,
      "infob": 7395,
      "Ġgkrellm": 7396,
      "Ġguintpointermarker": 7397,
      "kn": 7398,
      "Ġintfunctionmarkerointfunctionmarker": 7399,
      "prv": 7400,
      "Ġintfunctionmarkerdoubleintfunctionmarker": 7401,
      "Ġcrc": 7402,
      "Ġstructpointermarkercount": 7403,
      "srcp": 7404,
      "Ġmemcpystructpointermarker": 7405,
      "Ġgsttime": 7406,
      "Ġisdigit": 7407,
      "Ġgdkwindow": 7408,
      "packstart": 7409,
      "Ġgunlikely": 7410,
      "cmdr": 7411,
      "Ġchip": 7412,
      "indexed": 7413,
      "Ġcharfunctionmarkerifcharfunctionmarker": 7414,
      "51": 7415,
      "Ġintfunctionmarkersizeintfunctionmarker": 7416,
      "fsm": 7417,
      "rectanglepointermarker": 7418,
      "Ġdynamiccast": 7419,
      "Ġiw": 7420,
      "cib": 7421,
      "Ġintfunctionmarkerdataintfunctionmarkerintfunctionmarker": 7422,
      "atet": 7423,
      "Ġhal": 7424,
      "verb": 7425,
      "closurepointermarker": 7426,
      "Ġvoidvoidfunctionmarker": 7427,
      "Ġhistory": 7428,
      "Ġretry": 7429,
      "dblock": 7430,
      "netsnmp": 7431,
      "Ġintfunctionmarkeryintfunctionmarker": 7432,
      "Ġhelp": 7433,
      "pointervoidpointermarker": 7434,
      "Ġintfunctionh": 7435,
      "undle": 7436,
      "Ġclip": 7437,
      "journal": 7438,
      "Ġsanestatus": 7439,
      "ilities": 7440,
      "infointfunctionpointermarkerintfunctionmarker": 7441,
      "drawable": 7442,
      "ethis": 7443,
      "formation": 7444,
      "Ġintfunctionmarkereceremethodecerenamespaceecere": 7445,
      "pointermarkerrminpointermarkerrmaxpointermarkerrnatpointermarkerrminpointermarkerrmaxpointermarkerrnatpointermarkerrnat": 7446,
      "tid": 7447,
      "Ġvl": 7448,
      "msk": 7449,
      "shandle": 7450,
      "Ġeq": 7451,
      "enumer": 7452,
      "mbox": 7453,
      "Ġvoidfunctionmarkerswitch": 7454,
      "fiel": 7455,
      "Ġgitrepository": 7456,
      "Ġslur": 7457,
      "Ġreference": 7458,
      "Ġdisplaypointermarker": 7459,
      "pointermarkerd": 7460,
      "Ġgdat": 7461,
      "Ġintfunctionmarkerbuffer": 7462,
      "Ġvoidfunctionmarkerj": 7463,
      "Ġbp": 7464,
      "ypet": 7465,
      "slash": 7466,
      "asstring": 7467,
      "Ġanjuta": 7468,
      "incip": 7469,
      "pointermarkerflags": 7470,
      "ptrintfunctionpointermarker": 7471,
      "Ġgdate": 7472,
      "lsurfacepointermarker": 7473,
      "mlink": 7474,
      "pagestructpointermarker": 7475,
      "Ġjsobjectpointermarker": 7476,
      "Ġintfunctionmarkerecp": 7477,
      "bufintfunctionpointermarker": 7478,
      "association": 7479,
      "ading": 7480,
      "Ġpw": 7481,
      "foreground": 7482,
      "Ġknh": 7483,
      "sbe": 7484,
      "gtktreemodelpointermarker": 7485,
      "pointermarkerrminpointermarkerrmaxpointermarkerrnatpointermarkerrminpointermarkerrmaxpointermarkerrnatpointermarkerrmax": 7486,
      "93": 7487,
      "Ġgascii": 7488,
      "voidfunctionmarkervoidfunctionmarkerev": 7489,
      "Ġpayload": 7490,
      "otify": 7491,
      "ould": 7492,
      "radeon": 7493,
      "parsed": 7494,
      "zend": 7495,
      "Ġhav": 7496,
      "required": 7497,
      "Ġam": 7498,
      "ecerenamespaceed": 7499,
      "Ġqpainter": 7500,
      "statusbar": 7501,
      "Ġclientpointermarker": 7502,
      "Ġmetadata": 7503,
      "elay": 7504,
      "crl": 7505,
      "Ġfit": 7506,
      "Ġsci": 7507,
      "Ġlogdebug": 7508,
      "qlahost": 7509,
      "Ġglyph": 7510,
      "rase": 7511,
      "pointermarkerintpointermarker": 7512,
      "logs": 7513,
      "Ġinitlisthead": 7514,
      "lision": 7515,
      "Ġgstaudio": 7516,
      "Ġmip": 7517,
      "Ġoctstrpointermarker": 7518,
      "realtmarkerintmarker": 7519,
      "brick": 7520,
      "completed": 7521,
      "mooth": 7522,
      "slots": 7523,
      "aseregisterpointermarker": 7524,
      "Ġgstvideo": 7525,
      "mbda": 7526,
      "clusive": 7527,
      "123": 7528,
      "voidfunctionpointermarkervoidfunctionmarkernextvoidfunctionmarker": 7529,
      "Ġerrorint": 7530,
      "Ġsnprintfcharpointermarker": 7531,
      "nth": 7532,
      "Ġcred": 7533,
      "xact": 7534,
      "dims": 7535,
      "getdefault": 7536,
      "nodepointermarkerget": 7537,
      "classt": 7538,
      "site": 7539,
      "Ġide": 7540,
      "Ġvstopvsb": 7541,
      "Ġvstopvsbaseregisterpointermarker": 7542,
      "voidfunctionmarkervoidfunctionmarkert": 7543,
      "graphtpointermarker": 7544,
      "gwen": 7545,
      "getlength": 7546,
      "Ġxl": 7547,
      "mtx": 7548,
      "agn": 7549,
      "Ġvoidfunctionmarkerhton": 7550,
      "intfunctionmarkerintfunctionmarkere": 7551,
      "Ġbm": 7552,
      "strack": 7553,
      "Ġnma": 7554,
      "Ġmpt": 7555,
      "Ġintmarkerint": 7556,
      "Ġmcap": 7557,
      "listbox": 7558,
      "boun": 7559,
      "Ġintfunctionmarkerintfunctionmarkerifintfunctionmarkerintfunctionmarker": 7560,
      "edis": 7561,
      "Ġvoidfunctionf": 7562,
      "Ġvalidate": 7563,
      "intfunctionmarkerintfunctionmarkeriintfunctionmarkerintfunctionmarker": 7564,
      "Ġvoidfunctionmarkergcclosureswapdatavoidfunctionmarkermarkervoidfunctionmarkerdatavoidfunctionmarker": 7565,
      "intf": 7566,
      "percent": 7567,
      "Ġdprintf": 7568,
      "listintfunctionmarkerintfunctionmarker": 7569,
      "Ġvoidfunctionmarkerop": 7570,
      "returncharfunctionmarker": 7571,
      "intfunctionmarkerintfunctionmarkervtblintfunctionmarker": 7572,
      "strate": 7573,
      "Ġregno": 7574,
      "pointermarkerrminpointermarkerrmaxpointermarkerrnatpointermarkerrminpointermarkerrmaxpointermarkerrnatpointermarkerrmin": 7575,
      "optr": 7576,
      "clib": 7577,
      "emptystructpointermarker": 7578,
      "Ġalias": 7579,
      "ecord": 7580,
      "gtktreeview": 7581,
      "Ġsyntax": 7582,
      "decpointermarker": 7583,
      "Ġintfunctionmarkertintfunctionmarkerintfunctionmarker": 7584,
      "pio": 7585,
      "rename": 7586,
      "Ġgkeyfile": 7587,
      "Ġvoidfunctionnew": 7588,
      "mbed": 7589,
      "looppointermarker": 7590,
      "alarm": 7591,
      "Ġundef": 7592,
      "needed": 7593,
      "Ġggnucunused": 7594,
      "Ġecoree": 7595,
      "Ġcharmarkerintmarkercharmarker": 7596,
      "kw": 7597,
      "Ġunexpected": 7598,
      "Ġsector": 7599,
      "ucs": 7600,
      "streamvoidfunctionmarker": 7601,
      "erson": 7602,
      "Ġqstringlist": 7603,
      "propecerenamespaceecereguiwindowget": 7604,
      "Ġvoidfunctionmarkerrcvoidfunctionmarker": 7605,
      "structpointermarkername": 7606,
      "Ġtsrml": 7607,
      "Ġcharfunctionmarkerreturncharfunctionmarker": 7608,
      "descriptionpointermarker": 7609,
      "Ġscal": 7610,
      "codecpointermarker": 7611,
      "adapt": 7612,
      "Ġhdasserth": 7613,
      "Ġgtktextiter": 7614,
      "sci": 7615,
      "Ġsheetpointermarker": 7616,
      "clr": 7617,
      "Ġfilen": 7618,
      "Ġcob": 7619,
      "bond": 7620,
      "dictionary": 7621,
      "compr": 7622,
      "Ġgtktreeviewpointermarker": 7623,
      "Ġvoidfunctionmarkercvoidfunctionmarker": 7624,
      "resolver": 7625,
      "pabstract": 7626,
      "Ġsoupmessage": 7627,
      "mpr": 7628,
      "Ġgutf": 7629,
      "Ġunitywebapp": 7630,
      "Ġgtassert": 7631,
      "Ġvoidintfunctionmarker": 7632,
      "logfile": 7633,
      "Ġzmod": 7634,
      "stopped": 7635,
      "timen": 7636,
      "argtpointermarker": 7637,
      "compat": 7638,
      "qos": 7639,
      "Ġlfloat": 7640,
      "ua": 7641,
      "Ġintfunctionmarkerdintfunctionmarker": 7642,
      "trust": 7643,
      "executor": 7644,
      "sparse": 7645,
      "nodet": 7646,
      "reflection": 7647,
      "Ġdbusmessageiter": 7648,
      "userpointermarker": 7649,
      "Ġjoin": 7650,
      "nest": 7651,
      "Ġcpparserpointermarker": 7652,
      "Ġgimplemarker": 7653,
      "Ġdoublemarkerpointermarker": 7654,
      "maptpointermarker": 7655,
      "queuestructpointermarker": 7656,
      "Ġsvpointermarker": 7657,
      "polytmarker": 7658,
      "Ġgkeyfilepointermarker": 7659,
      "Ġvoidfunctionmarkerdbd": 7660,
      "Ġintfunctionmarkercreate": 7661,
      "setsize": 7662,
      "Ġty": 7663,
      "Ġhashtable": 7664,
      "voidvoidfunctionmarkervoidfunctionmarkervoidfunctionmarker": 7665,
      "Ġrr": 7666,
      "extend": 7667,
      "ereq": 7668,
      "sentrypointermarker": 7669,
      "Ġconstr": 7670,
      "Ġfold": 7671,
      "Ġintfunctionconst": 7672,
      "kerr": 7673,
      "Ġppointermarker": 7674,
      "fromfile": 7675,
      "Ġpkt": 7676,
      "Ġgtkcellrendererpointermarker": 7677,
      "Ġvim": 7678,
      "uns": 7679,
      "som": 7680,
      "upp": 7681,
      "Ġxeventpointermarker": 7682,
      "classintfunctionmarker": 7683,
      "Ġmach": 7684,
      "recno": 7685,
      "lative": 7686,
      "Ġwake": 7687,
      "Ġhybrid": 7688,
      "8000": 7689,
      "dummy": 7690,
      "sts": 7691,
      "certificatepointermarker": 7692,
      "raise": 7693,
      "macr": 7694,
      "serialize": 7695,
      "Ġspell": 7696,
      "lb": 7697,
      "yvoidfunctionmarker": 7698,
      "into": 7699,
      "slider": 7700,
      "stringintfunctionmarker": 7701,
      "sockaddr": 7702,
      "dvoidfunctionmarker": 7703,
      "openssl": 7704,
      "workstructpointermarker": 7705,
      "mcx": 7706,
      "radi": 7707,
      "Ġptrerrstructpointermarker": 7708,
      "Ġebusy": 7709,
      "Ġzval": 7710,
      "nintfunctionpointermarker": 7711,
      "brush": 7712,
      "Ġintfunctionmarkeraintfunctionmarker": 7713,
      "flip": 7714,
      "Ġgtkactionpointermarker": 7715,
      "fraction": 7716,
      "edatatpointermarker": 7717,
      "Ġnautilu": 7718,
      "Ġvoidfunctioncmdpvoidfunctionpointermarkervoidfunctionmarker": 7719,
      "buttons": 7720,
      "Ġcst": 7721,
      "Ġem": 7722,
      "dirs": 7723,
      "tup": 7724,
      "Ġfun": 7725,
      "ixel": 7726,
      "anv": 7727,
      "Ġbook": 7728,
      "providerpointermarker": 7729,
      "tiff": 7730,
      "Ġcluster": 7731,
      "cmod": 7732,
      "team": 7733,
      "Ġboost": 7734,
      "Ġextent": 7735,
      "Ġintfunctionerror": 7736,
      "Ġgfloat": 7737,
      "Ġstructpointermarkerkey": 7738,
      "codeeditor": 7739,
      "devices": 7740,
      "gfxdisplay": 7741,
      "Ġvtkidtype": 7742,
      "listvoidfunctionpointermarker": 7743,
      "joint": 7744,
      "Ġfactor": 7745,
      "intfunctionmarkerintfunctionmarkerointfunctionmarker": 7746,
      "Ġlr": 7747,
      "asure": 7748,
      "highlight": 7749,
      "Ġamdgpu": 7750,
      "Ġdoublepointermarkerdoublepointermarker": 7751,
      "73": 7752,
      "xmlse": 7753,
      "Ġintmarkern": 7754,
      "voidfunctionmarkervoidfunctionmarkere": 7755,
      "Ġgretlmatrixpointermarker": 7756,
      "uerrorcode": 7757,
      "stag": 7758,
      "ats": 7759,
      "chg": 7760,
      "Ġtwo": 7761,
      "viou": 7762,
      "ogram": 7763,
      "gmt": 7764,
      "pointermarkerh": 7765,
      "series": 7766,
      "Ġgtkbuilder": 7767,
      "mexecution": 7768,
      "pintfunctionmarkerintfunctionmarker": 7769,
      "remot": 7770,
      "Ġdav": 7771,
      "sysbuffered": 7772,
      "amera": 7773,
      "Ġgdbusmethodinvo": 7774,
      "Ġrds": 7775,
      "Ġha": 7776,
      "eprom": 7777,
      "gate": 7778,
      "Ġreturnfalse": 7779,
      "cobj": 7780,
      "functionintfunctionpointermarker": 7781,
      "Ġintfunctionmarkersintfunctionmarkerintfunctionmarker": 7782,
      "Ġintfunctionmarkerqassertintfunctionmarkerintfunctionmarkerstaticmetaobjectintfunctionmarkerintfunctionmarkercastintfunctionmarkerintfunctionmarkerointfunctionmarker": 7783,
      "printerpointermarker": 7784,
      "xvoidfunctionmarker": 7785,
      "Ġbraserotrack": 7786,
      "enem": 7787,
      "headvoidfunctionmarker": 7788,
      "Ġxn": 7789,
      "callpointermarker": 7790,
      "Ġvoidfunctionmarkerkey": 7791,
      "Ġintfunctionerrorintfunctionpointermarker": 7792,
      "Ġupper": 7793,
      "Ġadapter": 7794,
      "Ġblob": 7795,
      "Ġuu": 7796,
      "arguments": 7797,
      "lopen": 7798,
      "Ġdv": 7799,
      "firstchild": 7800,
      "Ġdevdbgstructpointermarkerdev": 7801,
      "prox": 7802,
      "cryption": 7803,
      "Ġmanager": 7804,
      "keyboard": 7805,
      "digits": 7806,
      "Ġpthxpointermarker": 7807,
      "Ġario": 7808,
      "prime": 7809,
      "Ġparticle": 7810,
      "escape": 7811,
      "Ġintfunctionmarkercompare": 7812,
      "bignum": 7813,
      "marshalvaluepeek": 7814,
      "valueintfunctionpointermarker": 7815,
      "Ġwrap": 7816,
      "minst": 7817,
      "Ġposix": 7818,
      "Ġvoidfunctionmarkerifdefvoidfunctionmarker": 7819,
      "verlay": 7820,
      "instancevoidfunctionmarker": 7821,
      "Ġirc": 7822,
      "cmdstructpointermarker": 7823,
      "lineno": 7824,
      "Ġstructpointermarkererror": 7825,
      "Ġ04": 7826,
      "startup": 7827,
      "dpy": 7828,
      "Ġstdi": 7829,
      "numb": 7830,
      "ircuit": 7831,
      "ook": 7832,
      "printfintfunctionmarkerintfunctionmarker": 7833,
      "phys": 7834,
      "want": 7835,
      "ervoidfunctionmarker": 7836,
      "pointermarkercharpointermarker": 7837,
      "klass": 7838,
      "lerpointermarker": 7839,
      "Ġqwidgetpointermarker": 7840,
      "lowmarker": 7841,
      "pointermarkerrminpointermarkerrmaxpointermarkerrnatpointermarkerrminpointermarkerrmaxpointermarkerrnatpointermarkerrmaxpointermarkerrminpointermarkerrmaxpointermarkerrnatpointermarkerrminpointermarkerrmaxpointermarkerrnatpointermarkerrnat": 7842,
      "lector": 7843,
      "windows": 7844,
      "mediate": 7845,
      "maps": 7846,
      "Ġserial": 7847,
      "sourcet": 7848,
      "pointermarkersize": 7849,
      "handlevoidfunctionmarker": 7850,
      "clutter": 7851,
      "Ġperl": 7852,
      "Ġstk": 7853,
      "upload": 7854,
      "Ġsetbit": 7855,
      "Ġintfunctionpintfunctionpointermarkerintfunctionmarker": 7856,
      "Ġxmlsecerror": 7857,
      "ccount": 7858,
      "Ġtid": 7859,
      "Ġway": 7860,
      "clistpointermarker": 7861,
      "guint": 7862,
      "Ġlw": 7863,
      "bitsper": 7864,
      "requested": 7865,
      "lcpy": 7866,
      "mpath": 7867,
      "setmarker": 7868,
      "filepath": 7869,
      "countpointermarkerrcountpointermarkerrcountpointermarkerrcountpointermarkerr": 7870,
      "secs": 7871,
      "Ġunlink": 7872,
      "Ġifvoidfunctionmarker": 7873,
      "shead": 7874,
      "Ġefi": 7875,
      "orted": 7876,
      "freegit": 7877,
      "Ġapply": 7878,
      "buffervoidfunctionmarker": 7879,
      "etypepointermarker": 7880,
      "yintfunctionmarker": 7881,
      "endvoidfunctionmarker": 7882,
      "62": 7883,
      "poolt": 7884,
      "gif": 7885,
      "rf": 7886,
      "sizestructpointermarker": 7887,
      "Ġest": 7888,
      "Ġlight": 7889,
      "Ġaff": 7890,
      "Ġdwc": 7891,
      "mpg": 7892,
      "figlistpointermarker": 7893,
      "Ġtsrmlscc": 7894,
      "Ġcgraph": 7895,
      "Ġmoduletablepointermarker": 7896,
      "Ġquadruple": 7897,
      "Ġvoidfunctionmarkersizet": 7898,
      "umbn": 7899,
      "destructor": 7900,
      "poffset": 7901,
      "longpointermarker": 7902,
      "Ġvoidfunctionmarkervoidfunctionmarkervoidfunctionmarkervoidvoidfunctionmarkervoidfunctionmarkervoidfunctionmarker": 7903,
      "Ġiomem": 7904,
      "tooltip": 7905,
      "qualifi": 7906,
      "Ġfloatfunctionmarkeriffloatfunctionmarker": 7907,
      "simul": 7908,
      "ssid": 7909,
      "xit": 7910,
      "dattribut": 7911,
      "Ġudelay": 7912,
      "mapintmarker": 7913,
      "visit": 7914,
      "Ġgdadatamode": 7915,
      "vertices": 7916,
      "Ġvoidfunctionmarkerparamvaluesvoidfunctionmarker": 7917,
      "Ġgtkicon": 7918,
      "termpointermarker": 7919,
      "Ġol": 7920,
      "Ġconfi": 7921,
      "Ġxmalloc": 7922,
      "epointermarker": 7923,
      "iot": 7924,
      "apple": 7925,
      "chron": 7926,
      "Ġgnmexpr": 7927,
      "widgetmarker": 7928,
      "Ġmonog": 7929,
      "fro": 7930,
      "eventmarker": 7931,
      "Ġselected": 7932,
      "Ġunique": 7933,
      "programappend": 7934,
      "Ġsaved": 7935,
      "occurred": 7936,
      "factorypointermarker": 7937,
      "245": 7938,
      "hf": 7939,
      "Ġintfunctionnew": 7940,
      "defer": 7941,
      "boolpointermarker": 7942,
      "Ġuart": 7943,
      "Ġctl": 7944,
      "maget": 7945,
      "Ġtss": 7946,
      "Ġstrbuf": 7947,
      "duplicate": 7948,
      "Ġvoidfunctionmarkerorcprogramappend": 7949,
      "lify": 7950,
      "Ġcollection": 7951,
      "Ġscroll": 7952,
      "Ġstructpointermarkerreg": 7953,
      "cay": 7954,
      "msgvoidfunctionmarker": 7955,
      "ied": 7956,
      "tof": 7957,
      "getline": 7958,
      "Ġpointercharfunctionmarkerif": 7959,
      "Ġgeeconcurrent": 7960,
      "Ġcputobe": 7961,
      "tls": 7962,
      "Ġqstringmarker": 7963,
      "pointermarkerrminpointermarkerrmaxpointermarkerrnatpointermarkerrminpointermarkerrmaxpointermarkerrnatpointermarkerrminpointermarkerrminpointermarkerrmaxpointermarkerrnatpointermarkerrminpointermarkerrmaxpointermarkerrnatpointermarkerrmaxpointermarkerrminpointermarkerrmaxpointermarkerrnatpointermarkerrminpointermarkerrmaxpointermarkerrnatpointermarkerrnat": 7964,
      "results": 7965,
      "ks": 7966,
      "decompressptrmarker": 7967,
      "Ġipv": 7968,
      "Ġstrcpycharpointermarker": 7969,
      "cget": 7970,
      "errorstructpointermarker": 7971,
      "Ġvoidfunctionparamvaluesvoidfunctionpointermarker": 7972,
      "iocontextpointermarker": 7973,
      "notification": 7974,
      "Ġgot": 7975,
      "deg": 7976,
      "threadpointermarker": 7977,
      "pobj": 7978,
      "rgba": 7979,
      "Ġvoidfunctionpvoidfunctionpointermarkervoidfunctionmarker": 7980,
      "Ġcairos": 7981,
      "Ġixgbe": 7982,
      "datalist": 7983,
      "filelist": 7984,
      "Ġgenerate": 7985,
      "Ġgdestroynotify": 7986,
      "det": 7987,
      "scrolled": 7988,
      "Ġifm": 7989,
      "subtype": 7990,
      "Ġfast": 7991,
      "06": 7992,
      "Ġany": 7993,
      "ffi": 7994,
      "lc": 7995,
      "Ġist": 7996,
      "phi": 7997,
      "Ġislast": 7998,
      "Ġspan": 7999,
      "whitespace": 8000,
      "ocument": 8001,
      "xdr": 8002,
      "Ġlibcerrorerror": 8003,
      "Ġstructpointermarkerindex": 8004,
      "Ġscore": 8005,
      "Ġdescript": 8006,
      "Ġmix": 8007,
[...]
